#version: 0.2
Ġ ×
× Ļ
× ķ
×ķ ×
×Ļ ×
× Ķ
Ĳ ×
ľ ×
ŀ ×
ĳ ×
Ġ× Ĳ×
Ġ× Ķ
© ×
Ġ× ľ×
Ġ×Ķ ×
Ľ ×
¨ ×
¢ ×
ª ×
Ġ× ŀ×
×Ļ× Ŀ
Ġ× ĳ×
Ġ× ©×
ł ×
Ĺ ×
¤ ×
Ġ× Ľ×
§ ×
Ġ× Ĳ
×ķ× ª
Ġ× ¢×
Ġ× ľ
Ġ× ķ
ł ×Ļ
Ġ× Ļ
¡ ×
ĵ ×
Ġ×ľ× Ĳ
Ĵ ×
Ġ× ŀ
Ġ×ķ ×
Ġ×Ĳ× ª
ĸ ×Ķ
Ġ× ª×
¦ ×
×Ķ ×
Ġ×Ļ ×
Ġ ,
Ġ×Ĳ× ł×Ļ
Ġ× ©
ĳ ×Ļ×
Ġ×ľ ×Ļ
ľ ×Ļ
¨ ×ķ×
ª ×Ļ
Ġ× ł×
¢ ×ķ×
ĺ ×
Ġ× ĸ×Ķ
×ķ× ¨
ĸ ×
ĳ× ¨
Ġ×Ĳ ×Ļ×
×ķ× Ŀ
Ġ× ª
Ġ× ¨×
×Ļ ×Ļ×
Ġ×¢× ľ
Ľ ×ķ×
ĳ ×ķ×
Ġ× ¢×ķ×
Ġ× ¤×
ľ ×Ķ
Ġ× §×
Ġ×Ľ× ŀ
ł ×Ķ
Ġ× Ĺ×
Ĺ ×ķ×
Ġ×Ĳ ×ķ×
×Ļ× ĵ
Ġ (
Ġ× ¤
×Ļ× ¨
Ľ× ľ
Ġ×©× ľ
ł ×ķ
Ġ×Ľ× ľ
Ġ× Ĵ×
Ġ×Ľ×ŀ ×ķ
Ġ×ŀ ×Ķ
×ķ× ĳ
ŀ ×Ķ
ľ× Ĳ
Ġ× ¡×
×ķ× Ł
×Ļ× Ķ
§ ×ķ×
ĳ× ľ
×Ļ× §
Ġ×¢× Ŀ
Ġ×Ļ ×ķ×
Ľ ×Ļ
Ġ t
Ġ× ¨×ķ×
Ġ×ľ ×Ķ×
¨ ×Ļ×
Ġ× ĵ×
Ø §
×ķ× Ĳ
© ×Ķ
×Ļ× ľ
Ġ×Ĳ× Ĺ×
ľ× Ŀ
Ġ× ĺ
) ,
Ġ×ŀ ×ķ×
Ġ×Ĳ ×ķ×ª
ł ×ķ×
×Ļ× Ł
ł ×Ļ×Ŀ
Ĺ ×Ļ
Ġ× Ľ×ķ×
Ġ×Ĳ× ĸ
ŀ ×ķ×
Ġ×©× ľ×Ļ
¡ ×ķ×
. .
¨ ×Ļ×Ŀ
Ġ×Ļ× ©
Ġ× ĳ
¨× Ĳ
Ġ× ĵ
Ġ×Ķ× ŀ×
Ġ×ľ ×Ķ
Ġ×Ĳ× ľ
Ġ× ĳ×ķ×
Ġ× ĳ×Ļ×
¡ ×Ļ×
Ġ×¨× §
×Ļ× Ĳ
ł ×Ļ×
Ġ× Ľ×Ļ
×Ļ× ©
Ġ×Ĳ×ª ×Ķ
Ġ a
â Ģ
i n
Ĳ× ª
Ġ×ĳ× Ĳ
ĳ ×Ķ
Ġ×ŀ× ª×
ŀ× Ł
h e
Ġ×¢×ķ× ĵ
Ġ Ø
¨× Ĳ×
¤ ×Ķ
ľ ×Ļ×
ľ× ļ
Ġ× Ĺ×ķ×
ŀ ×Ļ
Ġ Ù
Ġ×¤ ×Ķ
Ĳ× Ł
ª ×ķ×
Ġ×Ĳ× Ŀ
Ġ×© ×ķ×
×Ļ ×Ļ
Ġ×Ĳ×Ļ× Ł
ŀ× ¨
Ĳ× ł×Ļ
Ġ s
© ×Ļ×
" "
×ķ ×ķ×
¤ ×ķ×
¦ ×Ķ
Ġ×ŀ ×Ļ
Ġ× Ĵ
© ×Ļ×Ŀ
Ù Ĭ
Ġ×Ĳ×ķ×ª ×Ļ
Ġ×ľ× ļ
Ġ×ŀ ×Ķ×
Ġ m
Ù Ħ
Ġ×Ĳ ×ķ
Ġ× ĸ
¨× ª
o u
Ġ×ŀ× ©×
ĵ ×Ļ
Ġ× ¦×
ª× Ŀ
×Ļ ×ķ×ª
Ġ×Ĳ× ĳ×ľ
Ġ×¢× ĵ
Ġ× ł×ķ×
Ġ -
Ġ× §×ķ×
¨ ×Ķ
© ×ķ×
ŀ ×Ļ×
ł× Ĵ
ª× ¨
Ġ w
ľ ×ķ×
Ġ× ĸ×
Ġ×Ķ× ©×
Ľ ×Ķ
×Ļ ×ķ
Ġ×ĳ× Ĳ×
ł× ¡
§ ×Ļ×
Ġ×Ķ ×ķ×
Ġ×ŀ× ¡×
ł ×ķ×ª
Ġ×ŀ× Ĺ×
Ġ×Ķ× Ľ×ľ
Ġ×Ĳ×Ĺ× ĵ
Ġ×Ķ× Ĳ×
Ġ×ľ× ŀ×
o n
Ġ× ĺ×
Ġ d
Ġ×ĳ× ©×
Ġ×Ķ× ĳ×
Ġ×ĳ× ŀ×
Ĳ ×ķ×
Ġ×Ľ× ĳ×¨
Ġ×Ĵ× Ŀ
Ġ×©× ŀ×
× Ĳ×
Ġ×Ķ ×ķ×Ĳ
Ġ×© ×Ļ×
ŀ ×Ļ×Ŀ
Ġ×Ķ× ¤×
Ġ×ķ× Ĳ×
ĵ ×ķ×
Ġ×ľ× ©×
Ù Ĩ
Ġ×ĺ ×ķ×ĳ
Ġ×ł× ©×
r e
ĵ ×Ķ
ŀ ×Ļ×ĵ
×ķ ×ķ
Ġ× ¦
Ġ×¨×ķ× ¦×Ķ
Ġ b
Ġ×ŀ× Ĳ×
¨× Ĵ
¢× Ŀ
a n
Ġ I
Ġ×Ĳ×Ļ× ļ
×Ļ× ª
Ġ×Ķ× Ŀ
ĺ ×ķ×
i t
ª× ļ
Ġ×ķ ×Ķ×
Ġ×Ķ ×Ļ×Ĳ
ľ ×Ļ×Ŀ
¤× ¡
¤× ¨
Ġt he
©× ¨
©× ĳ
ĺ ×Ķ
Ġ× ¡×ķ×
Ġ×ľ× ¤×
Ġ×Ĳ× ł×
Ġ y
Ġ×Ķ× ¨×
ĵ ×Ļ×
Ġ ?
Ġ l
Ġ×Ľ×ķ× ľ×Ŀ
Ġ×ĳ×ķ× Ĳ
×ķ×¨ ×Ķ
Ĵ ×Ļ×ĵ
Ġ×Ķ× ª×
× Ĳ
Ġ f
ĵ× ¢
Ġ×ŀ ×Ļ×
Ġ×ľ× ¢×
Ġ×© ×Ķ×
Ġ×ľ× ĳ×
Ġ c
Ġ×ŀ× ŀ×
.. .
Ĺ× ª
Ġ×ª× ŀ×Ļ×ĵ
e r
×Ļ ×ķ×Ŀ
Ġ×ĸ ×ķ×
Ġ×ŀ× ¢×
¦× Ĳ
Ĵ× ¢
ĵ ×Ļ×Ŀ
Ġ×ľ× Ĳ×
Ġ×Ļ×ķ× ª×¨
Ľ× ©
¢ ×Ļ×
Ġ×¢× ľ×Ļ
ĸ× ŀ×Ł
Ġ×Ķ× Ĺ×
¨× §
ŀ ×ķ×ª
ŀ× ª
ĵ× ĳ×¨
Ġ×¤ ×ķ×
âĢ ħ
§ ×Ķ
Ġ× Ĺ
l l
Ġ×¨× Ĳ×
§ ×ķ×Ŀ
×Ļ×Ļ× Ł
× ľ×Ĳ
ĳ× ¢
¡× ĺ
Ġ×ķ× ŀ×
ľ× ĳ
¨ ×Ļ
Ĵ ×ķ×
Ġ×Ľ× Ł
Ľ ×Ļ×
Ľ×© ×Ļ×ķ
× ŀ×
Ġ×ĵ ×ķ×
in g
ª× Ł
ĵ× ¨
Ġ×Ľ× ©×
Ĵ ×Ļ×
ľ× Ĳ×
n d
§× ¨
Ġ×ķ ×ķ×
Ĺ×Ļ ×Ļ×Ŀ
¨×Ĳ× ©
Ġ×Ľ× Ĳ×Ł
Ġ×Ļ ×Ķ
Ø ±
Ġ×Ķ ×Ļ×
ĳ× ª
Ġy ou
¨× ļ
ĳ ×Ļ
a t
Ġ×Ķ× Ĵ×
ª× Ĺ
Ġ×¢×ķ× ©×Ķ
Ġ g
? ,
Ġ ""
Ġ×©× Ĳ×
Ġ×ª ×ķ×
Ġ× §
¨×Ĳ ×Ķ
Ġ×ľ×Ķ ×Ļ×ķ×ª
Ġ n
ĺ ×Ļ×
Ġ×Ĳ× ŀ×
Ġ×¢× Ľ×©×Ļ×ķ
Ġ×©× ľ×ļ
Ġ× ¡×Ļ×
× ³
¢× ª
ĺ ×Ļ×Ŀ
Ġ×ľ ×ķ×
Ġ×Ķ× §×
§ ×Ļ×Ŀ
ĳ ×Ļ×Ŀ
Ġ×ķ× ľ×Ĳ
ŀ× ¢
Ġ×ľ× Ľ×
Ġ×©× ľ×Ĳ
Ġ×ľ× Ĺ×
ĳ×Ļ× Ĳ
Ġ×ĳ× ¨×
Ġ×ľ× §×
Ĳ× ¨
¨× ª×Ļ
Ġ×Ķ× ¡×
Ġ×©× Ĳ×ł×Ļ
i s
¤ ×Ļ×
ª ×Ķ
ľ× ľ
ľ× ĵ
o w
Ġ×©× Ŀ
¡× £
Ġ×¤× ¢×Ŀ
Ġ×Ľ×ŀ ×Ķ
Ġ×Ļ ×ķ
ª×ķ× ļ
¨×Ĵ ×Ļ×©
Ġ Ø§
ĺ ×Ļ
ĳ×Ļ× Ł
Ġ p
Ġ×Ķ ×Ļ×Ļ×
ĵ× Ŀ
Ġ×Ĳ×ķ× ª×ļ
Ù Ī
Ľ×ķ× ľ
Ġ×ĳ× ľ×Ļ
¤× ©
Ķ ×
ĳ× Ĳ
¤ ×Ļ×Ŀ
¤× ª
¨× Ĺ
¦× ª
Ġ×ĳ×©× ĳ×Ļ×
Ġ×Ķ ×Ļ×ķ×Ŀ
¡ ×Ļ
¦× ĳ
Ġ×¦× ¨×Ļ×
¦ ×Ļ×Ŀ
Ĳ× ľ×
Ġ×ľ ×ķ
Ĺ× ĵ
Ġ×ľ×Ķ× ª×
Ĳ ×Ķ
Ġ×© ×ķ×ĳ
Ġ×Ļ×ķ× ĵ×¢
Ġ×Ĳ× £
Ġ×ĵ× ĳ×¨
Ĺ ×Ķ
Ĺ× §
Ù ħ
Ľ ×Ļ×Ŀ
ĳ ×ķ×ª
Ø ª
§× ¡
ĸ ×ķ×
Ġ×¤× Ĳ×
Ġ×ľ ×Ļ×
¤ ×Ļ
Ġ×ĳ× ¡×
Ġ×ŀ× §×
Ġ× Ĺ×Ļ
ľ× Ĺ×
ľ× ª
Ø ¨
Ġ×ª× ©×
ĺ× ¨
e s
Ĺ ×ķ×¨
Ġ h
¢×ķ× ľ×Ŀ
ĳ ×ķ×¨
Ĵ× Ł
×ķ ×Ļ
Ġ×Ķ× Ľ×
Ġt o
Ġ×ľ× ŀ×Ķ
o r
Ġ×Ķ× ĸ×ŀ×Ł
Ġ×© ×Ķ
Ġ×Ķ× ĸ×Ķ
Ġ×ŀ× ĳ×
Ġ× ł×Ļ×
×Ļ×§ ×Ķ
©×Ķ ×ķ
Ĺ ×ķ×ª
Ľ× Ł
©× Ł
Ġ×ª× Ĵ×Ļ×ĵ
Ġ×Ĵ ×ķ×
o m
Ġ×ª× Ł
×Ļ×¨ ×Ķ
Ġ×Ķ× ĳ×Ļ×
Ġm e
ł×Ļ ×Ļ×Ŀ
Ĺ× ł×ķ
Ġ S
Ġ×ĳ× ¢×
¤× §
¦ ×Ļ×
a l
Ġ×ķ× ľ×
Ĳ ×Ļ×
Ġ×ª× §×
Ġ×¦×¨×Ļ× ļ
ŀ ×ķ
×ķ×ķ× Ķ
Ġ A
ĸ× ¨
© ×ķ×ª
Ĵ×Ļ× ¢
Ġ×ŀ× Ľ
×Ļ×ľ ×Ļ×Ŀ
Ĵ× ľ
! ,
Ġ×©× ª×
e t
ľ× Ľ×
¨×ķ× Ł
¦ ×ķ×
×Ļ×ľ ×ķ
Ġ×§× ¦×ª
Ġ×Ľ× ļ
Ġ×ŀ× ¤×
ĠÙ ħ
Ġ×Ĳ×Ļ× ĸ×Ķ
Ġ×Ĳ×ķ× ŀ×
ĳ× ĵ
Ġ×Ķ× ĵ×
Ġ×Ĳ×ķ×ª ×ķ
Ĳ×ª ×Ķ
Ġ×ĳ× §×
Ġ×ŀ× ¨×Ĵ×Ļ×©
Ġ×Ļ ×ķ×Ŀ
Ľ× ¨
× ©×
Ġ '
Ľ×ķ× Ł
¤ ×ķ×Ł
© ×ķ×ĳ
×Ļ ×ķ×
Ġ×¢×ľ×Ļ ×Ļ
ł× ª×Ļ
Ġ×ŀ× ¦×
Ġ× ł×Ķ
k e
Ġ×ĳ× Ľ×
ĠØ ¨
Ġ×¤ ×Ļ×
Ġ T
¡×ķ× £
Ġ×Ļ× Ľ×ķ×ľ
Ġ×ŀ× Ľ×
Ĵ ×Ķ
§× ĺ
¡ ×Ļ×Ŀ
ľ ×ķ
Ġ×ķ× ĳ×
a r
Ġt h
ł× §
Ġ it
×Ļ× ļ
Ġ×Ĳ×ķ× ľ×Ļ
Ġ×Ĳ× Ĺ×Ļ
Ġ×Ķ× ¢×
ĳ×ķ× Ĳ
Ġ×ª ×Ļ×
× ŀ×Ķ
Ġ×Ĳ ×Ķ
× ĳ×
Ġ×ĳ×©×ĳ×Ļ× ľ
¡ ×Ķ
Ġ×¢×ĵ ×Ļ×Ļ×Ł
Ġ× §×Ļ×
ª× Ĳ
ľ ×ķ×ª
Ġ×Ĳ×Ļ× ª×Ļ
v e
Ġ×Ķ× Ĳ
ĠØ§ ÙĦ
Ġ×Ĳ× ł
Ġ×Ĳ× ¦×
Ĳ ×Ļ×Ł
¢× ª×Ļ
Ġ×ķ× Ĳ×ł×Ļ
Ġ×ķ× ĸ×Ķ
ŀ× ĵ
Ġ×Ķ ×Ļ×Ķ
¨× ĺ
c k
© ×Ļ×¨
Ĵ× Ŀ
Ĳ× ľ×Ķ
Ġ×ĵ ×Ļ×
¢× ĵ
Ġ in
Ġ×¢× ¦×
ľ× ĺ
Ľ× ł×¡
Ġa nd
Ġ×ĳ× Ĺ×
Ġ×ĳ× ¤×
Ġ×ĳ× Ĵ×
Ġ×Ĳ×ķ× Ķ×
Ġ×¦ ×ķ×
Ġ u
Ù ĩ
Ġ×©× ł×
Ĳ× ľ
§× Ĺ
Ġ×ł× ŀ×
Ġ×ŀ× ¨×
Ġ×ĺ ×Ļ×
ĺ ×ķ
Ġ×ľ× ª×
ĸ ×Ļ×
Ġ×ľ× ¡×
Ġ×Ļ× ©×
ł×Ļ× ª
Ġ×©× ĸ×Ķ
ľ× ł×ķ
Ġ×© ×ķ×Ŀ
Ĳ ×Ļ×Ŀ
Ø ¯
Ġ×ĳ× ª×ķ×ļ
o t
Ġ !
Ġ×ŀ× ĵ×ĳ×¨
¢ ×Ļ×Ŀ
Ġ×Ĵ× ĳ×¨
Ġ×ĸ× ŀ×Ł
l e
Ġ×ł× Ĵ×
Ġ Ġ
§×Ļ× ł×Ĵ
Ø ¹
Ġ âĢ
Ĳ×ľ× ľ×Ķ
Ġ×Ĳ× Ĺ
×Ļ ×Ļ×Ŀ
ľ× ª×Ļ
ł× ª
Ġ×©× ĳ×
Ù ĥ
Ġ×Ĳ× ¤×
Ġ×Ķ× ł×
Ġ×Ĺ× ĳ×¨
Ġ×Ĳ× ľ×
¨× ĳ
Ġ×Ĳ× ľ×Ļ
Ġ×ķ ×Ķ
Ġ×Ļ× Ĳ
Ġ×ķ× ª×
¡× §
Ġ×© ×Ļ×¨
Ġ×ĳ× Ľ×ľ
Ġ×ª× ¢×
ĵ× ©
Ġ×Ķ ×Ļ×Ļ
§× ¨×ķ×
Ġ×Ĳ×ł× Ĺ×ł×ķ
×ķ×¨ ×Ļ×Ŀ
Ġ×ľ× ł×
Ġ×Ĳ×ķ×ª ×Ķ
Ġ B
ŀ ×ķ×Ł
Ĵ× ¨
¢ ×Ķ
Ġ×Ľ× ¡×£
ĺ× Ł
Ġ×ĺ ×ķ×
©× ª
× ª×
Ġ×ķ× ł×
×Ļ×Ļ× §
Ĳ ×Ļ
Ġ o
Ġ×ŀ× ľ×
ĵ× ª
¢×ķ× ĵ
ı ,
ŀ ×Ļ×Ł
ĳ×ķ× ĵ
Ġ×¡× ª×Ŀ
¦ ×Ļ×Ĳ
Ġ×ľ× ¨×
Ġ×Ķ×ķ× ľ×ļ
Ġ×Ķ× Ľ×Ļ
×ķ×Ĳ ×ķ
¤× ľ
¦× ¨
Ġ×Ĳ× ¨×
¢ ×ķ×ª
¤ ×ķ×ª
ĸ ×Ļ
ĳ ×ķ
a s
¤×¡ ×Ļ×§
Ġ×© ×Ļ×©
ľ ×ķ×Ŀ
ł×Ļ ×Ļ×Ł
Ġ× Ľ×Ļ×
Ø ³
i g
ª× Ĺ×
¢×Ļ× ł×Ļ×Ļ×Ŀ
× ¢×
Ġ× ¡
Ġ×ľ× ł×ķ
¨× ĵ
Ġ×ķ×Ĳ× Ŀ
Ġ W
¨× ¡
âĢ ı,
Ġ×Ĳ× Ľ×
u s
Ġ×Ĳ× ª×Ŀ
ª ×Ļ×
×Ļ×Ļ× ĳ
Ġ×Ĳ×ķ× ŀ×¨
× Ľ×
ľ×Ļ× ľ×Ķ
Ġ×Ľ× Ľ×Ķ
¦× Ĺ
Ġ×Ķ× Ĺ×Ļ×Ļ×Ŀ
Ġ×ł× ¨×Ĳ×Ķ
a m
Ľ ×ķ×ª
¨× ¨
×ķ×¨ ×Ļ×ĵ
Ġ×Ĳ×ķ×ŀ× ¨×Ļ×Ŀ
Ġ×Ĺ× ĸ×
Ġ×ĳ× ĵ×
©×ķ× ĺ
¢ ×Ļ×¨
Ġ×Ķ ×Ķ
Ġ×Ļ× ľ×ĵ
Ġ×ĳ×Ļ× Ł
ĠÙ Ī
Ġ×ĳ ×Ļ
ª×Ĳ ×ķ×Ŀ
ł×¡ ×Ķ
Ġ×ľ× Ľ×ľ
Ġ×ĵ ×Ļ
¤ ×Ļ×§
Ġ×ª× Ĺ×
Ġ×Ļ×Ķ ×Ļ×Ķ
ľ× §
Ġ×Ķ× ¨×Ĳ×©
Ġ×ľ×Ľ× Ŀ
Ġ×Ĳ× ŀ×¨
a y
e d
Ġ×ľ× ¦×
Ġ×ŀ× ł×
Ġ×¨×Ĳ× ©
Ġ×Ķ×¨× ĳ×Ķ
"" ,
§× ľ
Ľ×ķ× ľ×Ŀ
§×¨×ķ× ¤×ķ×Ł
ĳ× §
Ġ×Ĳ×Ĺ× ¨×Ļ
§× ª
×ķ×ķ ×Ļ×
Ġ×ľ× Ĵ×
v er
Ġw e
i m
u t
ĸ ×Ļ×Ŀ
¨×Ĳ ×ķ×ª
Ġ e
Ġ×Ķ× ¦×
Ġ×Ķ× ĸ×
Ġm y
ĵ×ķ× ľ
Ġs t
× ¤×
Ĺ× ¨
ĳ×Ļ× ª
Ġ×ŀ× ª
ĳ×Ļ× ĳ
Ø ´
Ġ×ľ×ĳ× ĵ
Ġ on
Ġ×Ķ× ŀ×ķ×
Ø Ń
¢× ľ×Ķ
Ġ×Ĳ×Ĺ× ª
Ġ M
Ġ×ª× ª×
Ġ×Ļ× Ĳ×ľ×ľ×Ķ
Ġ k
Ġ×ĳ× ĳ×
Ġ×ķ× Ĵ×Ŀ
Ġ×ŀ× ©×Ķ×ķ
Ġ×Ķ×Ļ×Ļ× ª×Ļ
Ġ×ŀ× Ĵ×
Ġ×ł× Ĺ×
âĢ Ļ
Ġ×Ķ× Ĺ×ķ×
¨× £
Ġ× ł
Ġ×Ķ× ¢×ķ×ľ×Ŀ
Ġ×ł× Ľ×ķ×Ł
Ġ× ¨×Ļ×
Ĳ× ĳ
Ġl i
¨×ķ× ĳ
¨× Ŀ
Ġ×ľ×Ķ ×Ļ×
Ġ×Ĳ×ł× ©×Ļ×Ŀ
©× Ŀ
Ġ×ĳ× ł×
Ġ×Ĺ×ķ× ©×ĳ
ĳ×Ļ× ¨
Ġ×¨×ķ× Ĳ×Ķ
ŀ ×ķ×¨
Ġ×ŀ× Ĳ×ķ×
Ġ×ĳ ×ķ
Ġd i
Ġ×ľ× ĵ×
Ġ×Ĳ×¤× ©×¨
ĵ× ľ
ÙĨ Ø§
¢× ŀ×Ļ×Ŀ
Ġ×¤× ©×ķ×ĺ
× ľ×
Ġ×ĳ× Ł
×Ķ× ĳ×Ķ
¦ ×Ļ
ĸ ×ķ×¨
Ĳ× ª×Ļ
Ġ×Ļ×ķ× ©×ĳ
×ķ×Ĳ ×Ļ
Ġ×ŀ× ĳ×Ļ×Ł
Ġ ...
Ġ×ª ×Ķ
a d
Ġ×ĸ× Ĳ×ª
× Ĳ×ł×Ļ
Ġ×¤× ¨×
Ġ×ł×©× Ĳ×¨
ŀ× ©
¡× ĺ×
Ġ Y
Ù ģ
×Ļ×Ļ× ľ
Ġ×¢×ķ× ľ×Ķ
¤ ×ķ×¨
¡× ¨
Ġ×Ĳ×ķ× ª×Ŀ
Ġ×ķ ×Ļ×
Ġ×ķ× Ľ×
Ġd e
Ġ×Ĳ×ķ×Ķ× ĳ
ĳ× ĳ
Ľ ×ķ
Ġ×¤× ª×Ĳ×ķ×Ŀ
ĳ× Ł
Ġ×¨×ķ× ¦×Ļ×Ŀ
Ġu p
§ ×Ļ
Ġ×ł× ¢×
ĳ× ª×Ļ
e n
Ġ×ł×ķ× ª×Ł
Ľ× ĳ
Ġ×Ķ×ķ× ¤
Ġ r
ª× §
Ġ×ĳ× ¦×
ŀ×Ļ ×Ļ×Ŀ
Ġ×ĳ× ľ×
, âĢı,
Ġ×Ľ×ľ ×ķ×Ŀ
n a
Ġ×ľ×Ķ× Ŀ
Ø ©
Ġ×ŀ× §×ķ×Ŀ
©×Ļ× ļ
Ľ× Ŀ
Ġ×ł× ª×
Ġ×Ľ× ©
Ġ×ŀ×¡× ª×
Ġ×ĳ× ĺ×
Ġ×©× ł×Ļ
Ġ×ľ×¤× ł×Ļ
Ġ Ð
e l
' s
ĸ× ľ
Ġ×ĳ×Ĳ ×ķ×
Ĳ× §
¢× ¨
ł× ĺ
... ,
Ġ×Ķ× ŀ
Ġ N
¤× ¨×Ļ×Ŀ
Ġ×Ĳ× ¤
Ġ×ł× Ľ×ł×¡
Ĺ ×Ļ×
Ġ×Ĳ×Ĺ× ¨
Ġ×ľ×¢× ©×ķ×ª
Ġ×Ķ× ĸ
i c
ĺ ×ķ×ĳ
Ġ×Ĺ× Ŀ
Ġ×ĳ ×ķ×Ŀ
¡× ª
¤× Ł
Ġ×Ļ×ķ× ¦×Ĳ
Ġ×ŀ×Ľ ×Ļ×¨
© ×Ļ
Ġ D
¨× Ĵ×
×Ļ×Ļ× Ķ
Ġ×ķ× ©×
Ġ×ķ× ¢×
Ġ×Ĺ ×Ļ×
Ġ re
Ġ×Ļ× ľ×
Ġ×Ķ× ĺ×
Ġ×ĳ×ķ×Ĳ ×Ļ
Ġ×ĳ× ª×
' t
Ġ he
Ġ×©× Ĳ×ª×Ķ
Ĺ×ķ× §
Ġ×Ķ×ĳ×Ļ× ĺ
Ġ H
Ġ×©× ª×Ļ
Ġ×§×ķ× ¨×Ĳ
× §×
Ĳ× ¡
Ġ×Ķ× ŀ×Ļ×
Ġ×Ĺ× ©×
Ġ×¢×ķ× ©×Ļ×Ŀ
ĵ×Ļ ×ķ×
Ġ×ķ×ķ× Ĳ×ľ×Ķ
Ġ×©× ł×Ļ×Ŀ
Ĺ×ķ× ¥
Ġ×ĳ ×Ķ×
Ù Ĥ
Ġ×©× Ľ×
ĳ×¨ ×Ļ×Ŀ
Ĺ×Ļ ×ķ×ª
i ll
Ġ×ŀ× ľ×Ĳ
ĵ× ª×Ļ
Ġ×Ķ× ľ×ĳ
¦ ×ķ×¨
Ĳ ×Ļ×ľ×ķ
¡× ª×
Ġs e
ĳ× ©
o d
Ġ×ŀ× ĺ×
ŀ× Ĳ
Ġ×ª× ŀ×
©×Ļ× ĺ
Ġ×ķ×Ĳ× ĸ
ľ×Ľ× ª
Ġ×ĳ ×Ķ
Ġ×ŀ× ©×ķ×
Ġ×ķ× Ĳ×ª
Ġb e
Ġ C
×ķ ×Ļ×
Ġ×ª× ¤×
Ĳ ×Ļ×¨
Ġ× Ľ
¦ ×ķ×ª
Ġ is
ł ×Ļ×Ķ
Ġ×ł× ¤×
Ġ×©× ľ×
ĠØ ¹
Ġo f
Ġ×ª× ¨×
Ġ×Ĳ×Ľ× ¤×ª
Ġ L
ł× ĵ
Ġ×Ĳ×Ļ× ª×ļ
Ġ×Ľ× Ĳ×Ļ×ľ×ķ
Ġ×ŀ× ĵ×Ļ
Ġ×Ĳ ×Ļ×Ļ
Ĺ ×Ļ×Ŀ
Ġ×ĳ× ¨×ķ×
Ġ×©× Ĳ×ª
§ ×ķ×ķ×Ķ
Ġ×ľ× ¨×Ĳ×ķ×ª
¡×Ļ× ĳ×Ķ
Ġ×ŀ× ¡×ķ×
Ġ×Ķ ×Ķ×
ł× Ł
ig h
Ġ×ŀ×©× ł×Ķ
× §
ľ ×ķ×Ł
Ġ×¨× Ĵ×¢
Ø§ ÙĦ
ŀ×ķ× ł×Ķ
Ġ×ŀ× ĳ×Ļ×Ĳ
© ×ķ×Ŀ
Ġ×Ļ× ¢×
¨×ķ× Ŀ
Ġ×©×ľ ×ķ×
i d
Ġw h
Ġ×ĳ×Ľ× ľ×ľ
×ķ×¨ ×Ļ
Ġ×Ľ×© ×Ķ×
Ġ×ľ× ĳ
Ĳ× ł×Ĵ
ŀ× ª×Ļ
× Ĺ×
Ġ×ŀ× ĵ×
Ġ×Ľ× ĵ×Ļ
ª× ł×ķ
Ġ×ŀ ×Ļ×ľ×Ļ×Ŀ
Ġ×§× Ĳ×
×Ļ×Ļ× ĺ
Ġ×ł×Ĵ× ŀ×¨
× ĳ
ĳ× ĳ×Ķ
Ġ×Ķ× ł×Ķ
Ġ×¢× ©×Ļ×
×ķ×¨ ×ķ×ª
i on
Ġ×Ķ× Ĳ×ķ×
Ġ×ĳ× ¡×ķ×£
Ķ ×Ļ×Ŀ
× ĸ×Ķ
ĸ ×Ļ×§×Ķ
Ġ×ķ× Ľ×ľ
ĠØ £
× ¡×
× ª×Ķ
Ġ×Ķ× ľ×Ļ×ľ×Ķ
× ł×
ĳ× ¨×ª
om e
' ,
Ĵ ×ķ
Ġ× ¨
Ġ×Ĳ× ĵ×Ŀ
¨×ķ× §
ĠÙ Ħ
o p
ĺ× ¢
Ġ×ŀ×ķ× Ľ×Ł
¤× ļ
ĵ× §
ĠA nd
â ģ
Ġ×Ķ×ŀ× ©×
Ġ×ĸ ×ķ
Ġ×ŀ×Ĳ× ŀ×Ļ
âģ Ł
Ġ×ĳ× ¨×Ĳ×©
Ġ×Ĳ×ķ× Ľ×ľ
Ġ×ķ× Ĳ×Ļ×Ł
Ġ×ŀ×ķ× ľ
Ġ×Ķ×Ļ× ¤
Ġ×¤×Ĳ× §
ł× ĺ×
ľ×Ļ× ĺ
a h
ľ×Ļ ×Ļ×Ŀ
Ġ×ŀ×ª× Ĺ×
a c
¤× ¨×
ł×Ļ ×Ļ×
¤×ķ× ľ
Ġ×ŀ× ł×¡×Ķ
ĵ× Ĳ×
Ġ×§× ©×Ķ
Ġ×ĳ×Ĳ× ª×Ļ
§× Ł
§× ©
Ġ×§× ľ
Ġ×¢× ĳ×¨
Ĺ×ķ× ĳ
Ġn o
l d
Ĺ ×Ļ×ľ
Ġ×§ ×ķ×¨×Ķ
Ġ×Ĳ×ŀ× ¨×ª×Ļ
ĵ× ¢×ª
¨×ķ× ¥
¤ ×Ļ×ľ
Ġ× ł×ķ
Ġ×ľ× Ĺ×Ļ×ķ×ª
ou t
Ġ×ŀ× ª×ķ×
§× ª×Ļ
Ġ×ĳ×Ļ× ª
Ġ×ĵ×ķ× ¤×§
Ġ×Ĳ×¦× ľ×Ļ
¤ ×ķ
Ġth at
' m
Ġ×Ĵ ×Ļ×
Ġ×Ĺ×ĸ× §
Ĳ× ¨×
©× ª×Ļ
Ġ×¡× ĺ×
×Ļ×© ×ķ×Ł
Ġ×ª× ĳ×Ļ×Ĳ
Ġ×ŀ×Ļ× ľ×Ķ
Ġ× Ĺ×Ļ×Ļ×Ŀ
Ġ×©× ¨×
Ġ×Ĳ×ķ ×ķ
Ġ×Ļ×ķ×ĵ×¢ ×Ļ×Ŀ
Ĳ ×ķ×ª
Ġ×ŀ×¡× ¤×Ļ×§
Ġ×ŀ× ª×Ļ
igh t
Ĺ ×ķ
ľ ×Ķ×
ĳ×Ļ× ĺ
× ŀ
Ġ×©×ķ× ŀ×¢
Ĺ× ª×Ļ
Ġ×©×Ļ× ĺ
¨×Ĳ× ¤
Ġs h
Ġ×¡×ķ× £
ł×ª×Ļ ×Ļ×Ŀ
Ġ×ŀ× Ĵ×Ļ×¢
×ķ×ķ ×Ļ×¨
Ġ×©×Ķ ×ķ×Ĳ
Ġ×©× §×
Ġ×Ľ× ĸ×Ķ
Ġ×ŀ×Ĺ× ¤×©
Ġ×¢×¦× ŀ×Ļ
¤×ķ× ¡
ĵ ×ķ×¨
ĠÙ ĥ
Ġ×ľ×ŀ× ¢×ľ×Ķ
Ľ×ķ× ł×Ķ
ĠĠ ĠĠ
Ġ× ¢
×Ļ×ĵ ×Ļ
ĠâĢ İ
Ġ× ¢×Ļ×
Ġ×Ķ× Ĵ
ª× ĳ
Ġ×Ļ× ¤×Ķ
¨×ķ× Ĺ
Ġ×Ĳ×ľ ×ķ×
Ġ O
Ġ×Ľ×©× Ĳ×ł×Ļ
Ġ×Ĵ× ĳ×ķ×
Ġ×Ĳ× ĳ×Ļ×ĳ
Ġ×ľ× ĸ×Ķ
¢× ľ
Ġ×©× Ĺ×
Ġ×ŀ× ĸ×
©×Ļ× ĳ
Ġ×Ĳ× ©
§ ×ķ
Ġ G
ÙĬ ÙĨ
Ġ×¢×ķ× ĳ×¨
Ġ×ŀ×©× Ĺ×§
Ġ×ľ ×Ļ×©×ķ×Ł
Ġc an
Ġ 2
ĸ ×Ļ×§
Ġ×ŀ×ķ× ©×
Ġ×©× Ĳ×Ļ×Ł
Ġ×Ķ× Ĵ×ķ×
Ġ×Ĳ ×Ļ
Ġ×Ļ× ĵ
Ġ×Ĳ× ª×
¨×ķ× £
it h
Ġ×ľ×¤× ¢×ŀ×Ļ×Ŀ
§ ×Ļ×Ļ
Ġ×©×ľ ×ķ×Ŀ
§×ķ× ĵ
Ġ×ĳ ×Ļ×Ļ×
Ġ×Ľ×Ļ× £
Ġ×Ĺ ×Ļ×Ļ×ĳ
Ġ×Ľ×ķ× ¡
×Ļ×ª ×Ķ
Ġ×Ľ×ŀ ×ķ×
Ġ×ĵ× ¨×ļ
i r
ĸ ×ķ
Ľ× ª
×Ļ×¨ ×ķ×ª
Ġg o
Ġ×ĳ× ª
ĵ× Ĳ×Ļ
Ġ×§× ¨×Ķ
ĸ ×ķ×ĳ
Ġ×Ĺ×ķ× ĸ×¨
Ġ×ł×©× ŀ×¢
Ġ×ĳ×¡× ĵ×¨
Ġ×ŀ× Ľ×ľ
Ġ×ķ ×Ļ×©
Ġ P
Ĳ× §×Ļ×ł×Ĵ
ĵ×Ļ× ŀ×Ķ
×ķ×ķ× Ĳ×
Ġk n
ĵ×Ļ×ķ× §
×Ļ×ĵ ×Ķ
Ġ×ľ×Ķ× ©×
ł ×Ķ×
Ġ×Ĳ× ¤×¡
Ġ×ľ×ª× ª
Ġ×Ĳ×Ļ× ¤×Ķ
Ġ×©×ľ ×ķ
ł×Ļ× ¡
Ġyou r
Ġ×ĳ× Ĺ×ķ×¨
Ġ×ŀ ×Ļ×Ļ×
Ġ×Ķ× ©×ķ×
Ġ×¤×Ĳ× §×Ļ×ł×Ĵ
Ġ×ŀ×ŀ× ©
× Ĳ×ķ×
Ġ×ľ×Ĳ× ĺ
§× ¢
Ġ×ł× ¡×
ĳ×ķ× ¢
Ġ×ŀ×ĵ×ĳ×¨ ×Ļ×Ŀ
ŀ×ķ× ĵ
ÙĦ ÙĬ
Ġ×ĳ×Ĳ× ŀ×ª
© ×ķ
Ġ×Ĳ× ©×
Ġ×Ķ ×Ļ×ĵ
Ġ×¡× ĳ×ĳ×Ķ
u n
ĵ× ĵ
Ġ×ł× ¨×
Ġ×ĳ×ĵ× ¨×ļ
a ll
u r
Ġ×ĳ× ¢
Ġ×©× ¢×ķ×
¤×ķ× §
Ġ×ĳ×ŀ× §×ķ×Ŀ
Ġ j
ĠÙ ģ
Ġli ke
Ġ×ŀ× Ĳ×Ł
ĵ×Ļ× ł×Ķ
ow n
ŀ× ł×Ļ×Ŀ
§× ¡×ĺ
§×ķ× ľ
Ġ×ĵ× Ĳ×
Ġ×ª× ľ
Ġ×ª× ł×ķ
×Ļ×ľ ×ķ×ª
Ġ×ĸ×ķ× Ľ×¨
Ĵ ×Ļ
Ġ×Ķ× ĳ×ķ×
Ġ×ĳ× ĵ×Ļ×ķ×§
Ġ×ľ×Ļ× ľ×Ķ
Ġ F
Ġs o
ľ ×ķ×Ĳ×ķ
Ľ× ł×
ĠÙ Ĭ
Ġf or
ª ×ķ×ĳ
Ø ¬
Ġ×Ķ× ¦
§ ×ķ×ª
Ġ J
Ľ ×ķ×¨
Ġ×ŀ× ĳ×Ļ×
Ġ×§× ĵ×Ļ×ŀ×Ķ
Ġ×Ĳ×¤ ×Ļ×ľ×ķ
a ck
Ġ×Ļ×©× ¨×Ĳ×
Ġ×ĸ ×Ļ×Ł
l y
o s
Ġ R
ŀ× ļ
Ġ×ŀ× Ĺ×ķ×
¤× ª×Ļ
Ġ×Ĵ× ĵ×ķ×ľ
Ġ×ŀ×ª× §×
Ĳ× ł×
Ġ×ĳ×Ļ× ĺ
an t
¨ ×ķ×ª
× ļ
¨×Ĳ× §
¦×Ļ× ª×Ļ
Ġ×©× ©×
Ġ×Ķ×Ĺ× ĳ×¨
Ġ×ĵ×ĳ×¨ ×Ļ×Ŀ
¦×Ļ×Ĳ ×ķ×ª
Ĳ× ŀ×
Ġ×ª×ķ× ĵ×Ķ
ĠØ ª
Ġw ith
×Ļ× ¤
Ġ×ŀ× ¤×ķ×
Ġ×Ĺ× ĵ×©
Ġ×Ĳ×ľ×Ļ ×Ļ
ĺ× ¨×Ķ
he r
×Ĳ ×Ķ
Ĵ×ķ× ľ
ľ× £
Ġ×ŀ×Ĺ× ¨
Ġ×ĳ×¤× ł×Ļ×Ŀ
×ķ ×ķ×Ł
¨× ¥
¦× ŀ×Ļ
Ġ×ł×Ķ ×Ļ×Ķ
© ×ķ×Ł
Ġ×©× Ĺ×ķ×¨
¡× ¢
Ġ×¡×ķ× ¤×¨
¢× ĺ
Ġ×ŀ×©× ª×
Ġ×ª×Ĵ×Ļ×ĵ ×ķ
Ġ×ľ× ĸ×
Ġ×ŀ× ¦×ĳ
Ġ×Ĳ× ŀ×Ļ×
Ġ×¢×ķ× ĳ×ĵ
Ġ×ĳ×Ĳ ×ķ×ķ×Ļ×¨
a ke
ĵ× ŀ×Ķ
Ġ×¢×ķ× ŀ×ĵ
Ġ×Ĳ× ¡
Ġ×ª× Ĳ×
¦× ¥
ĵ×Ļ ×Ļ×Ŀ
Ĺ ×ķ×¨×Ķ
Ġ×ŀ× ĺ×ķ×
Ġ×Ķ×ª× Ĺ×
Ġ×ĸ×ķ× ł×Ķ
Ð °
Ġ×ķ× ¢×ķ×ĵ
× ´
ĺ× Ĳ
ľ×ķ× ŀ×ķ×ª
Ġ×©× ĳ×Ĳ
Ġ×¨×Ĳ× ¤
ª×Ĺ ×Ļ×ľ
Ġ×§×ķ×¨×Ĳ ×Ļ×Ŀ
Ġ×ŀ×ª× Ĺ×Ļ×ľ
c h
ŀ× ľ
Ġ×©× ľ×Ķ
×Ļ×Ļ× ļ
ĠY ou
Ġ×ŀ×ľ× ŀ×
Ġ×Ĳ× Ĺ×ķ×
Ġ×Ķ× ľ×
Ġ×©× ¢×
Ġ×Ľ× ĳ×ķ×ĵ
Ġl o
Ġ×Ķ×ĵ× ¨×ļ
Ġ×¦×ķ× ¢×
Ġkn ow
¨× ©
Ġ×ĺ×Ļ× ¤×Ķ
ĳ× ĺ
ł×Ļ ×ķ×ª
Ġ×Ļ× Ľ×ķ×
Ġ×¨×ķ× §×
Ġa ll
× ¡
× ľ
Ġ×ŀ×Ķ× ŀ×
Ġ×§× ľ×Ĳ×
Ĵ ×Ļ×Ŀ
Ġ×Ķ× Ľ×ķ×
Ġg et
Ø ·
Ġ×Ĳ ×Ķ×ĳ×Ķ
¤×Ļ ×Ļ×Ŀ
Ġ×Ľ× ĵ×Ĳ×Ļ
Ġ×Ļ×ķ× ĵ×¢×ª
Ġ×¢× ©×
ĵ× ¨×
Ġ×ŀ×ª× ¤×
Ġ×ŀ×Ĺ× Ľ×Ķ
Ġ×§× ĺ×Ł
t er
ł ×ķ×Ł
Ġ×Ķ× ©×Ļ×¨
Ġ×©× ł×Ķ
Ġt r
Ġ×Ĳ×ŀ× Ĳ
ĵ ×ķ
Ġ×ľ× Ĳ×Ł
Ġ×ŀ× Ľ×ķ×
Ġ×ĳ× ĺ×ķ×
Ġ×ľ×ķ× §×Ĺ
©× Ĳ×¨
×Ļ× ł×ķ
Ġ×ŀ× ĸ×Ķ
Ġ×ŀ× ¨×Ļ×
Ġ×ķ× Ĺ×
Ġ×ĵ× Ŀ
Ġ×Ľ×ķ× ľ×Ļ
ŀ×ķ× §
¨× ŀ×
Ġ×Ĳ×Ĺ× ¨×ª
Ġ×ŀ×¡× ¤×¨
Ġf r
Ġde m
Ġ×©× Ľ×ľ
¡×Ļ× ĸ
ĠT he
Ġ×ĳ× ŀ×Ļ×
Ġ×ĳ× Ľ×Ļ×
Ġ×© ×Ļ×Ŀ
Ġ 1
Ġ×ĳ× Ĵ
Ġ×¢×ķ× ľ×Ŀ
×ķ× ¡
Ġ×¨× ¢
Ġm an
Ġ×Ķ×Ľ× ¡×£
ŀ× Ŀ
Ġ( !
Ġ×ĳ×Ļ× Ĺ×ĵ
Ġ E
Ĳ ×ķ
Ġ×Ĳ× §×
ĠÙħ ÙĨ
Ġ×Ĵ×ĳ×ķ× Ķ
ľ× Ĵ×ľ
Ġ×Ĺ× ¨×ķ×
×ķ×ķ× ª×¨
Ġ× ł×Ļ
Ġ×ľ× ĺ×
Ġ×ķ× §×
Ġ×Ĳ×Ļ× ©
¨×Ĵ ×Ļ×
Ġ×Ķ× ¤×ķ×
Ġ×ĳ× ĳ×Ļ×ª
Ġ×Ļ× ©×¨
Ġ×ŀ×Ļ ×ķ×
×Ļ× £
Ġ×Ķ ×Ļ×ķ
¦× ľ
Ð ¾
Ġ×Ĳ× ĳ×Ĳ
Ġ×Ķ× ĵ×Ļ×
Ľ× Ĺ
ł× ©×Ļ×Ŀ
Ġ×¡× ĺ
Ġ×Ķ×¨× Ĵ×
Ġ×ŀ×ŀ× ł×Ļ
Ġ×ľ× ľ×Ĳ
Ġ×Ķ× §
ł× ¨
Ġ×§× ¨
Ġ×Ĳ×ľ× £
Ġ×©×Ķ ×Ļ×Ĳ
× ŀ×ķ×
Ġ×ª× ¨×Ļ×
×Ļ×Ļ× ¤
¨×Ĳ ×Ļ
Ġn e
a b
×ķ× ľ
ľ× Ł
ŀ× ł×Ļ
Ġ×ª× ĳ×Ļ×Ł
ĠØ Ń
Ġ×ķ ×ķ×Ĳ×Ļ
Ġ×ķ× ¤×
Ġ×ĳ×Ļ× ĵ
Ġ×Ķ×ķ× ľ×
Ġ×ŀ× ¢×ķ×
Ġ×ª× ĳ×
Ġ×© ×ķ×ª
Ġ×ķ×Ķ ×Ļ×Ĳ
us t
Ġ×Ķ× ¡×ķ×£
Ġ×ķ× ŀ×Ķ
Ġ×Ļ× Ŀ
Ĳ×ľ× §
ľ× ĺ×
§× ¨×Ķ
Ġ×Ĳ×ķ ×Ļ
Ġ×ŀ×Ļ× ©×Ķ×ķ
Ġ×ŀ×Ľ× Ĳ×Ł
Ġ×¨×Ĳ×© ×ķ×Ł
Ġ×ŀ×ķ× ¦×Ĳ
Ġ×ĳ×ĺ× Ĺ
c e
Ġ×ĳ× ¨
¤× ¨×Ķ
ª ×ķ×Ŀ
ľ× ¡
ł× Ĵ×
¡× ª×Ļ
ĳ×ķ× ĵ×Ķ
Ġ×ĳ ×Ļ×Ļ
ª×ķ× §
Ġ×¤×ķ× ª×Ĺ
Ñ Ĥ
¡× ĺ×¨
ľ× Ĺ
¨×Ĳ ×ķ
ľ×ķ× ĺ
a ve
× ŀ×Ļ
Ġ×ł×ķ× ª×
Ġd o
Ġ×©×Ļ×¨ ×Ļ×Ŀ
Ġ×Ķ×ĸ× Ĳ×ª
Ġ×Ķ× ©×Ļ×ĺ
ł× ľ
Ġ×ª× ĸ×
Ġ×ł×ķ× ¤×ľ
Ġd on
Ġ×©×Ķ× Ŀ
×Ķ ×Ķ
Ġ×ĳ× ľ×Ĳ×
¦× ¢
×Ļ×§ ×Ļ×Ŀ
Ġth is
ĠâĢ ĵ
Ġ×ŀ× §×ķ×
Ġ×ĳ× ĸ×
Ġ×ķ× ¢×ĵ
×Ĳ× ĸ
×Ĳ ×Ļ×
Ĳ× ĵ
Ġ×Ĳ ×ķ×¨
Ġ×ª× ł×Ļ
Ġ×ĳ×Ĳ ×Ļ×
Ġf i
Ľ ×Ļ×¨
Ġ×Ĳ×Ļ× ł×
Ĺ×ķ× Ł
ľ×Ļ× ª
Ġ×§×ķ× ¤×
§×¨ ×ķ
¦ ×ķ
Ġ×Ķ× §×ķ×
Ġ×ŀ× ĸ×Ļ×
ĳ×ķ× Ł
Ġ×Ķ×ĳ× Ĳ
Ġ×ª×ķ× ¤×¡
Ġ×Ĳ×ķ×ŀ× ¨×ª
Ġ×ĳ× ¨×Ļ×
Ġ×Ľ× ł×
Ġ×Ĳ×ŀ×Ļ× ª×Ļ
× Ĵ
Ġ×ķ× Ĳ×Ļ×
Ġ×ª× Ĵ×
Ø§ ÙĨ
Ġ×Ľ×ķ× ľ×ł×ķ
ľ×Ļ ×ķ×Ł
Ġ×Ķ×©× Ŀ
Ġ×ł×ŀ× Ĳ×¡
Ġ×ª× ĳ×ķ×Ĳ
Ġ×ĳ× ĵ×ķ×
¡× ¤×
Ġ×ŀ×ķ× Ľ×
ĵ×Ļ ×ķ
Ġ×ľ×§× Ĺ×ª
Ġ×ª×©× ŀ×¢
Ġ×ª× ¨×Ĳ×Ķ
ĳ×ķ× ľ
Ø§ Ø±
Ġ×ŀ×Ĺ× ¤×
Ġ×ł×©× Ĳ×
Ġ×Ĳ×ľ×ķ× Ķ×Ļ×Ŀ
ĵ ×ķ×ª
©× ŀ×Ķ
Ġ×ĳ×Ĳ ×Ļ×Ŀ
Ġ×¢×©×Ļ× ª×Ļ
Ġ×Ķ× ¡×Ļ×
Ġ×ŀ×ª× ¢×
ĸ ×Ļ×¨
Ġ×§× ¨×
Ġ×¢×ľ×Ļ ×Ļ×ļ
Ġ×Ķ×Ĵ×ķ× £
× ©
× Ľ×Ł
Ġ× ¢×Ļ×ł×Ļ×Ļ×Ŀ
×ķ× ļ
Ġ×ŀ ×ķ×¨×Ļ×ĵ
× ĺ×Ļ
Ġ×ŀ× ł×ķ×
Ġ×ķ× Ĳ×ķ×
×Ķ× ľ
× ¨×
Ĳ× ľ×Ļ
Ġ×Ĳ× ĳ×
Ġ×Ĳ× ŀ×ª
Ġ×¨× Ĺ×ķ×§
Ġ×ĵ× ¨×
ŀ×ķ× ļ
Ġ×¢× ĸ×
Ġ×ķ ×ķ
Ġ×Ĳ×Ĺ× ľ×Ķ
ľ×Ļ× Ĺ
Ġ×¨×Ĳ× ¤×¨
Ġ×Ļ ×Ļ×
ľ×Ļ ×Ļ
Ġ×Ĺ× ľ×§
u ck
Ġ i
ŀ ×ķ×Ŀ
ľ× ¤×Ł
Ġ×ľ× ĵ×ĳ×¨
Ġ×ĳ× ĵ×Ļ×
¡× ĺ×Ķ
×Ļ×Ļ× ¨
Ġ×§× ¨×ķ×ĳ
Ġ×Ĺ× ¦×Ļ
Ġ×Ľ×ķ× ª×ĳ
ª×ķ× ĳ×ĳ
¦ ×Ļ×Ķ
Ø µ
Ġ×ŀ× ĸ×ķ×
on e
Ġ×ª× ¦×
Ġ×ľ×Ķ ×ķ×
ł×¡ ×Ļ×Ŀ
on g
Ġ×Ķ×ŀ×Ļ× §×¨×ķ×¤×ķ×Ł
Ġ×ĳ× Ĺ×ķ×¥
Ġ×¢×ľ ×Ļ×Ķ
Ġ×¨×ķ× Ĳ×Ļ×Ŀ
ŀ×ķ× ľ
Ġ×ĺ×ķ×ĳ ×Ķ
Ġ×ł ×Ķ×
Ġ×ĳ×¦× ĵ
Ġ×ľ× ľ×Ľ×ª
Ġ×ĳ× ł×Ļ
Ġ×¢× ŀ×ķ×§
ĳ×ķ× ĳ
Ġ×ª×Ķ ×Ļ×Ķ
Ġ×Ļ× Ĺ×
Ġ×ĺ ×Ļ×Ļ×ĺ
Ġ×Ķ×Ĳ× ŀ×ª
Ġ×Ĺ×ĳ×¨ ×Ļ×Ŀ
Ġ×ĳ×Ļ×Ļ× ĳ×Ļ
× ¨
ľ× ¨
Ġ×ł× ĵ×
ŀ×ķ× ¡
ª×ķ× Ĺ
Ġ×§×ķ× ł×Ķ
an d
Ġse e
Ġ×©× ¨
ĳ×¨ ×Ķ
× Ĵ×
× ¨×Ĳ×©
Ġ×ŀ×Ļ× §×¨×ķ×¤×ķ×Ł
Ġ×ķ×ķ× Ĳ×ľ×§
Ġ×Ķ× Ĵ×Ļ×¢
Ġ×©× ¤×
ĸ× ŀ×ķ×Ł
Ġ×Ĺ× ľ×
Ġ×¡× Ĳ×
ł×Ļ× ł×ķ
Ġ×Ķ ×ķ
Ġ×ŀ× ¤×¡×Ļ×§
Ġ×ĳ× ĸ×ŀ×Ł
Ġ×§× ĺ×
Ġ×ŀ×ķ× ª×§
ľ×Ĺ× Ł
Ġ×§×Ļ× ĳ×
× ĺ×
Ġ×ŀ× ª×ķ×ļ
ĵ× Ł
Ġ×Ĺ ×Ļ×Ļ×
Ġ×Ĳ×¨× ĳ×¢
ĳ×ķ× §×¨
ĠT h
Ġ×Ļ×ľ× ĵ×Ļ×Ŀ
Ð µ
×Ļ× ¡
Ġ×Ķ× ¢×Ļ×¨
Ġ×ĳ× Ŀ
ĺ× £
Ġ×Ĺ× ĳ×ľ
ĠW e
Ġ×Ĳ× ĵ
Ġ×ľ× ª×ķ×ļ
Ĺ× ĺ
Ġ×Ľ× ŀ×
Ġ×¨× ¦×Ļ×ª×Ļ
¡×Ļ× ª
Ġ×Ķ×Ĳ× Ĺ×
×Ĳ ×ķ
Ġ×ľ×¦× Ĳ×ª
Ġ×Ľ× ¤×¨×Ķ
Ġ×¨× ¢×
ĠÙ Ĩ
0 0
Ġ×¤× ľ×
ÙĦ Ø§
Ġ×ŀ×©× Ĺ×
Ġ×Ĳ×ŀ×¨ ×ķ
a p
Ġ×ª× ĸ×ķ×
ľ×Ĺ× Ŀ
¢× Ł
Ġ×ĳ× Ĺ×Ļ×Ļ×Ŀ
ł× Ĳ
Ĵ× ĳ
Ġ×Ļ× ¦×
Ġ×Ĳ×ķ× ª×ł×ķ
' -
×ķ×ĳ ×Ķ
¢ ×ķ
×ķ× ¤
Ġ×ĳ× ¢×ķ×ľ×Ŀ
Ġ×ŀ ×Ļ×Ŀ
ĳ×ľ ×Ļ×
¤×© ×Ļ
i l
Ġ×¤× ¨×ķ×
Ġ×¤ ×Ļ
Ġ×ĵ ×Ķ
ĠÙ ĩ
Ġ×©×ķ× ŀ×¨
Ġ×ĳ×ŀ× ©×
e m
e p
× ĺ
×Ķ× Ŀ
Ġ×Ķ×ŀ× §×ķ×Ŀ
©×Ļ× ª
× ¤×Ķ
¨× ł×ķ
Ġ×ĳ× ŀ×ķ×
Ġ×ł× §×
Ġ×Ĺ× ľ×ķ×Ŀ
×ķ×ĳ ×Ļ
¤× ł×Ļ×Ŀ
Ġ×© ×ķ×ķ×Ķ
Ġ×¢×ķ× ł×Ķ
ľ×Ļ× £
Ġ×ŀ×©× Ĳ×Ļ×¨
Ġ×©×ª×Ļ ×Ļ×Ŀ
× ¡×Ļ
Ġ×ľ× ĳ×ķ×Ĳ
Ġ×Ķ× Ł
Ĺ×ķ× ľ
Ġl a
Ġ×ľ×ĳ× Ł
ľ×Ľ× Ŀ
Ĳ× ĺ
Ġ×Ľ× ©×Ķ
¡× ¡
Ġ×¨× ¥
ŀ×¨ ×ķ×ª
Ġ×¦ ×Ļ×
ŀ×¢ ×ķ×ª
Ġ×ª×Ĵ×Ļ×ĵ ×Ļ
Ġ×Ļ×©×¨×Ĳ× ľ
× ŀ×Ļ×
ĳ× ¨×ª×Ļ
Ġ×©× ł×ķ×
Ġ×ķ× ¨×
Ġ×¤× Ĺ×ķ×ª
Ġ×Ķ×¤× ¡×
Ġ×ľ× ľ×
Ġ×©× ľ×ł×ķ
Ġ×¢× ĸ×ķ×ĳ
Ġ×ĳ×Ļ× ¦
Ġn ow
Ġ×ĳ×Ĵ× ľ×ľ
s t
× ĳ×Ļ×
Ġ×Ķ× ¨×Ļ×
Ġ×ķ× Ĳ×ª×Ķ
Ġ×Ļ× ĵ×
ł×Ĵ ×Ļ×
×Ĳ× §
Ġ×Ķ×ŀ ×Ļ×ľ×Ļ×Ŀ
× Ľ×ľ
Ġ×Ĳ× ¨×ķ×
Ġ×¢× £
ĸ× ¨×Ĺ
Ġ×¨× Ĵ×
Ġ×ĳ×Ļ× ł×ª×Ļ×Ļ×Ŀ
×Ļ×© ×Ļ
ľ×ķ× ľ
Ġ×ŀ×Ĳ× ŀ×Ļ×Ł
Ġ×ķ×Ķ ×ķ×Ĳ
Ġfr om
Ġ× ¡×Ļ
Ġ×©× §×ľ
Ġ×Ļ× ĵ×Ļ×Ļ×Ŀ
Ġ×ĵ× §×Ķ
Ġ×ŀ×©× ¤×
©×ĳ ×ķ×ª
o re
Ġ×ķ× ©×ķ×ĳ
Ġ×ł× ĸ×
Ġ×Ĺ× ¡×¨
es t
ł× Ĺ×ł×ķ
ÙĨ ÙĬ
Ġ×ĸ×ķ× ¨×§
Ġ×Ľ×©× Ĳ×ª
Ġ×©×ľ×ķ× ©
Ġ×©×ķ×ª ×Ķ
× ĵ×
Ġ×Ķ× ľ×ķ
Ġ×ĳ× ł×ķ×ª
ĳ×Ļ× ľ
Ġ×Ĵ× ¨×
Ġ×ŀ×ª× Ĳ×Ļ×Ŀ
Ġ×©×Ķ× Ľ×ľ
ľ×Ĺ× ŀ×Ķ
Ġ×©×ł×Ļ ×Ļ×Ķ
ŀ× ¨×Ļ×Ŀ
Ľ× ª×Ļ
Ġ×©× ¨×§
Ġ×ª× Ľ×
×Ļ×Ķ ×Ļ×Ķ
Ġ×ľ× ©×Ļ×¨
Ġ×Ķ× Ľ×Ļ×
Ø ®
Ġ×Ķ× ¨×Ĳ×¤
Ġ×Ķ×ŀ× Ĺ×
¢×ª ×Ļ×ĵ
× Ŀ
©× ¢
Ġ×ª× §×ķ×ķ×Ķ
Ġ×¡× ¤×¨
ĳ×ľ ×Ļ×Ŀ
Ġa s
ver y
Ġ×ŀ×¡×ª× Ľ×ľ
Ġ×ĳ×ĺ×ķ× Ĺ
Ġ out
ŀ× ĺ×
Ġ×Ĳ× ŀ
Ġ×ľ× Ľ×ķ×ľ×Ŀ
¨× ĺ×
Ġ×ŀ× Ĺ
Ġ×©×ķ× ¨×£
Ĵ×ķ× ¢
Ġ×Ķ×ĸ ×Ļ×Ł
Ġ×ŀ×ĳ×Ļ× ł×Ļ×Ŀ
Ĺ ×Ļ×ĵ
Ġ×Ķ× ¢×Ļ×ł×Ļ×Ļ×Ŀ
Ġ×ŀ× Ĵ
Ġ×ª× §×ķ×
Ġ×ŀ×Ķ× ¨
Ġc ome
Ġ×Ľ ×Ķ×
Ġ×Ķ×ķ×ľ× Ľ×Ļ×Ŀ
Ġ×¢×ľ×Ļ ×ķ
Ĵ ×ķ×ª
×Ļ× Ĵ×Ķ
Ġ×©× ¨×ķ×
Ġ×Ĳ ×Ļ×Ļ×
¦× Ŀ
ĳ×ķ× §
¨×Ļ× ļ
×Ļ×ľ ×ķ×
Ġd own
Ġ×¨×Ĳ× ¤×¨×Ļ×Ŀ
¨×Ĺ ×Ļ×Ŀ
Ĳ×Ļ× ª×Ļ
o l
Ġ×Ĺ×ķ× ľ×
ĺ×ķ× ¤
Ġ×Ķ×§× ¦×ĳ
Ġ×Ķ× ¢×ķ×
Ġ×ľ×Ĳ ×ķ×
Ĺ×ķ× ĳ×ķ×ª
in d
Ġ×Ĳ×ķ×Ķ× ĳ×ª
Ø ¶
ŀ× ¨×ª
Ġ×Ķ× ŀ×ķ×Ł
Ġ×ł×ŀ× ¦×Ĳ
¡× ľ
Ġ×ª× ¤×¡×Ļ×§
Ġ×ŀ×ķ× ¦×Ļ×Ĳ
Ĵ×Ļ×ĵ ×Ļ
¢×ķ× Ł
Ġ×ĺ ×ķ
Ġ×Ľ×ķ× Ĺ
×Ĳ× Ŀ
Ġ×Ķ×Ĵ× ¢×ª×Ļ
Ġ×Ķ×Ļ×Ļ× ª
a in
¦ ×ķ×Ĳ
¨× ł×
ĸ× Ł
Ġ×ľ×ŀ× ĺ×Ķ
Ġy a
Ġ×ľ×Ľ× ª×ķ×ĳ
ĵ×ľ ×Ļ×§
©× ļ
Ġ×ŀ× ĸ
ĵ× £
Ġl e
e ll
× ĵ
× Ĺ×ķ×
Ġ×ŀ× Ĳ×Ķ
Ġ×Ĳ×ķ× §×Ļ×Ļ
Ġwh at
× Ĳ×ª×Ķ
Ø ²
ľ× ĳ×Ķ
Ġ×ŀ× Ĳ×Ļ×
Ġ×§× Ĺ
Ġ×ľ×Ķ× Ĵ×Ļ×ĵ
ł×Ļ× ª×Ļ
Ġw ant
×Ĳ ×Ļ×Ł
Ġ×Ķ×Ļ×Ļ× ª×Ķ
¦×ķ× £
ľ× ĵ×Ļ×Ŀ
©× ľ
©× ĳ×ª
Ġ×Ķ× ĵ×ĳ×¨
Ġ×ŀ× Ł
Ġ×§× ¨×Ĳ
Ġ×ŀ×ķ× §×
Ġa re
ĸ×ķ× ĸ
¡×ª× Ľ×ľ
Ġ×Ĺ× ©×ķ×ĳ
Ġ×ŀ×Ķ× ¤×
Ġ×ŀ×¢× ľ
Ġ×ª×ŀ× ¦×Ĳ
Ĳ× ĸ
Ġ×ŀ× ĸ×ŀ×Ł
Ġ×ĳ× ¦
Ġ×Ļ× ĳ×ķ×Ĳ
am e
ĺ× ľ
×Ļ×Ļ× ¡
Ġ×ľ×©× ŀ×ķ×
Ġ×Ĳ×ŀ×¨ ×Ķ
im e
Ð ¸
Ĵ ×ķ×¨
Ġ×©× ŀ×Ķ
Ġ×¢× ¨×
Ġ×§× ľ×
Ġ×¡×Ļ× ĳ×Ķ
Ġ×ĳ×¨× Ĺ×ķ×ĳ
Ġ×Ķ×Ĳ ×ķ×¨
Ġ×¡ ×ķ×ķ×Ļ×
Ø £
Ġ×ĳ× ļ
Ġ×ĳ× ľ
Ġ×ĳ× ľ×ķ×
Ġ×Ĺ× ĵ×
Ġ×Ĵ× ľ
×Ļ×ľ ×Ļ×
ĠS o
Ġ×Ķ×Ļ×ĵ ×Ļ×Ļ×Ŀ
¨× ¢
Ġ×ł× Ĳ×
¡×ĺ ×Ļ×Ļ×ľ
Ġ *
Ġ×ŀ× ¨×ķ×
Ġ×¢×ľ ×Ļ×ļ
ĠI t
Ġthe y
×Ĳ ×Ļ×Ļ
Ĳ× ©
Ġ×ŀ×ķ× ĸ×¨
Ġ×ľ×ŀ× ¦×ķ×Ĳ
ĺ×ķ× ¡
Ġ×ľ×¨× §×ķ×ĵ
g h
ª ×ķ
Ġ×ł× ¦
Ġ×ĳ ×Ļ×ķ×Ŀ
¤×ķ× ļ
×Ľ× ŀ×Ķ
Ø§ Ùħ
ĺ ×ķ×ª
Ġ×ŀ× ľ×ķ×
Ġ×¢× ©×Ł
Ġ×ĳ×ķ× ľ
Ġ×Ĳ×ł× ľ×Ĳ
Ġ×ľ×¢× ¦×ŀ×Ļ
Ġ×ŀ×ŀ× ©×Ļ×ļ
Ġ×ŀ×Ĳ×ķ× ĵ
a k
Ľ× ĳ×Ļ×Ŀ
ł× ĺ×Ļ
Ĵ× ©
ĸ× ¨×Ļ×Ŀ
Ġ×©×ķ× ĳ×¨
Ġ×§×ķ× ľ
ĠÙĥ ÙĦ
ĠĠĠĠ ĠĠĠĠ
Ġ×ŀ× ¨×Ļ×Ŀ
Ġ×ĳ× Ľ×ķ×
Ġ×Ľ× ª×
Ġ×Ķ×¤× ¨×
Ġ× Ľ×Ķ
ĳ× ľ×
ĸ× Ĳ×ª
ou r
Ġ×ĳ×©×ĳ×Ļ× ľ×Ļ
Ġ×Ľ×ŀ× ¢×ĺ
Ġ×ŀ× ľ×ļ
Ġ×ĳ× ľ×Ļ×ľ×Ķ
Ġ×© ×Ļ×ķ×
¢×ķ× ¨×¨
Ġ×¢×ĵ ×Ļ×£
Ġ×Ķ×©× ª×
Ġ×ľ×Ľ× Ĳ×Ł
Ġ×ľ×Ĺ× ©×ķ×ĳ
Ġ×ĳ×¨×ķ× ¨
u m
ŀ× ¡
Ġ×Ķ× ¡×ķ×
ł× ĵ×
§×ķ× ¡
Ġ×Ĺ×ķ× ľ×Ŀ
a g
Ġ×ĳ× ¢×Ļ×ł×Ļ×Ļ×Ŀ
Ġ×©× Ĳ×ķ×
ł× ł×ķ
Ġ×ŀ×ķ× ĸ×Ļ×§×Ķ
Ġ×ŀ×ŀ× ļ
Ġ×Ĳ×ŀ× ¡×Ļ×ĸ
ĺ×ķ ×Ļ×ķ×ª
Ġ×Ļ×ľ× ĵ×Ķ
Ġ×ŀ×Ĺ×¤× ©×Ļ×Ŀ
Ġ×Ļ×ĵ× ¢×ª×Ļ
Ġ 3
Ĳ× Ŀ
Ġ×Ķ× Ĳ×Ļ×
Ġ×Ļ× ŀ×Ļ×Ŀ
Ġ×Ķ×ķ× ¤×ļ
Ġ×ľ×Ķ×©× ª×
Ĳ× £
ŀ× ©×Ļ×ļ
Ġ×ª× ľ×
Ġ×ª× ĵ×¢
¦× Ĳ×ª
Ġ×Ľ×ķ× Ľ×ĳ
Ġ×ĸ×ķ× ł×ķ×ª
¦×ķ× ¥
us e
Ġ×ŀ×©×ķ× Ĵ×¢
? ),
ľ× Ĵ×
Ĺ× £
Ġ×¡× ¨×ĺ
Ġ×ĺ× ŀ×
Ġ×ª×©× Ĳ×ľ
Ġ×ĳ×Ĺ× ĵ×¨
Ġ×ŀ× ĵ×ķ×
Ġ×ĳ× ľ×ĳ
Ġ×©× §
Ġ×¢×ľ ×Ļ×ł×ķ
Ġ×ŀ×ķ× ľ×Ļ
Ġ×ŀ×ķ× Ľ×¨
Ġw or
Ġ×ĺ×ķ×ĳ ×Ļ×Ŀ
×Ĳ ×Ļ×ļ
Ġ×ķ×ķ× Ĳ×Ł
ł×Ļ×Ļ× ł×Ļ×Ŀ
Ġ×ĳ×Ĺ×ķ×¨ ×ķ×ª
Ġ v
ŀ× §
©× ł×Ļ×Ŀ
Ġ×ľ× ¢×ķ×
Ġ×ŀ× ĳ×ķ×
Ġ×ª× ¡×
ĳ×ķ× ©
Ġ×Ķ×Ĵ× ĳ
Ġ×Ķ×ĳ×Ļ× ª
× §×ķ×
Ù ĳ
Ĳ× ł×Ķ
Ġ×ľ× ©×Ļ×Ŀ
Ġ×©× ĳ×¢
¨×ķ× ©×
Ġ×¨× Ĳ×Ļ×ª×Ļ
Ġ×§× Ŀ
×Ļ×§ ×Ļ
Ġ×ĳ×Ļ× ¥
ĠØ ®
ĠØ ´
×Ĳ× ľ
ľ×ĳ ×ķ×Ŀ
Ġ×ľ×ķ× Ĺ×
as t
Ġre al
Ġ×ª×ĸ×ķ× ĸ×Ļ
s e
Ġ×Ķ× ©
¨× Ł
Ġ×ĳ× Ĺ×ķ×
Ġ×¢× ª
Ġ×Ķ×Ĳ×Ĺ× ¨×ķ×Ł
¦ ×Ļ×ª
Ġ×¢× ¦
Ġ×ĵ ×ķ×¨
Ġ×ĸ ×Ļ×
Ġ×ŀ×¡× ª×ķ×ĳ×ĳ
Ġ×ŀ×Ĳ× Ĺ×ķ×¨
Ġ×ĸ×ķ× ¨×Ŀ
¢×Ļ× £
Ĳ× §×Ķ
Ġ×Ĳ×Ļ× ¦
Ġ×Ĺ× ŀ×©
Ġ×ĵ× ľ×Ķ
Ġ×Ķ×ª× §×
Ġc h
Ġ×ŀ×¢× ł×Ļ×Ļ×Ł
Ġ×ľ×Ķ×ª× ¢×
Ġ×Ķ×ĸ ×ķ×Ļ
Ġ×Ĳ× ļ
Ġ×Ķ× ¤×Ļ×
Ġ×¡× ª×ķ×Ŀ
he n
©×Ļ× ŀ×Ķ
Ġ×ŀ×Ĳ× ĸ
Ġ×ľ×Ĳ× £
Ġ×ª×§× ©×Ļ×ĳ
* ,
i p
q u
r y
Ľ ×Ļ×Ł
Ġ×ŀ× ł×¡×Ļ×Ŀ
Ġ×©× ©
Ġ×©× ĳ×ķ×¢
Ġ×Ĳ ×Ķ×
Ġ×ľ×Ĳ ×Ķ
Ġ×Ķ×ĳ× ŀ×Ķ
Ġb l
Ġ×¡×Ļ× ¤×ķ×¨
Ùĩ Ø§
Ġ×ŀ×ľ×ŀ× ĺ×Ķ
Ġ×ĳ×ľ×Ĳ× Ĵ×Ł
Ĵ× ł×ķ×Ł
×ķ×¨ ×Ļ×¡
Ġ×Ĳ×Ļ× ª×Ķ
Ġ×ĺ ×Ļ
Ġlo ve
Ġ×Ĳ× Ĵ×ķ
Ġ×ŀ× §
ĸ× ¨×ª
Ġ×¢×ķ× §×
ĠÙ Ĥ
Ġb ack
Ġ×Ķ×Ĺ× ľ×ķ×Ŀ
Ø¨ ÙĬ
ĳ×ķ×¨ ×Ļ×Ŀ
id e
ĸ ×ķ×ª
Ġ×ľ× ŀ×Ļ
Ġ×Ķ× ĳ×¨
¨× ĺ×Ļ×Ŀ
Ĵ× ĵ
Ġ×Ĳ×ľ ×Ļ×
Ġ×§×ķ× ľ×ĺ
Ġp e
ĠS h
ĠÙħ Ø§
Ð° Ð
o y
ŀ× ł×ķ
ĳ× ļ
ĳ× ĵ×Ļ×Ŀ
¨× ©×Ļ×Ŀ
Ġ×ĳ× §×ķ×
Ġ×¤× ľ×ķ×Ĳ×ķ
Ġ×§× ĳ×ľ
Ġ( ?
Ġ×Ĵ× ĳ
Ġ×ĵ× §×ķ×ª
Ġ×Ķ×ŀ× ¦×ĳ
Ġ×ł×©× ĳ×¢
Ĵ×Ļ×ĵ ×ķ
ľ×Ĳ× ¡
t h
× ľ×Ķ
Ġ×Ķ× ¤×Ķ
Ġ×ŀ× ¤×Ķ
Ġ×©× §×ķ×
¤× Ĳ
Ġ×ŀ ×Ļ×ĵ×Ļ
¨×ķ× ĵ
Ġ×ŀ×ª× ŀ×
Ġ×ķ×Ĳ× ľ
Ġ×ľ×¤× ł×Ļ×Ŀ
Ġ×ľ×¢× ©×Ł
Ġ×ĳ×§× ĺ×¢
Ġ×Ĺ×¨×ķ× ĸ×Ļ×Ŀ
Ġ×ľ×©×ŀ×ķ× ¢
ŀ× ĳ×Ķ
Ġ×ľ× ¤×Ķ
Ġ×ľ× ¤×Ļ
¨× ľ
Ġ×ķ× ¨×§
Ġ×¤× ª×Ĺ
Ġ×ł×ķ× ľ×
ł×¡ ×ķ×ª
Ġ×©×ŀ× ¢×ª×Ļ
Ġf e
er s
Ġ×ľ×Ķ×ª× Ĺ×
× Ľ×ķ×
Ġ K
Ġ×ĳ× ľ×Ļ×
×Ļ×Ļ× ª×Ļ
Ġ×§× ¨×Ļ×
Ġ×Ĺ× ľ×ķ×ŀ×ķ×ª
ĠØ ³
is t
Ġ×ª×§× ¨×Ĳ
ac e
Ġj ust
i ve
©× ĺ
Ġ×Ķ× ¨
Ġ×Ļ×ķ× ¨×§
Ġ×©×ķ× Ĳ×ľ
Ġ×ľ×ĳ× ¨×ķ×Ĺ
Ġ×ľ×ķ× ŀ×¨
e ah
Ġ×¢× ©×¨
Ġ×¡× ľ×
Ġ×ķ×Ķ× Ŀ
Ġ×Ĺ×ĳ×¨ ×Ķ
Ġ×¡×ĺ ×Ļ×Ļ×ľ
Ù ī
×Ļ× ľ×Ķ
©× ¨×Ļ×Ŀ
Ġ×ŀ× ĸ×ľ
Ġ×ĳ× ª×ķ×
Ġ×ĳ× ĳ×ķ×§×¨
Ĵ× ŀ×¨
¦× ľ×
.. ,
Ġ×Ķ×ŀ× ľ×ļ
Ġ×Ķ×ĳ× ł×ª×Ļ
Ġ×ķ×ŀ× ª×
Ġ×ĳ×¨× ŀ×ķ×ª
Ġ×Ķ× ¨×Ĳ×
×Ķ× Ĳ
Ġ×ĵ× ¤×ķ×§
Ġ×ľ×ł× ¦×Ĺ
Ġ×ľ× ŀ×ķ×
Ġ×ľ× ŀ×¨×ķ×ª
Ġ×¤× ¨×Ļ×
Ġ×ľ×Ķ× ĳ×Ļ×Ĳ
Ġ×ŀ×ĳ× ĺ
i e
Ñ ģ
Ġ×ľ× §×ķ×Ŀ
Ġ×Ļ× ¦×Ĳ
Ġa n
Ġ×ľ×Ĺ× ĸ×ķ×¨
Ġ×Ĵ×ķ× ŀ×¨
Ġ×Ķ×Ķ ×Ļ×Ļ×¤
Ĳ ×ķ×Ł
Ĺ ×Ļ×§
Ġ×ĳ× ĳ×Ļ×
Ġ×ŀ×ª× Ĺ×ª
Ġ×Ķ×ķ× ¤×
Ø± Ø§
Ġ×ŀ×Ľ ×ķ×ª
Ġ×Ĳ×ķ×ķ ×Ļ×¨
Ġ×Ĳ×ª× ŀ×ķ×ľ
ĳ× Ĳ×
Ġ×Ĳ× ¡×
Ġ×¢× ł×Ļ×Ļ×Ł
Ġ×Ĺ× ¨×Ĳ
Ġ×ľ×ķ× §×
Ġ×ŀ×¤× Ĺ×ĵ
¢×ĵ ×ķ×Ł
Ġ×Ĳ×Ĺ ×ķ×¨×Ķ
Ġ×ķ×Ľ× ©×
od y
Ġ×Ľ×ł× ¨×Ĳ×Ķ
r a
Ĳ× ¤
Ġ×ĳ× ¡×Ļ×
Ġ×Ļ×ķ× ¨×ĵ
Ġ×©×ŀ× ª×
Ġ×ŀ×¢× ©×Ł
Ġ×Ĺ×Ļ ×Ļ
Ø¯ ÙĬ
Ġ×Ķ×ŀ×ķ× ĸ×Ļ×§×Ķ
ł×Ĵ×Ļ× ł×Ķ
ł ×Ļ×§
Ġ×ľ× Ĵ
Ġ×¢×ķ× ¦×¨
Ġ×Ĵ× Ĳ×ĵ
Ġ×ľ×Ķ× Ĺ×
Ġ×ĵ× ¤×
Ġ×ŀ×ª× ł×
Ġ×ľ×©× ĳ×ķ×¨
§×¨ ×ķ×ª
Ġ×Ķ×¨×Ĳ×© ×ķ×Ł
! ),
× ľ×Ļ
× ¨×ķ×
Ġ×ķ× ľ×Ķ×
Ġ×¨×ķ× Ĺ
Ġ×Ķ×ŀ× ¡×
Ġ×Ķ×Ĳ× ©
ĺ×ķ× ľ
Ġ×ľ×ł× ©×ķ×Ŀ
Ġ×ľ× §
Ġ×ľ× ¢×ķ×ľ×Ŀ
Ġ×ŀ× ¨
in e
Ġ×ŀ×§× ĳ×ľ
ĠB ut
Ġ×ĳ×ĵ×ķ× §
: ,
Ġ×ľ× ĸ×ķ×ĸ
¢× ¡
Ġ×©× ©×ķ×
Ġ×©× Ľ×ķ×ľ×Ŀ
Ġ×Ľ× ľ×Ļ
Ġ×ł× ¨×Ĳ
Ġt ime
Ġ×ŀ×ª× Ĵ×
Ġp l
Ñ Ģ
¢× ł×ķ
Ġ×Ķ×ĳ× ł×ķ×ª
ĳ×ľ×Ļ× ŀ×Ļ×
a use
ŀ ×Ķ×
ł ×ķ×ĳ
Ĳ× ł×ķ
ŀ× ĺ
Ġ×Ĳ× Ĵ×
Ġ×Ĳ× ĳ×Ļ×
Ġ×Ķ× ©×Ļ×
ł× Ŀ
¤× ª×Ĺ
Ġ×¢× ĳ×ķ×ĵ×Ķ
Ġ×Ķ×Ļ×Ļ× ĵ×Ķ
ot her
Ġ×ŀ×Ĳ×ķ× Ĺ×¨
Ġ×Ľ×Ķ× Ł
¡ ×Ļ×§×Ķ
Ġ×©× ĳ
¡× Ŀ
Ġ×¤× ľ×ķ×
Ġ×Ķ×Ĳ× ľ×Ķ
Ġ×Ķ×Ĵ× Ĳ×ł×Ĵ
¤×Ļ× ¥
¡×§ ×Ļ
Ġ×Ĺ×ķ×©×ĳ ×Ļ×Ŀ
ĠÙģ ÙĬ
Ġ ..
Ġ×Ķ× ł×ķ×
Ġ×Ķ× ¢×Ļ×
Ľ× ĸ
Ľ× ĺ×Ķ
Ġ×Ľ× Ĳ×
¨×ķ× ©
Ġ×©×ķ× Ĺ×ĺ
ľ×ķ× Ķ×Ļ×Ŀ
Ġ×ĳ×©× §×ĺ
ĺ×¨ ×ķ×ª
Ġ×Ļ×ķ×©×ĳ ×Ļ×Ŀ
Ġ×Ĳ×ª× Ľ×Ŀ
ŀ ×Ļ×Ļ×
×Ļ× ĺ
ĳ×Ļ× ©
Ġa l
ĠØ ¬
Ġ×ľ×¤× Ĺ×ķ×ª
Ġg ot
Ġn a
Ġ×Ķ×ŀ×©× Ĺ×§
Ġ×Ľ×ŀ×ķ× ł×Ļ
× Ĳ×ª
Ĺ ×Ļ×ª
Ġ× ´
Ĳ× Ĵ
ľ× ¤×Ļ×Ŀ
Ġ×ľ× Ĺ×ķ×
Ġ×Ķ× ľ
Ľ× ĳ×ª
¢× ¨×ª
¤× Ĺ×Ķ
Ġ×ŀ ×Ļ×ĵ
Ġ×¤× ¡×Ļ×
Ġ×Ķ×ŀ× ĵ×Ļ×ł×Ķ
ou gh
Ġ×ĳ×ķ×Ĳ ×ķ
Ġ×ł ×ķ×¨×Ļ×¡
o k
ľ× Ĺ×ª
©× §
Ġ×Ķ× ľ×Ĳ
¨× ĸ
¨× ĺ×Ļ×
Ġ×ĳ× ©
Ġ×ĳ× Ĺ×ķ×¨×Ķ
Ġ×©× ł×Ļ×Ķ
Ġ×Ļ× ª×
ĸ× ĳ
Ġ×§× ©
Ġ×ĳ×Ĳ ×Ķ
×ķ×ķ× ¨×¡
Ġ×ł×ķ× ¤×
Ġ×Ķ×ŀ ×Ļ×Ļ×§
ĠO n
n t
×Ķ ×ķ×¤
ª× Ĺ×ª
Ġ×ĳ× ĺ×ķ×ĳ
¤× ¢×ŀ×Ļ×Ŀ
Ġ×ķ× ¡×
¦× Ĵ
¦× ¤×Ķ
Ġ×¨× ł×ł×ķ
Ġ×§× ¨×ķ×
×Ļ×¨ ×Ļ×Ŀ
Ġ×ĳ×Ļ× Ĵ
¤×ķ× ¦×¥
ÙĬ Ø±
Ġ×ĳ×ŀ× Ĺ×
Ġ×ŀ×Ľ ×ķ×ķ×Ł
×¢× ľ
Ġ×Ķ×©×ķ× ľ×Ĺ×Ł
ª ×Ļ×§
ĸ ×ķ×Ł
Ĺ ×ķ×Ŀ
Ġ×¢× ł×
Ġ×ķ ×ķ×Ļ×
×Ļ×Ļ× ª
Ġ×¢×ľ ×Ķ
×ķ×Ĳ ×Ķ
Ġ×Ĺ×ķ× ľ×Ķ
Ġ×©×ķ× ľ×ĺ
Ġ×ŀ×Ĺ× ĸ×Ļ×§
Ġ×ł×©× ĳ×¨
¤×Ļ× ł×Ķ
Ġ×Ķ×¦× ľ
Ġ×Ĳ×Ĺ×ķ× ĸ
Ġ×Ļ×Ľ×ķ× ľ×Ķ
Ľ ×ķ×ķ×
ľ ×Ļ×§
Ġ×Ķ× ¤
Ġ×ĳ× ¢×Ļ×
Ġ×©× §×ĺ
§× ¨×Ļ×Ŀ
Ġ×§× ¨×Ĺ
Ġ×ĳ×Ĳ× ł×ķ
Ġ×ľ×¢× ¦×ķ×¨
Ġn ot
Ġ×©×Ķ ×Ļ×Ķ
ĠØ¨ Ø§ÙĦ
¨×Ĵ× ©
c t
× ª×Ļ
ŀ× ¤×
ŀ× ĵ×Ļ×Ŀ
©× ¨×Ĳ×
Ġ×ľ× §×ķ×
Ġ×Ķ× ĳ×Ļ×Ĳ
Ġ×Ķ× §×¨×ķ
ł× ¦
Ġ×Ļ× ©×Ł
ĺ× ¨×Ļ×Ŀ
Ġ×¦× ĵ
Ġ×©×ŀ× ©×
×Ĳ ×ķ×ķ
at ion
Ľ ×ķ×Ļ
Ĳ× ĵ×Ŀ
Ġ×Ļ ×ķ×¨×Ķ
Ġ×ķ× Ĺ×ķ×
Ġ×¤× ¢×
Ġ×ŀ×¢× ĺ
Ð¾ Ð
i ck
Ø º
×Ķ ×Ļ×Ļ
¨× Ĵ×¢
¤× £
Ġ×ķ× ©×ķ×
Ġ×Ļ× §×¨×Ķ
ĺ× Ĺ
¡×Ļ× ŀ×ķ×Ŀ
Ġ×ĳ×Ĳ ×ķ×ª
Ġ×Ķ×¨× Ĵ×¢
ur n
Ġ×ª× Ĺ×ª
¦× ¨×Ļ×Ŀ
Ġ×Ĺ× ª×ķ×
Ġ×¡× Ĵ×ķ×ľ
Ġ×ĳ×Ĳ× ŀ×
Ġ×Ķ×Ĳ× ¨×
Ġ×Ķ×¤× ł×Ļ×Ŀ
Ġh ave
Ġ×Ĳ×ľ×Ļ ×Ļ×ļ
¦×¨ ×ķ×ª
Ġ×ķ×¢× Ľ×©×Ļ×ķ
¨×ķ×©× ľ×Ļ×Ŀ
Ġ×Ķ× Ľ×ķ×ľ
Ġ×ŀ× ¦
¤× ¥
¨×Ļ× Ĺ
Ġ×Ľ×ķ× ľ×Ķ
ĠØ ±
Ġs ay
ou nd
Ġ×ľ×©× ĳ×ª
Ġh o
Ġon e
Ġ×Ĺ×©× ĳ×ª×Ļ
Ġ×Ľ ×Ļ×ª×Ķ
Ġ×ĳ×ª ×ķ×¨
×´ ,
Ġ×¢×©× ¨×Ļ×Ŀ
× Ľ×Ļ
Ġ 6
×ķ× ł×Ļ×Ŀ
×Ļ× ĳ×
Ĺ× ĵ×Ļ×Ŀ
Ġ×ľ ×Ļ×ĵ
Ġ×Ĵ× ł×
Ġ×ľ×Ķ× ĳ×Ļ×Ł
Ø§ Ø¨
Ġc l
es s
o ck
ĳ ×ķ×Ŀ
ľ× ĵ×Ķ
ª× ¨×ª
Ġ×ŀ× ©
Ġ×ŀ× ŀ×ķ×
ł× Ĳ×Ļ×Ŀ
Ġ×ł× Ľ×
Ġ×Ĳ×Ļ× ©×Ķ
Ġ×ĳ×Ļ× ĺ×Ļ×Ŀ
Ġ×ŀ×Ķ× ©×
Ġ×ĺ× ¢×Ŀ
Ġ×Ķ×ª× Ĺ×ª
Ġ×§×Ļ×ĳ× ľ×ª×Ļ
t y
×ķ ×ķ×ª
Ġ×ŀ× ł×Ļ×
Ġ×ª× ¨×Ĳ×Ļ
Ġ×Ļ× Ĺ×ĵ
Ġ×Ĳ×Ļ× ª×Ŀ
ł×ķ× ¡
¨×Ĳ× ¡
Ġ×ĸ ×Ļ
ª×Ļ× Ľ×ķ×Ł
ĠN o
¤ ×Ļ×ķ×ª
ĺ ×ķ×Ł
¨× ĳ×ĳ
Ġ×©× ĺ×ķ×Ļ×ķ×ª
¨×Ļ× ¥
Ø§ Øª
Ġ×Ĺ×ķ× ¤×©×Ļ
Ġp r
Ġ×Ĺ×Ļ ×ķ×ļ
Ġ×ª×Ļ× §×Ĺ
×Ľ× ¡×£
Ġ×¨ ×Ļ×§
Ġ×¦×ķ×¢× §
u b
Ġ 5
©× Ĳ
¡× Ĳ
¦× ł×Ķ
ĳ×Ļ× ĳ×Ļ
Ġ×Ĳ×Ļ× ª×ķ
ŀ×Ļ× ª
Ġ×Ķ×©× ŀ×©
Ĵ×ķ× £
Ġ×Ĳ×ŀ× ¨×ª
Ġ×ĳ×¡× ¨×ĺ
Ġ×ł×Ĵ× ĵ
Ġ×ª×¨×Ļ× ŀ×ķ
ľ× ľ×Ķ
Ġ×ľ× ł×¡×ķ×ª
Ġ×Ķ× ª×ķ×
Ġ×©× ¦×
Ġ×ķ× Ľ×ķ×
Ġ×ķ× ŀ×Ļ
Ġ×ª× ª×Ł
Ġ×© ×Ļ×Ķ×Ļ×Ķ
Ġ×ł× Ľ×ł×
Ġ×Ľ×ķ× Ĳ×ĳ
ŀ×ķ× ĺ×Ķ
Ġ×ķ×ķ× Ĳ×
Ġ×ĳ×§× ľ×ķ×ª
ĠW h
Ĳ ×Ķ×
Ġ×Ĳ× ľ×Ķ
Ġ×Ķ× Ĵ×Ļ×
Ġ×©× ĳ×ķ
Ĺ× Ł
Ġ×ľ×Ļ ×Ļ×§
×Ļ×ĵ ×Ļ×Ŀ
ľ×Ļ× Ĺ×Ķ
Ġ×¦×¨×Ļ× Ľ×Ķ
Ġ×§×Ĳ× ©
Ġ×Ķ× ĵ×Ŀ
Ġ×Ķ× ľ×Ľ×
ĵ× ł×ķ
Ġ×ľ×Ĳ ×Ļ×
ľ×Ļ ×ķ×Ŀ
ĠØ ¯
Ġ×Ķ×¤× ľ×ķ×Ĳ×ķ
Ġ×ŀ×§× ©×Ļ×ĳ
Ġ×ĳ×Ĳ×ķ× ľ×¤×Ł
¤ ×Ļ×ª
ª ×ķ×ª
ĳ ×Ļ×Ļ×
Ġ×ľ× §×¨×ķ×ª
Ġ×Ķ× ¨×ķ×
ł× ĺ×Ļ×
¤× Ĳ×§
Ġ×¤× ¦×
Ġ×Ĺ× ¨×
¡×Ļ× ĳ×ª
ĠØ ·
Ġ×Ķ×¤× Ĳ×§×Ļ×ł×Ĵ
Ġ×¤×ķ× ľ
Ġ×ķ×ŀ× ©×
Ġ×ª×ķ× ļ
Ġ×Ķ×ĳ×Ļ× ª×Ķ
×ľ× ŀ×Ķ
Ġ×ķ×¢× ľ
Ġ×©×ķ×ŀ×¢ ×Ļ×Ŀ
Ġ×Ĳ×¡ ×ķ×¨
f e
× ĸ
× ĵ×Ļ
× ĳ×ķ×Ĳ
Ġ×ĳ× ©×ķ×
ł×Ļ ×Ļ×Ķ
Ġ×ķ× ŀ×ķ×
¨×ķ× ł×ķ×ª
Ġ×ł× ¢×Ļ×Ŀ
Ġ×ĸ×Ķ ×ĳ
Ġ×¢×ķ× ľ×Ļ×Ŀ
Ġ×ł×ķ× ¡×¢
Ġ×ŀ×Ļ× ł×Ļ
Ġ×Ļ×Ķ ×ķ×
Ġ×ľ×ª× ¤×ķ×¡
Ġ×¡ ×Ļ×Ļ×
Ġ×Ķ×ŀ×ķ× Ĺ
Ľ×ķ ×ķ×Ł
Ġ×Ķ×ĵ×Ļ× ĳ×ķ×¨
Ġ×ŀ×ĸ×Ļ× ĸ
Ġ× ł×Ļ×Ļ×
¨× Ľ×Ļ
Ġ×ŀ× Ľ×Ķ
Ġ×©× ľ×Ŀ
ĸ× ¨×Ķ
Ġ×©×ľ ×Ļ×
Ġ×Ĵ× ĵ×ķ×
ŀ×ķ× ł×Ļ×Ŀ
Ġ×ĳ×Ĳ× ł×Ĵ
Ġ×ĺ× ¡
Ġ×©×ŀ× Ĺ×
Ġ×ĳ×©×ĳ×Ļ× ľ×ļ
ľ×Ĺ× ¥
ĠÙħ Ø´
Ľ× ł×Ļ×ª
¨× ¡×Ļ×Ŀ
Ġ×ŀ× ¡×Ļ×ĳ×Ķ
Ġ×¢× ©×Ķ
¦× ĳ×¢
Ġ×ª ×ķ×¨×Ļ×ĵ
Ġ×Ĵ× ĵ×
Ġ×¡× ¤×§
Ġ×ŀ×ª× Ĳ×
an na
Ġ×ľ×Ķ×ª× §×
ĵ ×ķ×Ŀ
Ġ×©× ª×Ļ×
Ĵ× Ĵ
Ĵ× ¢×ª
Ġ×¤× ľ×ĵ
Ġ×ĳ ×ķ×Ļ
¤×ķ× ¥
Ġ×ľ×ŀ× ©×
Ġ×ł×©× ŀ×Ķ
Ġ×©×Ķ× ©×
ĺ×Ļ× Ĺ
Ġ×ľ×§× ¨×ķ×
Ġ×ľ×§× ĳ×ľ
Ġ×ŀ×Ľ ×ķ×¨
Ġ×ŀ×¦× Ĺ×Ļ×§
Ġ×ŀ×Ľ× ł×Ļ×¡
× ©×ķ×
Ġ×ĳ× ŀ×Ķ
Ĺ× ł×Ķ
¤× ¨×ª
Ġ×Ľ× Ĳ×ľ×Ķ
ĳ×¨ ×Ļ×ª
Ġ×§× ¤×Ķ
Ġ×§× ľ×ķ×ĺ
×Ļ×§ ×ķ
Ġ×ĳ×ķ× Ľ×Ķ
Ġ×ŀ×ª× ¨×
Ġ×Ķ×ª× §×ķ×ķ×Ķ
Ġ×Ķ×Ĺ× ĳ×¨×Ļ×Ŀ
Ġ×Ķ×Ĵ× ĵ×ķ×ľ
Ġ×Ĺ×ĸ× ¨×Ķ
ĠO h
a re
× ª
¢× §
¢× ©×Ķ
Ġ×ŀ× §×ķ×ķ×Ķ
Ġ×©× Ĺ×ķ×
Ġ×Ľ× ĳ×ĵ
ĵ× ¡
ou ld
Ġ×ĳ×©× ŀ×Ļ×Ļ×Ŀ
ÙĨ Øª
×ķ×ķ ×Ļ×Ŀ
ľ×Ĳ× §
at e
§×¡ ×Ļ×Ŀ
Ġin na
Ġ×Ĳ×ľ× ľ×Ķ
ŀ×ĺ× Ŀ
Ġ×¡×ķ×ķ×Ļ× ¡×Ķ
á Ī
Ġ×ľ× ŀ×Ļ×
Ġ×Ķ× ĵ×ķ×
Ĺ× Ŀ
Ġ×Ľ× ľ×ĳ×Ķ
Ġ×ķ ×ķ×Ĳ×ķ
Ġ×ķ× ¢×ķ×
ľ×Ļ ×ķ×ª
×ķ×¨ ×Ļ×Ķ
Ġm i
Ġ×ł×ķ× ¨×ŀ×
Ġb ut
an g
Ġ×ľ×§× ł×ķ×ª
Ġ×Ķ×Ķ ×Ļ×¤
Ġ×ª×¨× §×
Ġwh o
Ġ×ĳ×¢ ×Ļ×Ķ
h ing
Ġ ke
Ġ×Ĳ× ¨
Ġ×Ķ× ¡
Ġ×Ķ× ĺ×ķ×ĳ
¨× ŀ×Ķ
§× ĵ
Ġ×ŀ ×ķ×ķ×ª×¨
Ġ×ª× ¤×ķ×¡
Ġ×§× ©×Ļ×Ŀ
Ġ×Ĵ× ¨
Ġ×ľ×Ķ× ¡×
Ġa t
ľ×Ļ× ĺ×Ļ×Ŀ
Ġ×ª×Ļ× ª×Ł
Ġ×Ĳ×¨× ŀ×ł×Ļ
Ġhe ar
Ġ×¢×©×Ļ× ª
Ġ×§×ķ×¤× ¥
Ġ×ķ×Ĳ×Ļ× ļ
ĳ×ľ×Ļ×ŀ×Ļ× ł×ľ
ĸ ×Ļ×Ķ
ĳ× ľ×Ķ
Ġ×Ĳ× ĵ×ŀ×Ķ
Ġ×ľ× Ĺ×Ļ×Ļ×Ŀ
Ġ×Ķ× ĵ
Ġ×ŀ× ł×Ķ
Ġ×ĳ× §
Ġ×Ļ× §×¨
Ġ×©×Ļ× ŀ×ķ
Ġb r
Ġf l
Ġ×Ĺ ×ķ×Ŀ
Ġ×ĵ×ķ× ¤×
Ġ×Ķ×Ļ× ľ×ĵ
Ġ×ľ×Ĳ×Ķ ×ķ×ĳ
Ġ×ĳ× ĵ
×ķ×ª ×Ļ
ª×Ļ ×Ļ×
×Ļ×¨ ×Ļ×
Ġs p
Ġ×ł×ķ× ¨×Ĳ
Ġ×Ķ×ĳ× Ł
Ġ×ľ×©× Ĺ×§
Ġ×ķ×Ķ× ©×
Ġ×ľ×§× Ĺ×ª×Ļ
Ġ×¢×¦× ŀ×ļ
ĸ×Ļ× ĸ
Ġ×Ķ×Ĺ×ķ× £
Ġsh it
f f
ĳ× ł×ķ
Ġ×ĳ× ¢×Ļ×¨
ł× ĵ×¨
¤× ĺ
¤× ł×Ļ
Ġ×Ĺ× ©×ķ×
×Ļ×ĵ ×ķ×ª
Ġ×Ļ×ķ× Ĳ×ķ
¡×Ļ× ª×Ļ
ĠØ µ
Ġ×ł×ķ× ľ×ĵ
Ġ×ĺ× ¢×ķ×ª
Ġ×¡×ķ× Ĵ×¨
Ġ×ł×ķ×ľ× ĵ×ª×Ļ
Ġ×Ĳ× ł×ķ×
Ġ×Ķ× ¢×ª×Ļ×ĵ
Ġ×ŀ× ŀ×Ķ
Ġ×ĳ× ĸ×Ķ
Ġ×ķ× Ľ×ķ×ľ×Ŀ
Ġ×ľ×Ķ× ¨×Ĵ×Ļ×©
Ġ×Ķ×ŀ× ¢×
Ġ×ĳ×ŀ× ¨×
©×ĳ ×Ļ×Ŀ
Ġ×Ĳ×ł× ĵ
Ġ×ŀ×¦× Ĳ×ª×Ļ
Ġ×ª×¢× ©×Ķ
ª×Ĺ× ¨×Ļ×Ŀ
Ġst op
Ġ×ľ×ĵ× ¢×ª
Ġ×¨×¢× ĳ
i z
× ª×Ł
ĳ× ł×Ķ
Ġ×Ķ× ŀ×Ļ×Ŀ
Ġ×ŀ× Ĳ×ł×Ļ
Ġ×©× ĳ×ª
Ġ×¢× ¨×ĳ
Ġ×ķ× Ĳ
Ġ×ķ× ł×ķ×
Ġ×ª× ĳ×Ļ×
Ġ×Ļ× ŀ×Ļ×Ł
Ġ×© ×Ļ×Ļ×
ĸ× ł×Ļ×Ļ×Ŀ
Ġ×¨× ĳ×¢
Ġ×Ķ×ŀ× Ĳ×
Ġ×ĳ×ķ× ľ×
Ġ×ĳ×ķ× ł×Ķ
Ġ×Ķ×©× ŀ×Ļ×Ļ×Ŀ
Ġ×ĳ×¢× ¦×Ŀ
ĠÙħ Ø¹
Ġ×Ĳ×Ĺ ×Ļ×Ŀ
Ġ×Ĺ×©× ĳ×ķ×Ł
Ġ×ĺ×ŀ× ĳ×ľ
¨×ķ× ļ
Ġ×ł× ŀ×ķ×ļ
Ġ×§× ĺ×¢
ĳ×ľ ×ķ×
Ġd r
Ġ×ķ×Ķ× ŀ×
Ġ×ĸ×ķ× ¨×
al k
en t
ĵ×§ ×ķ×¨
Ġ×ŀ×ľ×ŀ× ¢×ľ×Ķ
× ¤
× ¦
× ©×Ļ×
Ġ 4
©× ¨×ķ×Ł
Ľ× ¨×ķ×Ł
Ġ×ĳ× ©×Ļ×
Ġ×©× ¢×ķ×ª
Ĺ× ¨×¨
Ġ×ŀ ×Ļ×Ļ×§
Ġ×Ļ× Ĵ×Ļ×¢
¨×ķ× ¤×Ķ
ª×Ļ ×Ļ×Ŀ
ĺ× ¡
Ġ×¤× ĸ×ŀ×ķ×Ł
§×Ļ× ¥
Ġ×ľ×©× Ŀ
Ġ×ľ×Ĺ× Ľ×ķ×ª
Ġp on
ľ×ĺ× ª
Ġ×ĳ×ľ ×Ļ×ľ×ķ×ª
Ġ×¢×ª ×Ļ×ĵ
×Ļ×ĳ× Ĳ×Ł
Ġ qu
Ġ×ŀ× ľ×Ĺ×
Ĵ× ¨×Ļ×Ŀ
Ġ×¢×ľ ×Ļ×
Ġ×¡× ¢
Ġ×¡× §×
Ġa g
Ġ×©×ķ× ł×Ĳ
Ġ×ķ×Ķ× Ľ×ľ
Ġ×¡×ķ× Ĺ×
Ġ×ĸ×ķ× ĸ
×ŀ× ¡×Ļ×ĳ×Ķ
Ġh im
§×ĺ ×ķ×¨
am a
Ġ×ľ×ĵ× ¤×ķ×§
Ġ×ŀ×ª×ķ× §
Ġ×¢×©× ¨×Ķ
Ġ×ŀ×¨×Ļ× Ĺ
Ġ×ł×ķ×ª× ł×Ļ×Ŀ
Ĳ× ľ×Ļ×Ŀ
ŀ× Ĺ×Ķ
Ġ×ŀ× Ĳ
Ġ×©× ŀ×ķ×
Ġ×Ĳ ×ķ×¨×Ļ
Ĵ× ª
Ġ×ª× ł×
ĳ×Ļ× §
¨×ķ× ĸ×Ļ×Ŀ
Ġ×Ĳ×Ļ× ĺ
×Ļ×Ļ× £
¨×Ļ× ĸ×Ķ
Ġs he
Ġ×ľ×ŀ× ĵ×ª×Ļ
Ġc all
Ķ× ¨
©×ķ×ĳ ×Ķ
Ġ×ŀ×Ĳ×Ļ× ¤×Ķ
- ,
¡ ×ķ×ª
Ġ U
Ġ×Ķ× ł×Ļ
Ĺ× §×Ļ×Ŀ
Ġ×Ľ× ľ×ĳ
Ġ×ķ× ĳ×Ļ×
ĺ× Ĺ×ķ×Ł
Ġ×§× ¦×ĳ
¨×Ļ× ª
ĺ×ķ× £
Ġ×Ĳ×ŀ× ¡×Ļ
Ġ×ŀ×ĳ× §×©
Ġ×ł×Ĺ× ©
Ġ×ŀ×©×Ĺ× §×Ļ×Ŀ
u d
Ġ×ľ× ¨×ķ×¥
Ġ×Ķ× ĺ×Ļ×
ª× £
×Ķ× Ľ×ľ
Ġ×Ļ× Ĳ×
Ġ×ł× ©×Ļ×Ŀ
Ġ×ł× §×Ļ
ł×Ļ× ĳ
Ġ×ŀ×Ķ× Ĺ×
Ġ×ľ×Ķ×Ļ× ĺ
Ġ×Ķ×ľ×ķ ×ķ×Ĳ×Ļ
Ġke ep
i v
× ł
Ġ×©× Ĵ×
Ġ×©× ŀ×Ļ×
Ġ×ŀ ×Ļ×Ļ
¦× £
ĸ× ĳ×
Ġ×¤× ł×
Ġ×Ĳ×ķ× ª×Ł
Ġb et
Ġf uck
Ġ×¡×Ļ× Ľ×ķ×Ļ
Ġ×Ķ×Ļ×Ļ× ł×ķ
Ġo h
Ġe very
Ġ×ķ×Ľ× ŀ×Ķ
Ġ×§×ľ×Ĳ× ł×Ĵ
¨×ĺ× Ĵ×Ķ
Ø °
ŀ ×Ļ×ľ×Ļ×Ŀ
ľ× ŀ×Ķ
Ġ×ĳ× ¡
¦× Ĳ×ª×Ļ
Ġ×¡× ¤×
ł×¡ ×Ļ
Ġ×ŀ×ķ×©× ľ×Ŀ
Ġ×ľ×ĸ× ¨×ķ×Ŀ
Ġ×Ļ×Ľ×ķ× ľ×Ļ×Ŀ
× ł×ķ×
×ķ× ł×Ļ
¨× ĳ×
Ġ×ŀ× ¡
Ġ×Ľ× ĵ×ķ×¨
Ġ×Ĳ×Ļ× ª×ł×ķ
Ġ×ľ×Ķ× ŀ×©×Ļ×ļ
ł×ķ× ¢
Ġw ay
Ġ×¤×ķ× Ĵ×¢
Ġ×ĵ×ķ× ĵ
Ø± ÙĬ
ÙĪ Ø§
Ġ×ŀ×¦× ĺ×
as s
×ķ×¨×Ļ×ĵ ×Ļ×Ŀ
Ġ×ł×¤× ª×Ĺ
Ġ×Ķ ×Ļ×Ŀ
Ġ×ľ× ¦
Ġ×©× ª×ķ×§
Ġ×Ľ× Ĺ×ķ×ľ
ł×ķ ×Ļ
Ġs ome
Ġ×ŀ×Ĺ× ĵ×©
×Ĳ× ĳ×ľ
Ġ×Ķ×Ļ× ŀ×Ļ×Ŀ
Ġ×ĳ×¨× Ĺ×ķ×ĳ×ķ×ª
Ġ×ŀ×Ļ×ķ× Ĺ×ĵ
Ġ×Ķ×§ ×Ķ×ľ
u l
Ĺ ×Ļ×Ļ×
Ġ×¢× ¨×§
ĳ×¨ ×ķ×ª
Ľ×ķ× Ĺ
Ġ×¤× ª×ķ×Ĺ
Ġ×Ĳ×ķ× ĺ×ķ×
Ġ×Ĳ×Ĺ× ¨×Ļ×Ŀ
Ġ×§×ķ× ľ×
Ġ×ľ×ŀ× §×ķ×Ŀ
Ġ×ľ×©× ª×ķ×ª
¨×Ļ ×Ļ×Ŀ
Ġ×¤×Ļ× ł×Ķ
Ùĩ Ùħ
Ġon ly
ic e
ir l
Ġ×§×ĺ× ł×Ķ
Ġ×¢×¦ ×ķ×ĳ
¤× ľ×
¡× ¤×¡
Ġ×ª× ľ×ļ
Ġ×ª× ŀ×ķ×ł×Ķ
Ġ×§× ¨×Ĳ×§
Ġ×Ĳ×ķ× ¤×
Ġ×ĵ× £
Ġ×ĳ ×Ļ×ķ×
¡×Ļ× ĳ×ķ×ª
¤×ķ× ĺ
ľ×ķ× ©
Ġ×ĺ× ¨×ķ×
Ġ×Ķ×ĳ× Ĳ×ª×Ļ
Ġ×Ķ×¤× ¢×Ŀ
Ġ×ľ×©× ŀ×ķ×¨
Ġ×Ĺ ×Ķ
Ġ×¡×Ļ× ĳ×ķ×ĳ
ĠØ§ÙĦ ÙĦÙĬ
Ġ×ĺ×ķ× ł×Ķ
Ġ×ª×¤× ª×Ĺ
Ġ×ŀ×ª×Ĺ× ¨×Ļ×Ŀ
ĵ×Ĳ× ¤×
ĠÙĬ Ø§
Ġ×ĳ×¨ ×Ļ×¨×Ķ
Ġ×ª×Ĵ× ĳ×Ļ×¨
Ġ×ķ×ķ ×Ļ×ĵ
Ðµ Ð
¤ ×ķ×¨×Ļ×Ŀ
§ ×Ļ×Ļ×
Ġ :
Ġ×ŀ× ¨×Ĵ×Ļ×
Ĺ× ĳ×Ķ
Ġ×ª× ¦×Ĳ
×Ķ× ¤×
Ġ×¡× §×Ļ×Ļ
Ġ×Ĺ×ķ× ª×ļ
ÙĬ ÙĦ
Ġ×ŀ×Ķ× ¡×
Ġw as
Ġw hen
Ġ×ĺ× §×¡×ĺ
Ġ×ĳ×©× Ľ×ķ×ł×Ķ
Ĳ×ķ× ľ
ĠI s
Ġl et
Ġ×ľ×Ĳ× ł×©×Ļ×Ŀ
is e
Ġ×Ķ×ł× ©×ŀ×Ķ
Ġo ver
×ķ×ķ×Ĳ× ŀ×Ļ
ab y
Ġ×ł×ķ×ª× ł×ª
' re
b ody
o ll
ĺ ×ķ×¨
Ġ×ľ× ¡×Ļ×
Ġ×ĳ× ¡×ķ×
Ġ×ĳ× ¤×ķ×
Ġ×©× ¢×ķ×ĵ
ĸ×Ķ ×¨
Ġ×ľ×Ļ ×Ļ
¢×ķ× ¨
Ġ×¡× Ĳ×ĳ
ł×ķ× §
Ġ×ŀ×Ķ× ¨×
Ġ×©×Ļ× ©×
Ġ×ľ×¢× ŀ×ķ×ĵ
Ġ×ŀ×¢× ĳ×¨
Ġ×Ķ×ĵ× ľ×ª
Ġ×ŀ×ª×Ļ ×Ļ×
Ġ×Ľ×ŀ×ķ× ļ
Ġ×Ķ×¨×Ĵ× ľ×Ļ×Ļ×Ŀ
Ġ×ĳ×ŀ×©× Ĺ×§
i re
Ġ×Ķ ×ķ×ķ×
¨× Ĵ×Ł
Ġ×ŀ× ¢×Ļ×£
Ġ×©× ŀ×ķ×ł×Ķ
ł× ĳ
§× ľ×
§× ľ×Ļ×Ŀ
Ġ×¢× ł×§
Ġ×ľ ×Ļ×Ŀ
¦× ª×Ļ
¦× ĳ×Ļ×Ŀ
ĺ× ¤×ª
Ġ×Ĺ×ķ× Ĵ×Ĵ
Ġ×©×ķ× ¨×
ł×Ĵ ×ķ×
§×Ļ× ¢
Ġ×Ķ×¤× ļ
Ġ×ŀ×Ĳ× ŀ×Ĳ
×Ļ×ª ×ķ×Ł
Ġl ong
×ŀ× ©×
Ġ×¡×Ļ× ŀ×Ł
ÙĪ Ùħ
Ġ×¤×Ļ× ľ×Ķ
Ġ×ľ×¦× ĵ
Ġ×ŀ×ª ×Ļ×Ŀ
ĵ×Ĳ× Ĵ
Ġ×¢ ×Ļ×Ł
Ġ×ł×¡× Ĵ×¨
Ġ×Ķ×ĵ×ĳ×¨ ×Ļ×Ŀ
ľ× Ĵ
Ġ×Ĳ× ¤×¡×Ļ×§
Ġ×ľ× ¡×ķ×
¨× ĳ×ķ×ª
Ġ×ŀ× ĵ×ľ×Ļ×§
Ġ×©× Ľ×ķ×
Ġ×¢× ĵ×Ł
Ġ×¨× Ĵ
Ġt ell
ľ×ķ× Ĺ
Ġ×ŀ×Ĺ× Ľ×Ļ×Ŀ
Ġ×©×ŀ× ¢×
Ġ×©×Ĳ× ľ×Ķ
Ġ×ľ×Ĺ× ¤×©
Ġ×ŀ×ª×ķ× §×Ķ
Ĳ×ł× ¦
Ġ×©×¦× ¨×Ļ×ļ
Ġ×ľ×§×¨×ķ× Ĳ
×ķ ×ķ×Ĳ×Ļ
×Ļ× ĸ
×Ķ ×ķ
ŀ× Ĺ
ĳ× Ĺ
ĳ× ¨×ł×ķ
Ġ×ĳ× Ĳ×ª
Ġ×ķ ×Ļ×ķ×
Ĵ× ©×ª×Ļ
Ġ×¤× ł×Ļ×Ŀ
Ġ×¤ ×Ļ×©×Ļ
Ġ×¡× ľ×Ļ×Ĺ×Ķ
Ġ×§×ķ× ¨×
Ġ×Ķ×Ĳ× Ŀ
Ġ×ŀ×Ļ× ľ×Ļ×ķ×Ł
Ġ×©×Ĳ× £
ÙĪ ÙĦ
ĠS e
Ġ×ĳ×ł× Ĳ×ĵ×Ŀ
Ġ×¦×ķ×¢× §×Ļ×Ŀ
Ġ×Ĺ×¨×ķ× ĸ
Ġ×ŀ×ĸ×ķ× ŀ×Ł
Ġ×Ļ×¦× Ĳ×ª×Ļ
i es
× ¤×Ļ×
Ġ×Ķ× ¢
¨× ĳ×Ļ×Ŀ
§× ©×Ķ
Ĵ× ĵ×Ļ×Ŀ
Ġ×ª× ĵ×ĳ×¨
Ġ×¢×ķ× ĸ×ĳ
ŀ×ķ× ĵ×ĵ
×Ļ×© ×Ļ×Ŀ
Ġ×ŀ×Ķ× Ŀ
Ġw anna
Ġ×ľ×©× ¨×ķ×£
Ġ×ĺ×ķ×ĳ ×ķ×ª
Ġ×ľ×¢× ĳ×ķ×ĵ
ÙĪ ÙĨ
Ġ×ª×§× ©×Ļ×
ar d
Ġ×Ĳ×¦× ľ
ĠH e
ĠL et
ŀ× ¨×ª×Ļ
ĳ× ĵ×ª×Ļ
Ġ×Ķ ×ķ×ķ
Ġ×ŀ× ľ×Ĺ×ŀ×Ķ
§× ł×ķ
Ġ×ľ×Ļ ×Ļ×
Ġ×ł× ĳ×Ļ×Ĳ
Ġ×¤× ľ×Ļ×
Ĺ×ķ× §×Ļ×Ŀ
Ġ×¨×ķ× ¦×Ĺ
Ġ×Ľ×ķ× ľ×ļ
Ġ×ŀ×¡× ĳ×Ļ×ĳ
Ĳ×ķ× ł×ĵ
Ġ×ľ×©× ł×ķ×ª
Ġ×Ľ×©× ŀ×
Ġ×§ ×ķ
Ġ×Ĳ×ķ×Ķ× ĳ×Ļ×Ŀ
×¤× Ŀ
Ġ×ª×¨×§× ĵ×Ļ
i le
× ĳ×ķ×
Ġ×ĳ× ¢×ķ×ĵ
Ġ×¢× ¡×ķ×
Ġ×ķ× ¢×Ŀ
¨×ķ× ¡
Ġ×¡× ŀ×Ļ×Ŀ
Ġ×¡× ¨×ĺ×Ļ×Ŀ
Ġ×ľ×Ķ× ¡×ª×
Ġ×ĳ ×Ļ×Ŀ
Ġ×ĵ ×ķ
Ġ×ŀ×ª× ľ×
he re
Ġm ore
Ġ×¦× ĳ×¢
Ġ×§×ķ× ŀ×
Ġ×©×ŀ× ¢×ª
×ķ×ķ ×Ļ×Ķ
Ġ×©×Ķ× ŀ×
¡×ĺ ×Ļ
Ġ×ª×ķ× Ľ×ľ
Ġ×ĵ×Ļ× ¡
Ġ×ľ×¨× Ĵ×¢
Ġ×ĳ×¢ ×Ļ×ķ×ª
¡×¤× §×ĺ
Ġ×Ķ×¢×Ļ× §×¨
n e
Ñ ĥ
× ľ×ķ×
ĺ ×Ļ×§
Ġ×Ķ× ľ×ļ
Ġ×©× ĳ×ķ×
ĵ× ŀ×
Ġ×Ĺ× ĵ
Ġ×Ĳ×ķ× ª×
ĳ×ľ ×ķ
Ġ×©×ķ× ĺ
Ġ×ł×ķ× ©×Ŀ
Ġ×Ķ×©× ł×Ļ
Ġ×©×ŀ× ª×Ļ
Ġ×ŀ×ŀ× ©×Ļ×
Ġ×ķ×ŀ× Ĺ×
Ġ×©×Ĳ× ª×Ŀ
Ġ×ľ×Ĺ× ľ×ķ×Ŀ
Ġ×ª×©× ¢
Ġ×ł×Ļ× ª×Ł
ł×§ ×Ļ×Ļ×§
Ġ×ł×ª× ª×Ļ
Ĺ×Ļ× ľ×Ķ
Ġ×©×§× ¨×Ļ×Ŀ
Ġ×¤×¢× ŀ×Ļ×Ļ×Ŀ
× ľ×ĳ
Ġ×Ĳ× ľ×ļ
Ġ×Ĳ× ľ×ĳ×ķ×Ŀ
©× ¨×
Ġ×Ķ× ¢×Ŀ
Ġ×ŀ× ĵ
Ġ×ĳ× ª×Ĺ×
¤× ¡×ª
ĵ× Ĺ
¦× Ł
Ġ×¤× ¨
Ġ×§× ľ×Ļ×
Ĺ×ķ× £
Ġ×ĺ ×Ķ
ł×ķ× Ĺ
Ġ×Ľ×ķ× ¡×Ļ×ª
Ġ×ĳ×Ĳ× ¨×¥
Ġd ay
Ġ×©×ŀ× Ĳ×ľ
an ce
¡×ĺ ×Ļ×
¡×ĺ ×Ļ×§
ľ×Ĳ× Ĵ×Ł
Ġ×§×Ļ× ¥
op le
ĠR e
Ġ×ł×©×Ĳ× ¨×ª×Ļ
Ġ×Ľ×ª× ĳ×ª×Ļ
Ġ×ľ×¢×ķ× £
¨×ĺ×Ļ× ¡
Ñ ĭ
× ł×Ļ
× ĳ×Ĳ
©× ¨×ª
Ġ×ľ× Ĺ
Ġ×ľ× ©×ķ×
Ġ×ľ× ŀ×ķ×ª
Ġ×ľ× ¨×Ĳ×©
Ġ×ĳ× ¢×ķ×
Ġ×ª× Ĺ×ķ×
¦× ĵ
Ġ×Ĳ×ľ ×Ļ×ļ
Ġ×ĳ×ķ× ¨×Ĺ
×Ļ×Ĳ ×ķ
Ġm ake
Ġthe m
Ġ×ľ×¤× ª×ķ×Ĺ
×Ĳ ×Ķ×ĳ×Ķ
Ġ×ľ×¢× ¦×
Ġ×ĳ×¨× Ĵ×¢
Ġ×ŀ×¦× ĵ
ĠÙĪ Ø§ÙĦ
Ġ×ł×¢× ©×Ķ
Ġ×ĳ×ľ× ¢×ĵ
Ġ×ŀ×¡×ķ× Ľ×Ł
Ġ×©×¢×ķ× ©×Ķ
Ġ×Ķ×Ĺ×ĳ×¨ ×Ķ
Ġ×Ķ×ľ×Ĳ ×Ķ
' ll
o ve
u p
ľ× Ľ×Ķ
ĳ× ¢×
Ġ×Ĳ× ª×Ł
Ľ× ľ×ª
Ġ×ĳ× ¤×Ķ
Ĺ× ĳ×§
Ġ×Ľ× Ĺ
Ġ×¢× ĳ×¨×ª×Ļ
Ġ×ķ× ł×Ļ×
¦× ĺ×
Ġ×Ľ×ķ× ľ×Ľ×Ŀ
Ġ×ĵ ×ķ×ĳ×Ļ
¤×ķ× ł×Ļ×Ŀ
Ġw ill
Ġ×Ķ×Ĳ× ŀ×
Ġ×©×Ķ× ª×
Ġ×ľ×ĳ× Ľ×ķ×ª
Ġc on
Ġ×§ ×Ļ×ľ×ķ
Ġ×ľ×Ľ× Ł
Ġ×Ķ×¡× ¤×
Ġ×Ķ×¡× Ĵ×ķ×ľ
ĠØ§ ÙĨØ§
ª×Ĺ× ľ×Ķ
Ġ×©×Ľ× ĳ×¨
ĠÙĦ Ø§
Ġ2 0
Ġ×¨×ķ×§× ĵ
Ġ or
ĵ ×Ļ×Ļ×Ł
×Ķ ×Ļ×Ĳ
Ľ× ¨×ª
Ġ×ŀ× Ĳ×ķ×ª
¤× ©×¨
Ġ×¤× ¡
×Ļ×ĵ ×ķ
Ġ×Ĵ× ĸ
Ġ×ĵ× ľ×ª
Ġa b
ª×ķ× ł×Ļ×Ŀ
Ġs a
Ġ×¦× ¢×Ļ×¨
Ġ×ľ×ĳ× ł×ķ×ª
Ġ×Ĳ×¨× ¥
Ġst ill
Ġ×ł×Ĺ× ŀ×ĵ
¦×ľ× Ĺ×Ķ
Ġ×ł×ķ×¤× ľ×Ļ×Ŀ
u e
×ķ× ł×
×Ļ× Ĵ
Ġ×Ķ ×Ļ×ķ×
¨× Ľ×Ļ×Ŀ
ª× ł×Ķ
Ġ×ĳ× ĵ×Ŀ
Ĺ× ¡
§× Ĳ
Ġ×ª× ©×Ļ×Ŀ
Ġ×ł× ¨×Ļ×Ŀ
ĺ× ĳ
Ġ×¨× ¦×Ļ×
Ġ×¨× Ĺ×ķ×ĳ
Ġ×¤× ľ×Ĳ×
Ġ×Ĺ× ĺ×
Ġ×Ķ×ŀ× ¦×Ļ×Ĳ×ķ×ª
Ġ×ĳ×ķ× ŀ×
ł×Ļ× ¡×Ķ
Ġ×ŀ×©× ľ×Ŀ
Ġ- ,
Ġ×©×ŀ× ¢
ĵ×ķ× §
ľ×ĳ ×Ļ
Ġ×ľ×Ļ× ¤×ķ×ľ
Ġ×Ĳ×Ĺ×¨ ×Ļ×Ļ
Ġ×Ķ×ĳ×ķ× §×¨
Ġ×¨×ķ×§× ĵ×ª
Ġ×ĳ×ŀ×Ļ× ĺ×Ķ
Ġ×Ķ×¡×Ļ× ¤×ķ×¨
Ġ×ŀ×ľ×ķ× Ľ×
Ĳ× ŀ×Ļ
ľ× ŀ×Ļ×Ŀ
Ġ×¢× ©×ķ
ĵ× ¨×ļ
Ĵ× ¨×ª
Ġ×ķ× Ĵ
Ġ×ķ× ĳ×ķ×
Ġ×Ľ×Ļ ×ķ×ķ×Ł
Ġa r
Ġ×Ĺ×ķ× ¥
Ġ×Ĺ×ķ× ŀ×ķ×¡
Ġ×¤×ķ× ¡×Ļ
Ġ×©×Ĳ× ł×Ĺ×ł×ķ
Ġ×ŀ×ĳ× ¤×ł×Ļ×Ŀ
Ġ×ķ×ľ× ¤×¢×ŀ×Ļ×Ŀ
ĠT o
Ġ×©×ł× ©×
Ġ×ĳ×Ķ× Ŀ
ac h
Ġ×ķ×¢×ĵ ×Ļ×Ļ×Ł
Ġi f
g e
g al
¦ ×ķ×Ł
ĳ× ĵ×Ķ
Ġ×©× ĳ×ķ×¨
ł× ¡×ĺ×
Ġ×ķ× §×ķ×
¨×ķ× ĺ×ķ
ĺ× ĺ
Ġ×Ĵ× Ł
Ġ×ľ×Ķ× ¨×Ļ×Ŀ
in k
ÙĬ Øª
ľ×ķ× Ĵ
Ġ×ł×©× §
Ø± Ø¨
×ķ×Ļ ×Ļ×Ŀ
Ġ×ŀ×Ĵ× ł×Ļ×ĳ
Ġ×§×ľ ×Ļ×§
os e
¨×Ĵ×Ļ× ľ×Ķ
Ð¸ Ð
o ot
× Ł
Ġ our
×ķ ×Ļ×Ķ
ľ× ¤×ķ×Ł
Ġ×ĳ× ©×Ļ×¨
Ĺ× ľ
ł×Ļ ×Ļ
ĺ× Ĳ×
Ġ×¨× Ĵ×ķ×¢
Ġ×§× ©×¨
Ġ×ŀ×ķ× ª×
Ġ×ŀ×ķ× ĵ×Ķ
Ĺ×Ļ ×Ļ
ŀ×ķ× ł×ķ×ª
Ġ×Ķ×ĳ× ĺ×
Ġ×©×Ļ× ŀ×Ļ
Ġ×ł×Ļ× ¦×
ĠB e
Ġ×ķ×ł× ©×
Ġ×Ļ×¢× ł×Ļ
Ġ×ĳ×Ľ×Ļ× ¡
Ġpe ople
Ġ× ¢×Ļ×¨
ŀ× ĵ×Ķ
ĳ× ł×Ļ
Ġ×Ķ ×Ļ
¢× ¨×Ķ
ª× ª
Ġ×©× ¢×Ķ
Ġ×Ľ× Ĳ×ĳ
Ġ×Ľ× ª×ķ×ĳ
Ġ×¢× ©
¡× §×Ļ×Ŀ
Ġ×ª× ª×Ĺ×Ļ×ľ
Ġ×Ļ× ¡×
Ġ×¨× Ĳ
Ġ×¡× ª×
Ġ×¡× §×¡
Ġ×Ķ×ŀ× ŀ×
Ġ×Ķ×ŀ× ¨×
âĢ ¦
×ķ×ķ× Ĳ×¨
ou s
Ġ×¦× ľ
Ġ×Ķ×©× Ĳ×
Ġ×ķ×Ĳ× £
Ġ×ĵ×ķ× ĵ×ķ
Ġ×Ķ×Ļ× Ĺ×Ļ×ĵ
Ġ×ĳ×Ĺ× ĸ×¨×Ķ
ĠD on
Ġ×Ĺ×Ļ× ¤×
Ġ×ľ×ľ× ŀ×ķ×ĵ
Ġfe el
Ġ×ľ×ķ×§× ¥
Ġ×ł×ķ×¨×ŀ× ľ×Ļ
n ing
¡ ×ķ×¨
Ġ× §×ķ×Ŀ
×ķ× ĺ
Ġ×©× ¨×Ļ×Ŀ
§× ł×Ļ×Ŀ
Ġ×¢× ĺ
Ġ×ķ× ¨×ķ×
Ġ×ª× ¨×Ļ×Ŀ
×ķ×ķ× ł×Ļ×Ŀ
×ķ×ķ× Ĳ×ľ×Ķ
re s
ĵ×Ļ× £
Ġ×¡×Ļ× Ĵ×¨
Ġ×ł×Ļ× ¡×Ļ×ª×Ļ
Ġ×Ķ×Ķ ×ķ×Ĳ
Ġ×ľ×Ĵ× ¢×ª
Ġ×ľ×Ķ×Ļ× ©×Ĳ×¨
ill ion
ĠÙĦ ÙĬ
Ġne ed
×ŀ×Ļ× §×¨×ķ×¤×ķ×Ł
§ ×ķ×¨
× ĵ×Ĳ×
á Ĭ
ĳ× ¨×
Ġ×Ĳ× ŀ×Ł
©× ĺ×
Ġ×ľ× ľ×ĳ
Ġ×ŀ× ľ×Ĳ×
Ġ×©× Ĵ×Ŀ
ł× Ĳ×Ķ
Ĺ× ¨×Ļ
¤× ¢
§× ¡×Ļ×ŀ×ķ×Ŀ
Ġ×¨× Ĺ×
Ġ×©×ľ ×Ķ×Ŀ
ÙĦ Ùī
Ġ×¤×ķ× ľ×Ļ×
Ġ×Ľ×©× Ĳ×ª×Ķ
Ġ×Ĳ×Ķ ×Ķ
×ĳ× Ĳ×
Ġ×Ķ×Ķ ×ķ×¨×Ļ×Ŀ
Ġ×ŀ×Ľ×Ļ×¨ ×Ļ×Ŀ
Ġ×ĳ×Ķ ×Ļ×Ļ
Ġ×ŀ×¡×ķ× Ĵ×ľ
e ar
á ī
ł ×ķ×¨
ľ× ĺ×Ķ
Ġ×ľ× ©×Ļ×
Ġ×Ķ× ĵ×ķ×¨
Ġ×Ķ× ¡×ĺ×Ļ×Ļ×ľ
Ġ×ŀ× ĺ×¨
Ġ×©× ª
¤× ľ×Ķ
Ġ×ª× ¨×Ĳ×ķ
Ġ×ł× ©
Ġ×ł× ¤×©
ĺ× ¨×Ļ×
Ġ×¨× ¦×Ĺ
Ġ×¤× ª×
Ġ×Ĺ× ľ×Ĳ×¡
Ø§ ÙĬ
Ġ×ĳ×ķ× ¢×ĺ
ŀ×¨ ×ķ
Ġ×¦× ¨×ķ×ª
Ġ×ķ×Ĳ× ł×Ĺ×ł×ķ
Ġ×Ķ×¨× ¦×¤×Ķ
×ŀ× ¢×
¤×Ļ× ĺ×Ļ
Ĺ×ķ×¨ ×ķ×ª
Ġ×Ķ×¢× ĳ×¨
Ġu s
Ġ×ŀ×ķ×©× ļ
Ġ×ŀ×¤×ķ× ¦×¥
¢×ķ ×Ļ×ķ×ª
Ġ×Ķ×ľ×Ľ× ª×Ļ
t ing
Ġ×ķ× ĵ×
Ġ×Ļ× ¨×
¢×ķ× §
Ġ×Ĳ×Ļ× ĸ×ķ
Ġ×Ĺ× ŀ×ķ×
Ġ×Ĵ× ĳ×¨×ª
Ġ×Ļ×ķ× ¨×
Ġ×ŀ×ķ× ©×ķ×Ł
Ġ×ĳ×ķ× §×¨
Ġ×Ĺ×ķ× ©×ĳ×ª
ŀ×Ļ ×ķ×Ł
Ġ×©×ķ× Ĳ×ľ×Ļ×Ŀ
Ġ×ŀ×©× Ŀ
Ġ×ĳ×Ĳ× ¨×
Ġ×ĳ×Ĳ× ¡×Ļ×Ŀ
on na
Ġthe n
©×ĳ ×ķ×¨
ĵ×ĳ×¨ ×Ļ×Ŀ
Ġ×ª×¢× ĸ×
Ġ×Ķ×Ĺ×ķ× ¦×Ķ
ĵ×Ļ×ķ× ĺ
Ġ×ĳ×¨×ķ× ļ
Ġ×Ĳ×ķ×Ľ×ľ ×Ļ×Ŀ
×ŀ ×Ļ×Ļ×
Ġ2 00
Ġ×ķ×Ĳ×ķ× ľ×Ļ
! )
i b
i f
Ġ 9
¨× ¨×
Ġ×ĳ× ľ×ª×Ļ
ł× Ĵ×Ł
Ġ×¢× ĳ×ĵ
ĳ×Ļ× ¢
¨×ķ× ł×Ķ
Ġ×ł× ¦×Ĺ
Ġ×ĳ ×ķ×¨×Ļ×ĵ×Ļ×Ŀ
Ġ×ĳ×ķ× ĳ×Ķ
Ġ×ĳ×ķ× ¢×¨
Ġ×ŀ×ª× ĳ×
ľ×Ļ× ļ
ª×ķ× ĳ×
¤×ķ× ¨×
Ġ×ĸ× ĸ
Ġ×ŀ×Ĺ× ©×ĳ×ķ×ª
Ġ×Ķ×ĳ× Ĳ×
Ġ×Ķ×¤× Ľ×ķ
ĵ×ķ× §×¡
Ġc om
¡×ĺ ×Ļ×Ŀ
Ġ"" ?
Ġ×©×Ĳ× Ľ×ĺ×Ķ
Ġ×Ĳ×ŀ× ©×Ļ×ļ
Ġ×Ķ×¡× ¨×ĺ
Ø¨ Ø´
ur t
Ġ×ª×¨×Ļ× ŀ×Ļ
Ġne ver
©×¨×Ĳ× ľ
t a
Ä ±
Ġ×©× Ł
Ġ×©× §×Ļ×
ł× ĺ×Ķ
Ĵ× ©×Ļ×Ŀ
ĳ×Ļ× ł×Ķ
Ġ×ł× ¦×
Ġ×Ĺ× ŀ
Ġ×¤ ×Ļ×Ļ×
ľ×Ĳ ×Ļ×Ŀ
ĳ×ľ ×ķ×ª
Ġ×ľ×Ķ× Ĳ×
Ġ×ľ×Ķ× ¢×
Ġ×¦× ľ×
©×ķ× ł×Ķ
Ġ×Ķ×ķ× ľ×Ľ×ª
Ġ×Ķ×ĳ× ł×
Ġ×ĳ×ŀ× ¡×Ļ×ĳ×ª
Ġ×©×ŀ× Ĺ
Ġ×ł×©× Ĳ×Ļ×¨
ĠI n
Ġ×ŀ×¢× ĳ×Ļ×¨
Ġ×Ķ×Ĺ× ľ×ķ×ŀ×ķ×ª
ĠA ll
Ġ×ĳ×Ĵ× ľ×
Ġ×ĳ×Ĵ× ĵ×ķ×ľ
Ġ×Ĳ×ľ×Ļ ×ķ
Ġ×ª×ª× §×
Ġ×ĳ×ĳ× ł×§
×ķ×ķ×Ĳ× Ĵ×Ķ
Ġ×¡×Ĳ× ĳ×ľ×Ļ×ŀ×Ļ×ł×ľ
Ġ×ľ×Ķ×ª×¢× ¡×§
Ġ×ŀ×ľ×ķ×Ľ× ľ×ļ
ŀ× ĵ×ª
Ľ× ł×Ļ×¡
ł× ĺ×Ļ×Ŀ
Ġ×Ľ× ĸ×Ĳ×ª
§× Ŀ
Ġ×¢× §×
Ġ×ľ ×ķ×ķ×ª×¨
Ġ×Ļ× ĵ×¢×ª
Ġ×ł× ª×Ł
Ġ×¢×ķ× ĸ×¨
Ġ×Ĳ×ķ× ¨×ĺ×Ĵ×Ķ
Ġ×¤ ×Ļ×Ļ×§
Ġ×¨×ķ× ĵ×
Ġ×ľ×Ķ× ¤×¡×Ļ×§
Ġ×Ĺ×ķ× ŀ×¨
Ġ×Ĺ×ķ× ĸ×¨×Ļ×Ŀ
Ġ×ł×ķ× ¡×
Ġ×Ķ×Ĳ× ł×©×Ļ×Ŀ
Ġc r
Ġ×ŀ×¢× ľ×Ķ
Ġ×Ĺ ×ķ×¨
Ġ×Ļ×Ķ ×Ļ×ķ
ŀ×ķ ×ķ×ª
Ġ×ŀ×¤× Ĺ×Ļ×ĵ
Ġ×ĳ×§× ĳ×ķ×§
Ġ×Ĳ×¦× ĳ×¢
Ġ×©×ľ× ŀ×Ķ
Ġ×Ķ×Ľ×ķ× Ĺ
o od
× ª×ķ×
ĸ ×Ļ×Ł
©× ©
Ġ×Ķ× ĺ
Ġ×Ķ× ª×Ļ×Ľ×ķ×Ł
Ġ×ĳ× ľ×Ķ
Ġ×©× Ĵ×ĳ
Ġ×Ļ× ĵ×¢
Ġ×ł× ľ×Ĺ×
ĳ×¨ ×Ļ×
Ġ×¡× ĳ×
Ġ×ľ×Ķ× ĸ×
ł×Ĵ ×ķ
ľ×ķ× £
Ġb ad
Ġ×ŀ×Ĳ× ĵ×Ĳ×¤×
Ġ×Ķ×Ĺ× ĵ×¨
Ġ×Ķ×§× ¦×Ķ
Ġ×¦×¨×Ļ× Ľ×Ļ×Ŀ
ĸ×ķ× ł×Ķ
×©× Ŀ
Ġ×Ĳ×¦× ľ×ļ
Ġk ill
Ġ×ĳ×ª× ľ
Ġhe re
Ġ×¢×ĳ×¨ ×ķ
Ġ×ŀ×Ĺ×ķ× ĳ×¨
ĠÙĥÙĦ Ø¨Ø´
ĠĠĠĠĠĠĠĠ ĠĠĠĠĠĠĠĠ
× ¦×
× ¢×ķ×
á ĭ
×Ļ ×ķ×Ł
ľ× ľ×Ļ×Ŀ
Ġ×ľ× Ľ×ķ×
Ľ× Ĺ×Ļ×Ŀ
Ġ×ŀ× ¨×Ĳ×Ķ
Ġ×ª× ł×¡×Ķ
Ġ×Ļ× ¨
Ġ×Ļ× ŀ×
Ġ×© ×Ļ
ĳ×Ļ× ĳ×Ķ
Ġ×ł× Ĺ
Ľ×ķ× Ķ
Ġt alk
Ġ×¨×ķ× ĵ×£
Ġ×Ľ×ķ× ľ×ķ
¨×Ĳ ×ķ×
Ġ×ĳ×Ļ× ¨×Ķ
ĠØ ¥
Ġ×Ķ×Ĳ× ĵ×ŀ×Ķ
Ġ×©×ŀ× ©
it e
Ġ×§ ×ķ×ķ×Ĳ×ŀ×Ļ
Ġ×ľ×Ķ×ª× ¤×
Ġ×Ĳ×¦× ľ×ł×ķ
Ġ×ª×Ĺ× ĸ×Ļ×§
ÙĬÙĨ ÙĬ
Ġ×Ĳ×¨×ķ× Ľ×Ķ
Ġ×¤×ľ×ķ× ¡
u re
× ĺ×Ĳ
Ľ ×Ļ×ª×Ķ
ĳ× ł×Ļ×Ŀ
Ġ×Ĳ× ľ×Ĳ
Ġ×Ķ× ª
ĵ× Ĳ
Ġ×ķ× Ĵ×
Ġ×Ļ× ¦×Ļ×
Ġ×¨× Ĵ×ľ
Ġ×Ĵ× ľ×
Ġ×Ĵ× Ĳ×ł×Ĵ
×Ļ×§ ×ķ×Ŀ
Ġ×§×ķ× ĵ×Ŀ
ŀ×Ļ× ł×Ķ
Ġ×ľ×ŀ× Ĺ×
ĵ×ķ× ĵ
re am
Ġ×ľ×Ĳ× Ľ×ķ×ľ
Ġ×Ĺ ×Ļ×Ļ×ľ
×ŀ× Ĺ×
Ġg r
Ġ×§ ×Ļ×Ļ×Ŀ
Ġ×ľ×ķ× ĳ×©
ĠS t
Ġ×ĳ×¢× ł×Ļ×Ļ×Ł
Ġ×Ķ×ĵ× £
ĠØ¨ Ø³
Ġ×©×ĳ× §
ª×Ĺ× ª×Ļ
Ġ×Ķ×¤×ķ× ļ
ĠTh at
Ġ×©×§ ×ķ×¨×Ķ
Ġbet ter
o om
w e
Ķ ×Ļ
ŀ× ĺ×Ļ
Ġ×©× ł×Ļ×
Ġ×©× ĺ×¨×ķ×ª
Ġ×ł× ĳ×
Ġ×ĸ×Ķ ×ķ
Ġ×§× ł×Ļ×ª×Ļ
Ġ×Ĵ× ©×Ŀ
Ġ×ĵ× ŀ×¢×ķ×ª
ĠØ º
Ġs c
×ķ×ķ ×Ļ×Ł
Ġ×ŀ×Ĳ× ĳ×ĵ
¨×§ ×Ļ×Ŀ
Ġ×ĳ×¨× ĵ×Ļ×ķ
Ġh ow
Ġ×ľ×¡× ¤×¨
Ġ×ª×¢× ĳ×Ļ×¨
Ġ×Ĺ×ĸ× ¨×ª×Ļ
Ġli fe
Ġ×Ļ×¢× ĸ×ķ×¨
Ġ×¨×ķ×§× ĵ×Ļ×Ŀ
×Ĳ×Ļ× ĸ×Ķ
Ġ×ł×Ļ×Ļ× ¡
Ġ×¢×¡×ķ× §
Ľ×ķ×Ķ ×ķ×ľ
a f
× ¢×ķ×ĵ
Ġ Ñģ
×ķ ×Ļ×ķ×ª
×ķ× ¤×
ŀ× ¨×
ĳ× ©×ª
Ġ×Ĳ× ĵ×ķ×
Ġ×Ĳ× Ĺ×ķ×ª
Ġ×Ĳ× ĸ×¨×Ĺ
Ġ×ĳ× ¤×Ļ×
Ġ×©× ¨×Ļ×
¤× Ĳ×
Ġ×¢× ¡×§
Ġ×Ĺ× ª×Ļ×
Ø§ ØŃ
Ġ×©×ķ× ľ×£
ŀ×¨ ×Ļ
ľ×ķ× §
Ġ×ŀ×¡× ĺ×ķ×ľ
nd er
Ġ×Ķ×Ļ× ľ×ĵ×Ļ×Ŀ
Ġ×©×Ĳ× ľ×ķ×ª
Ġh and
Ġ×ŀ×¨×Ĵ×Ļ×© ×Ļ×Ŀ
Ġ×ĳ×Ĵ× ĵ×Ļ×Ŀ
Ø³ Ùħ
Ġ×Ļ×¢× ĳ×ķ×¨
Ġ×Ĵ×Ļ× ĳ×ķ×¨
Ġ×©×¨× ¦×Ļ×ª×Ļ
Ġsh ow
Ġ×ŀ×Ļ×Ļ× ¦×Ĵ
Ġ×ŀ×Ĳ×Ĺ×ķ×¨ ×Ļ
Ġag ain
? !
ľ× ŀ×ª
Ġ×ľ× ¢
Ġ×Ķ× ĸ×ķ×
Ľ× ¨×Ķ
ª× ĳ×Ļ×Ŀ
Ġ×©× ĸ×
Ġ×© ×ķ×¨×ķ×ª
ĺ× Ĵ
Ġ×¨× ¦×Ļ×ª
Ġ×¤× ¨×Ĺ
Ġ×Ľ×ķ× ¡×
Ġ×ĵ ×Ļ×¨×Ķ
Ġ×Ĺ×ķ× ĸ×¨×ª
Ġ×©×ķ× ł×Ķ
Ġ×ĸ× ¨×ķ×§
Ġ×ŀ×Ĺ× ľ×Ļ×£
Ġ×ĳ×ŀ× ¦×Ļ×Ĳ×ķ×ª
Ġ×©×Ļ× Ĺ×
¤×¡ ×Ļ×Ŀ
Ġ×ĵ×ķ× ľ×¨
Ġ×Ľ×©× Ĳ×
Ġ×Ķ×Ļ× Ĺ
Ġ×ľ×§× ¤×ķ×¥
ĠØ§ÙĦ ØŃ
Ġ×ĳ×Ĵ× ĵ
Ġu n
Ġ×ł×¨× ĵ×Ŀ
Ġ×ĵ×Ĳ× ĳ×ľ
ĠJ ah
Ġ×ª×ĳ× Ľ×ķ
Ġ×Ķ×ŀ×Ĺ× ©×ĳ×ķ×ª
Ġ×ł×¨×Ĳ ×Ļ×Ŀ
Ġ×Ķ×Ĳ×¨× ĵ×§×ķ×¨
× ĳ×Ļ×ĺ
©× ł×
©× ĳ×Ķ
Ġ×ľ× ¨×Ļ×
Ġ×Ķ× §×Ļ×ł×Ĵ
Ġ×Ķ× §×ķ×ľ
ª× §×
ł× ¢
Ġ×¢× ¨×ķ×¥
ĵ× ļ
Ġ×Ļ× ¨×ķ×©×ľ×Ļ×Ŀ
¨×ķ× ŀ×
Ġ×ł× ¡×Ļ×
Ġ×ł× ĵ×ĳ×¨
ĸ× §
Ġ×ª ×Ļ×§
Ġ×Ļ×ķ× ¤×Ļ
Ġ×ŀ×ķ× ª×¨
ĠØ ²
Ġs m
Ġ×Ķ×©× ł×Ķ
Ġ×ŀ×Ĺ× ĸ×Ļ×¨
Ġ×Ķ×Ĳ× ¨×¥
Ġ×ĺ× ľ
Ġ×ĺ× ¨×
Ġ×ĳ×ŀ× ¦×ĳ
Ĳ×ķ× Ĵ
re t
¨×Ĵ ×Ļ×ľ
¡×ĺ ×ķ×¨×Ļ×Ķ
Ġ×Ĵ×ķ× ¨×Ŀ
ľ×Ľ× ľ×ļ
Ġ×ĵ×Ļ× ĳ×ķ×¨
Ġ×©×ł× ©×Ĳ×¨
Ùĥ ÙĦ
×¢× ©×¨
Ġ×Ķ×ª×Ĺ× ľ×ª×Ļ
Ġ×ŀ×ª×¤× ľ×ľ
ĠE very
Ġ×¢×ĸ× ĳ×ķ
one y
ap p
Ġ×¤×¨×ķ× ĵ×ķ×§×¡
× ¨×§
Ø Ł
ľ× ĳ×ľ
Ġ×Ĳ× ĳ×ķ×ĵ
¢× Ĵ×¢
Ġ×ŀ× ĵ×Ķ
Ġ×ĳ× ĺ×Ļ×
Ġ×ľ ×Ļ×ľ×ķ×ª
Ġ×ķ ×Ļ
Ġ×Ļ ×Ķ×
ĵ× ¨×Ļ×Ŀ
Ġ×ª× ¨×Ĵ×Ļ×©
Ġ×Ļ× §×
Ġ×Ļ× ¨×ķ×§
¨×ķ× ¨
Ġ×ł× ľ×Ĺ×Ŀ
ĳ×¨ ×ķ
Ġ×¨× ¦×Ļ×Ŀ
Ľ×ķ× ł×Ļ×ª
ĳ×ķ× ¡
Ġ×¤× ¨×Ĳ
Ġ×§× Ĺ×Ļ
Ġ×Ĺ× Ľ×Ŀ
×Ļ×ĵ ×Ļ×Ļ×Ŀ
Ġ×ŀ×Ķ ×Ļ×
¨×Ļ× ĸ
Ġ×©×ķ× Ľ×Ĺ
Ġ×Ĳ×ķ ×ķ×ķ
Ġ×ĺ× Ĳ×
Ġ×ľ×©× Ľ×ķ×Ĺ
ĠI f
Ġy u
Ġ×ľ×ķ× ŀ×ĵ
ÙĪ Ø±
Ġ×ĳ×¢× ¦×
¦×Ļ× ł×Ķ
Ġ×ŀ×¤× ľ×
×Ļ×ķ× ł×Ļ
Ġ×ŀ×¦× ľ×Ļ×Ĺ
ke d
Ġ×ľ×¡× ŀ×ķ×ļ
Ùĥ ÙĬ
Ġ×ķ×Ķ ×ķ×
×ª× Ĺ×ª
Ġ×ĳ×ĳ× §×©×Ķ
Ġ×¤×¨× ©
ĠÐ ¿
Ġof f
Ġ×ŀ×Ĺ×¤× ©×ª
Ġ×Ĳ×ĵ ×ķ×Ŀ
Ġ×ľ×§ ×Ļ×¨
Ġ×ĳ×Ĳ×ŀ× ¦×¢
× ¤×Ļ
× Ľ×ķ×ľ×Ŀ
Ĵ ×Ļ×¨×Ķ
ĸ ×Ļ×Ļ×Ł
Ĳ× ĸ×ľ
Ġ×Ĳ× ©×Ŀ
©× ľ×Ķ
Ġ×Ķ× ¨×Ļ
¢× ©
Ġ×ĳ× ł×Ļ×
Ġ×©× ŀ×Ļ×Ŀ
ł×Ļ ×ķ
Ĵ× ¢×ª×Ļ
Ġ×ª× ĸ×Ļ×
ĳ×Ļ× ¥
Ġ×ľ×Ķ ×ķ×¨×Ļ×ĵ
Ġ×Ĺ×ķ× ľ
ŀ×Ļ× ł×ķ
ŀ×Ļ× Ľ×Ķ
Ġ×ľ×ŀ× ¢×
Ġ×ĳ×ŀ× ĵ×Ļ×ł×Ķ
¤×¡ ×Ķ
Ġ×¡×ķ× Ľ×¨
Ġ×Ķ×ª× Ĺ×Ļ×ľ
Ġ×ĵ×ķ× Ĵ×
¤×Ļ× ľ×Ķ
ĠØ¨ Øª
Ġ×§×Ļ× ĺ×
ig g
Ġ×ĳ×ª× Ĺ×ª
Ġhe ad
Ġ×ĳ×Ľ×Ļ× £
Ġ×ŀ×Ķ×¤× Ľ×Ķ
Ġ×ł×¨×Ĳ ×Ļ×ª
Ġ×ĵ×ķ×¤× §×Ļ×Ŀ
ĸ×ĳ× ĸ
d s
× ĸ×
ľ× ĵ×
©× ł×ķ
Ġ×Ķ× ł×Ļ×
Ġ×Ķ× ¨×ķ×Ĺ
Ľ× ¨×Ļ×Ŀ
¨× §×¢
Ġ×©× ľ×Ľ×Ŀ
Ġ×Ĳ ×ķ×¨×ķ×ª
Ġ×ľ×Ĳ ×ķ×¨
×Ķ× ŀ×
Ġ×Ĺ× ©
Ġ×Ĵ× ¨×Ŀ
Ġt ake
Ġ×ĳ×ķ× ĵ×ĵ
Ġa m
Ġ×ĳ×ŀ× ¢×
¤×¡ ×Ļ×ĵ
Ġ×ĵ×ķ× Ĳ×Ĵ
Ġg onna
¦×Ļ× ¥
Ġ×ª×§× ľ×Ļ×ĺ
Ġ×ŀ×¦× ľ×
Ġ×§×Ļ× ĳ×ľ
Ġ×ĺ×Ļ× ¤×©
¤×ľ ×ķ×Ĳ×ķ
Ġ×ľ×Ĵ× ¨×ķ×Ŀ
Ġe y
Ġhe r
Ġ×ŀ×ĳ×Ļ×Ĳ ×Ļ×Ŀ
Ġ×§×Ĳ× ŀ×
Ġ×¡×ĺ× ľ×Ķ
Ġ×Ľ×ķ×¡ ×Ļ×ķ×ª
×Ĺ×ķ× ĵ×©
Ġ×ķ×ķ×Ĳ× Ĺ×ĵ
©×¨× ŀ×ķ×ĺ×Ķ
t le
× ł×ķ
× ¢×Ŀ
× ĸ×ŀ×Ł
Ľ ×Ļ×ª
ľ ×Ļ×Ķ
×ķ× ĸ×Ķ
Ġ×Ĳ× ŀ×ķ×¨
©× £
Ľ× Ĳ×ķ×Ł
Ġ×ŀ× ł×Ķ×
Ġ×ŀ× ¦×ķ
Ġ×ĳ× ¨×Ĳ×
ł× ©×ĺ
§× Ĳ×
Ġ×ķ× ĳ×Ĳ
ľ×Ļ ×Ļ×
Ġ×ł× ¤×¡×Ļ×§
¢×ķ× £
Ġ×ª ×Ķ×
Ġ×¨× ĳ×Ķ
Ġ×Ĺ× ĸ×¨
Ĺ×ķ× ¡
Ġ×¡× ĳ×Ĳ
©×Ķ ×Ļ
Ġ×ŀ×ķ× ĸ×
Ġ×Ľ×ķ× ©×Ļ
Ġ×ĳ×Ĳ ×ķ
Ġ×ŀ×Ķ× ¢×
Ġ×ĸ× ¨×
Ġ×ŀ×¡× ¤×¨×Ļ×Ŀ
Ġ×Ķ×ĳ× ł×ª
Ġ×©×Ļ× ĳ×ķ×Ĳ
Ġ×ķ×Ĳ× ª×Ŀ
Ġb re
¤×¨ ×ķ
Ġ×ľ×¢× ľ×ķ×ª
Ġ×ĳ×¡× ľ×ķ×Ł
Ġ×ª×§× ĳ×ľ
Ġ×§×Ļ× ł×Ĵ
Ġ×©×Ļ×© ×Ļ
Ġ×¨×Ļ× ¡×¤×§×ĺ
ĠN e
Ġ×ŀ×ĵ× ĳ×¨×ª
×ĳ ×ķ×Ŀ
ac t
Ġ×ķ×¤× ª×Ĳ×ķ×Ŀ
ĠTh is
Ġ×ŀ×ŀ×©×Ļ× Ľ×Ļ×Ŀ
w ay
× ©×Ļ×¨
×ķ ×ķ×Ĳ×ķ
×Ļ× Ĳ×ľ×ľ×Ķ
ŀ× ĺ×¨
Ġ×Ķ× ľ×Ļ×
Ľ× ¨×ķ×ł×ķ×ª
¨× Ľ×ª
Ġ×ŀ× Ĵ×ķ×
Ġ×ŀ× ¨×ķ×ĳ
Ġ×ŀ× Ĺ×ķ×¥
Ġ×©× ĺ×
Ġ×©× Ĵ×ķ×
¨×ķ× ĸ
Ġ×Ĳ×Ļ× ł×ĺ×
×Ļ×Ļ× ¨×Ķ
Ġ×¢×ķ× ĳ×ĵ×Ļ×Ŀ
Ġ×Ĺ× ľ×ķ×
Ġ×¡× ĺ×ķ×
Ġ×¡× Ĵ×ł×ķ×Ł
Ġ×¨×ķ× ¦×ķ×ª
×ķ×Ĳ ×Ļ×Ŀ
Ġ×Ľ×ķ× Ľ×ĳ×Ļ×Ŀ
×ķ×ķ× ł×Ĵ
Ġ×¦× ¢×
Ġ×ĺ× ¨
Ġ×ĳ×ŀ× §×
Ġ×Ķ×¤× Ĳ×ł×¦
Ġl ight
Ġ×Ķ×§× ĺ×¢
ľ×Ĺ× ª×Ļ
Ġ×ĳ×Ľ× ľ×Ĳ
Ġ×Ĳ×Ķ ×Ļ×Ķ
Ġ×ĳ×Ĺ× ľ×ľ
Ġ×ĳ×¤× ª×Ĺ
Ġ×Ķ×ł× Ľ×ķ×Ł
ĠÙĪ ÙĦØ§
Ġ×ľ×¦× ¢×ķ×§
×ķ×ķ×Ļ× Ĺ
Ġ×ĳ×ķ ×Ļ×
ĠY eah
ĠN ow
Ġ×ŀ×¡×ķ× ĳ×ĳ
Ĳ×¨× ĺ×Ĳ
Ġ×¢ ×Ļ×ķ
ĠG od
Ġ×ŀ×©×¤× Ĺ×Ķ
Ġ×ª×§×ķ× ¢
Ġwor ld
Ġ×ĳ×ľ×Ļ× ł×Ĵ
Ġ×ĵ×¤× §×ª×Ļ
¤ ×Ļ×Ķ
Ĺ ×Ļ×¨
×ķ× ĸ
Ġ×ľ× ĳ×Ļ×ª
Ġ×ŀ× ľ
Ġ×ŀ× ©×Ķ
Ġ×ŀ× ¨×Ĳ×©
Ġ×ĳ× ŀ×Ļ
Ġ×©× ª×Ķ
Ġ×©× Ĳ×Ļ×
ł× ł×Ļ×Ŀ
ĵ× ¨×Ķ
Ġ×Ļ× Ĵ×
Ġ×ł× ¤×ľ
Ġ×¨× ĳ×Ļ×Ŀ
Ġ×Ĺ× ŀ×
§×ķ× ĵ×Ķ
Ġ×ľ×Ķ× Ĵ×Ļ×¢
Ġ×ŀ×ķ× ¨×
¨×Ĳ ×Ļ×Ŀ
Ġ×ĵ ×Ļ×Ļ
Ġ×Ķ×ŀ× §×
ł×Ļ× ŀ×ķ×Ŀ
Ġ×Ĺ×ķ× ¤×©
ŀ×Ļ× ł×Ļ×Ŀ
Ġ×Ķ×©× Ľ×
Ġ×ĳ×Ĳ× ľ×Ļ×
ĵ×ķ× ©
ĺ×ķ× ľ×Ķ
ĺ×Ļ× ł×Ļ
Ġ×ľ×Ķ×ª× ¢×ķ×¨×¨
Ġ×ĳ×¢× ĳ×¨×Ļ×ª
as e
Ø³ ÙĬ
Ġ×ŀ×ł× ¦×Ĺ
Ġ×ľ×Ĵ× ĵ×ķ×ľ
Ġe ver
Ġ×ŀ×Ĵ× ľ×Ĵ×ľ
×ŀ×ķ× Ĺ
Ġ×¢×ľ×Ļ×Ķ ×Ŀ
Ġ×¨×Ĵ× ľ×Ļ×Ļ×Ŀ
Ġ×ŀ×Ĺ ×Ļ×¨
Ġ×Ķ×ł×Ļ ×Ļ×¨
Ġ×Ĳ×ķ×ª× Ľ×Ŀ
d a
o or
¦ ×Ļ×ľ
× ł×Ķ
ľ× ŀ×ķ×ª
ŀ× Ĳ×ľ
ĳ× ¢×ª
Ġ×Ĳ× ĳ×§
Ġ×Ĳ× ľ×ĳ×Ļ
Ġ×ŀ× ¢
Ġ×©× ŀ×Ł
Ġ×Ľ× ¨×Ļ×
§× ľ×Ļ×ĺ
Ĵ× Ĳ×ĸ
Ġ×ķ× ©×Ļ×
Ġ×ª× ¡×ª×Ľ×ľ
Ġ×ľ×Ļ ×ķ×Ŀ
ĺ× ł×
Ġ×¢×ķ× ¦×
Ġ×¢×ķ× ĳ×¨×Ļ×Ŀ
Ġ×§× ¦×¨
Ġ×Ĳ×ķ× £
Ġ( ..
Ġ×¤ ×ķ×¨
Ġ×ľ×Ķ× ª×Ĺ×Ļ×ľ
Ġ×ĵ× §
Ġ×ĺ ×Ļ×ľ
¡×ķ× ľ
Ġ×ĳ×Ļ× ĵ×Ļ×Ļ×Ŀ
Ġ×ľ×©× ª×ķ×§
Ġ×ľ×©× Ĳ×ķ×ľ
Ġ×¦ ×Ļ×¤
it y
Ġ×ľ×¢× ĵ
Ġ×ŀ×¢× ¨×ĳ×ĳ
Ġ×ŀ×¢× ĵ×Ļ×£
Ġ×Ĵ×ķ× £
Ġ×ĳ×Ľ× ĳ×ķ×ĵ
Ġ×©×Ļ×¨ ×Ļ
Ġ×Ľ×Ļ× ©×¨×ķ×Ł
Ġ×ł×¢× ľ×Ŀ
Ġ×¢×©×Ļ× ł×ķ
Ġ×Ķ×ŀ×©× ¤×Ĺ×Ķ
Ġ×ĵ×¨× ŀ×Ķ
Ġ×ĳ×ĵ×Ļ× Ĺ×Ķ
Ġ×ł×Ľ×ł× ¡×ª×Ļ
Ġ×ĳ×©×ķ× §
urt her
b le
g o
n ce
¤ ×Ļ×¨×Ķ
×Ķ ×ķ×
Ġ×Ķ× §×Ļ×¥
Ġ×ŀ× ©×Ļ×
ł× §×Ļ×Ŀ
Ĺ× ¨×Ļ×Ŀ
Ġ×¢× ©×Ļ×¨
¡× ¤×ª
Ĵ× ĸ×
Ĵ× ¨×Ķ
Ġ×ª× ŀ×ķ×ª
Ġ×Ļ× Ĵ×Ļ×ĵ×ķ
ĺ× ª
Ġ×Ĺ× ©×ĳ
Ġ×Ĺ× ĵ×¨
Ġ×¨×ķ× Ŀ
¨×Ĳ× ¤×¨×Ļ×Ŀ
ľ×Ļ× Ĺ×ķ
Ġ×©×ķ× ĺ×Ļ×Ŀ
ÙĦ Ø¹
Ġ×Ķ×©× Ľ×ľ
Ġ×ŀ×¡× ¨×Ļ×Ĺ
Ġ×©×Ļ× ł×Ķ
Ġb y
Ġ×Ķ×¨× ¢
at ch
Ġg od
ĺ×Ļ× ĳ×Ļ
Ġ×Ķ×¡× ª×
¡×Ļ ×Ļ×Ŀ
Ġ×ľ×Ļ× ĳ×Ļ
Ġ×ª×©× Ĳ×Ļ×¨
Ġh a
ar t
Ġ×ľ×ĵ× Ĳ×ķ×Ĵ
Ġ×ª×Ķ ×Ļ×Ļ
Ġ×Ĺ×©× ŀ×ľ
Ġse h
ĠC an
Ġ×Ľ ×ķ×ķ×
id d
Ġ×ŀ×ĳ×Ļ× ł×Ķ
Ĳ×ŀ× §
Ġ×ŀ×ĺ×ķ× ŀ×ĺ×Ŀ
ĠThe y
Ġ×ĳ×Ĵ ×Ļ×ľ
Ġ×ŀ×§×ķ× ĳ×ľ
Ġ×ľ×Ķ×ķ× ¦×Ļ×Ĳ
Ġ×¤×¡×Ļ× Ľ×ķ×
Ġ×ª×ĳ×Ļ× ł×Ļ
¡ ×ķ×Ł
¤ ×Ļ×ĵ
¤ ×ķ×Ļ
ľ× ©
Ġ×ľ× Ĺ×ķ×¥
Ġ×Ķ× ¦×Ļ×
¨× ĳ×Ļ
Ġ×ĳ× Ĺ×Ļ×
ł× ľ×Ļ
ł× ĵ×Ķ
ĵ× Ĵ
Ġ×ķ× ĵ×ķ×
Ġ×ª× ©×Ļ×
Ġ×ł× ľ×ļ
Ġ×Ĳ×Ļ× ĵ×Ļ×ķ×ĺ
Ġ×¨× ŀ×
Ġ×¤× ª×ķ×
Ġ×ľ×Ķ× ĸ×Ļ×ĸ
Ġ×ĳ×Ļ× §×
Ġ×Ĵ ×ķ
Ġ×ł×ķ× ©×
Ĳ×ķ× ĺ
Ġ×ľ×©× ¨×ķ×ĵ
Ġ×¡×ķ× Ĵ×¨×Ļ×Ŀ
Ġ×Ķ×Ĺ× ¨×Ĳ
Ġ×ķ×ķ× ¨×¡
Ġ×ķ×ķ× ľ×Ļ×ķ×Ŀ
Ķ× ĳ
Ġ×Ĺ×Ļ ×ķ×
Ġ×©×Ķ ×Ķ
¤×§ ×Ļ×ĵ
Ġ×ķ×ľ× ¢×
Ġ×ª×§× ł×Ķ
Ġ×ŀ×¦× ¤×Ķ
ĠM e
Ġ×©×Ľ× Ĺ×ª×Ļ
ĠP ut
all y
Ġ×ĵ×Ĳ× Ŀ
Ġ×ª×Ĳ× §×ĺ
Ġtr y
Ġ×ł×©×Ĳ× ¨×ª
ĳ×ľ× ĳ×ľ
Ġ×Ķ×©×ª× ł×Ķ
ł×©×ĺ ×Ļ×Ļ×Ł
! !
×ķ× ľ×ķ
ĳ× ľ×ª
©× ĳ×Ł
Ġ×Ķ× ĳ×ķ×Ŀ
Ġ×ŀ× ĵ×Ļ×ł×Ķ
Ġ×ĳ× §×Ļ×
Ġ×©× ľ×ĳ
ł× ª×
§× ©×Ļ×ĳ
ĵ× ¨×ª
Ġ×ª× ĵ×
Ġ×ª× ¤×ķ×
Ġ×¨× ĳ
Ġ×§× ¨×Ĳ×
Ġ×Ĺ× ¨×Ļ×
Ġ×ŀ×Ķ ×Ļ×¨
Ġ×¡× §×Ļ×Ļ×
ou d
Ġ×Ķ×ĳ× ¨×
Ġ×¡×ķ× ĳ×ľ
Ĵ×ķ× ©
Ġ×©×Ĳ× ł×Ł
¦×ķ× ¢
Ġ×ª×Ĺ× ¤×©
Ġ×ª×ª× ¢×
Ġ×ĳ×ĳ× ĺ×Ł
Ġ×ĳ×¦× ľ
Ġ×¤×Ĳ×§ ×Ļ×Ł
Ġ×ŀ×ª×¢× ¡×§
Ġ×Ĺ×ķ×ľ× ¦×Ķ
Ġab out
c ause
i ld
t o
× ¢
× ĺ×ķ×ĳ
ĺ ×ķ×Ŀ
×Ļ× ł×¡
Ġ×Ĳ× ĳ×ķ×
Ġ×ľ× ĳ×Ļ×Ł
Ġ×ŀ× ĺ
Ġ×ŀ× ¤×Ļ×ľ
Ġ×ĳ× ĳ×ķ×
Ġ×©× ĳ×Ļ×
Ġ×©× ł×Ļ×ł×ķ
ł× ł×Ķ
§× §
¦× ľ×Ļ×Ĺ
×Ķ× ¨×Ļ×Ļ×Ŀ
Ġ×Ļ× ĵ×ķ×
Ġ×Ļ× ¤×ķ×ª
¨×ķ× ¢
Ġ×¨× ¦×
Ġ×¤× ľ×Ĳ
Ġ×§× ¨×ĳ
ł×ķ ×Ļ×Ļ×Ŀ
§×ķ× ¢
§×ķ× ŀ×ķ×ª
Ġ×ĳ ×ķ×¨
Ġ×ĵ ×Ļ×Ł
Ġ×ŀ×Ķ× ĳ×
Ġ×ŀ×©× §×
ª×¨ ×ķ×ª
ľ×ķ× ł×Ł
Ġ×ĳ×ŀ× ¡×
Ġ×©×Ļ× Ľ×ķ×¨
Ġ×Ķ×¤× ł×§×Ļ×Ļ×§
Ġ×ľ×©× ŀ×Ļ×Ļ×Ŀ
Ġy eah
Ġf ight
Ġf ind
ĵ×¢ ×ķ×ª
Øª ÙĬ
Ġ×¤×Ĳ× £
or d
Ġ×©×ª× ©×
©×ķ×ĳ ×ķ×ª
Ġ×ĺ×Ļ× ¤
Ġ×Ĳ×Ľ× ľ×ª×Ļ
Ġ×ŀ×ł× Ĵ×Ł
¡×ĺ× Ĳ×¨
ĠØ¹ ÙĦÙī
ĠG et
Ġ×©×¢×ķ× Ł
Ġ×§×ľ×Ĳ× ¡
Ġ×¤×ķ×ª×Ĺ ×Ļ×Ŀ
Ġ×©×¨×ķ× ¦×Ķ
Ġ×Ĳ×Ļ×Ļ× ł×©×ĺ×Ļ×Ļ×Ł
Ġ×ŀ×¨×Ĵ×Ļ× ©×Ķ
Ġ×§×Ĳ×ŀ× ĳ×§
F F
F urther
u ff
× ĳ×Ļ×ª
Ġ×ľ× ĵ×Ļ×
¨× Ĺ×§
¢× ľ×Ļ×Ŀ
Ġ×ŀ× ¨×Ļ
Ġ×©× Ľ×ķ×ł×Ķ
Ġ×¢× ł×Ł
ĵ× ©×ķ×ª
Ġ×Ļ× Ĵ×ŀ×¨
ĳ×Ļ× ł×ĺ
ĳ×Ļ× ľ×ķ×Ł
ľ×Ļ ×ķ
Ġ×ł× ĺ×
Ġ×¨× Ľ×ĳ×ª
Ġ×¢×ķ× ĳ×¨×ª
Ġ×¤× ¨×Ĺ×Ļ×Ŀ
Ġ×¡× Ŀ
Ġ×¡× Ľ×Ļ×Ł
Ġ×ĵ× Ĳ
Ġ×Ķ×ŀ× ª×
Ġ×ĳ×ķ× ł×Ļ×Ŀ
Ġa in
Ġ×ŀ×ª× Ĺ
ľ×Ļ× ¤×Ķ
×ķ×ķ× Ĺ
×ķ×ķ× ľ
Ġ×ŀ×Ķ× Ĳ×
Ġm ic
ÙĦ Ùĩ
ľ×ķ× ĵ
Ġ×ķ×Ķ× ĳ×
Ġ×ķ×Ķ× Ĺ×
Ġ×¡×ķ× ŀ×ļ
Ġ×ľ×ķ× §×ķ
Ġ×Ķ×¡× ¦×ł×Ķ
§×¡ ×ķ×Ŀ
Ĵ×ľ ×ķ×ª
Ġ×ĳ×ĳ× Ĵ×Ĳ×ĸ
Ġ×ŀ×Ĵ× ĸ×Ļ×Ŀ
Ġ×ł×ª× ł×ķ
Ġ×Ĳ×§× ĵ×Ĺ
×Ķ×Ķ ×Ķ×Ķ
ra el
ĠOn ly
o ke
ĳ ×ķ×¨×Ķ
ŀ× ¢×ª
Ġ×Ĳ× §×Ĺ
Ľ× ľ×ľ
Ġ×©× ł×ª×Ļ×Ļ×Ŀ
Ġ×Ľ× ľ×Ĳ
Ġ×Ļ ×Ļ×Ł
ĵ× §×Ķ
Ġ×ķ× ŀ×Ļ×
Ġ×ª× ª×Ĺ×
Ġ×ª× ¡×ª×
ĳ×ķ× ¦×Ķ
Ġ×¤× ¡×
Ġ×¤× Ĺ×ĵ
Ġ×§× ¨×Ĳ×ķ
×Ļ×¨ ×ķ
§×ķ× ¤×Ķ
Ġ×Ķ×ŀ× ĸ×
Ġ×ĳ×Ļ× ł×Ļ×ł×ķ
¡×Ļ× £
Ġ×ŀ×ª× ¨×Ĵ×©
Ġs k
Ġs ing
Ġ×ĸ ×ķ×Ŀ
Ġ×ĸ× ĸ×Ļ×Ŀ
Ġ×ĺ× ¨×Ļ×
Ġ×ĺ× ĵ×Ļ
Ġ×©×ŀ× ¡×
×Ĳ× ŀ×ª
it tle
Ġ×¤×ķ× ¨×
¡×ĺ ×ķ×ª
Ġg u
¤×Ļ× ¢
Ġ×ľ×Ķ×ª× ł×
Ġ×ŀ×ĳ× ¡×ķ×
Ġ×ł×Ļ× §×Ĺ
ĠØ¨ Ø¯
Ġu nder
Ġ×ĺ×Ļ× ¤×ķ×ª
Ġ×Ķ×¦× ľ×
Ġ×¨×Ļ× Ĺ
ĠC h
Ġ×ª×¨× ĳ×ķ×ª
§×ķ ×ķ×ª
Ġ×ª×ľ ×ķ×Ļ
¤×ª×Ļ ×Ļ×Ŀ
Ġ×ª×§×ķ× ¤×Ķ
um p
¨×Ľ×Ļ ×Ļ×Ŀ
Ġ×ŀ×ľ×Ĺ× ŀ×ª
? !,
× ĵ×ķ×
ľ× ĳ×ĺ
Ġ×Ĳ× Ĵ×Ļ×ĵ
Ġ×Ķ× ¡×Ļ×ĳ×Ķ
¨× ¤×ª
¨× ĳ×Ł
Ġ×ŀ× ľ×Ļ×ķ×Ł
Ġ×ĳ× ¦×ķ×
Ĺ× ¤×Ļ×Ŀ
Ĺ× §×ª
×Ķ× ¤×ļ
Ġ×ł× ¡
¢×ķ× ¨×
ĺ× ł×Ķ
×Ļ×¨ ×Ļ
Ġt urn
Ġ×ľ×Ķ× ¤×Ļ×ľ
Ġ×ĳ×Ļ× ĵ×Ļ
Ġ×¦× ¢×ĵ
Ġ×ĺ× ¢×Ļ×Ŀ
Ġ×©×Ļ× ¨×ķ×ĺ×ķ
Ġ×Ķ×¤× Ľ×ª×Ļ
Ġ×Ĳ×ł× Ĳ
Ġ×ŀ×¢× ¦×
Ġ×¡×Ļ× §×¡×ĺ
Ġ×ľ×ķ× §×Ķ
Ġ×ķ×ľ× ©×
Ġ×Ķ×ĵ× Ĵ
ĠØ¨ ÙĨ
ĠØ¨ Ø¹
ĠØ§ÙĦ Ùħ
ĠØ§ÙĦ Ø¹
Ġ×Ķ×Ķ ×Ļ×Ĳ
ĠÙĪ ÙĬÙĨ
¡×ª ×ķ×Ŀ
Ġ×ŀ×ĺ× ¨×Ķ
Ĵ×Ļ ×ķ×Ł
Ġ×Ķ×Ľ×ķ× ¡
Ġle gal
Ġ×ľ×Ķ×©×ª× ł×ķ×ª
Ġ×ĸ×Ļ× Ľ×¨×ķ×Ł
Ġ×¢×ł× ł×Ļ×Ŀ
Ġ5 9
¦×ĳ×¢ ×ķ×ª
Ġ×ŀ×ĵ×Ķ ×Ļ×Ŀ
x y
© ×Ļ×Ĳ
× Ľ
× ¨×Ļ×
ĵ ×ķ×¨×Ļ×Ŀ
Ķ ×Ķ
×Ķ ×ķ×Ĳ
ľ× ĸ
Ġ×Ĳ× ĵ×
Ġ×ľ× ĳ×Ķ
Ľ× ł×ķ
¨× ĳ×Ķ
Ġ×©× ĳ×Ļ
Ġ×Ľ× ¨×ĺ×Ļ×¡
ĵ× ĵ×Ļ×Ŀ
Ġ×ķ× ª×Ļ×
ĸ× ł×Ļ×ķ×ª
Ġ×Ĳ×Ļ× ĸ×Ļ
Ġ×Ĺ× ¡
Ġ×Ĺ× ¡×
Ġ×Ĺ× ľ×ĳ
Ġ×Ĳ×ķ× ¡×£
Ġ×ĵ× ŀ×
Ġ×Ĳ×Ĺ× ¨×ķ×Ł
Ġ×ŀ×Ķ× Ľ×
Ġ×ŀ×Ķ× §×
Ġ×ĸ× ĳ×ľ
Ġ×ĺ× ¢×ķ×Ļ×ķ×ª
Ġ×Ķ×ĳ× ł×Ļ×Ŀ
×Ĳ× ¡
Ġ×©×Ļ× ¢×
Ġ×Ķ×¤× Ĳ×
ŀ×Ļ×ĵ ×Ķ
it ch
¤×¨ ×Ļ×Ķ
Ġthe se
Ġ×ŀ×¢× ©×ł×Ļ×Ŀ
Ġ×ľ×Ĳ× ĳ
Ġ×Ĺ ×Ļ×Ķ
Ġg al
Ġ×§ ×ķ×¨
Ġ×ľ×§× Ĺ
Ġ×©×ª× ĵ×¢
Ġ×ķ×ĳ× ľ×Ļ
Ġ×Ķ×¢× ł×Ļ×Ļ×Ł
Ġ×ł×ŀ× ©×Ļ×ļ
Ġ×ĺ×ķ× ¡
×ª× Ĵ×Ļ×ĵ
Ġe n
Ġ×Ļ×ķ×¦×Ĳ ×Ļ×Ŀ
×§× ¨×Ļ×ĸ×Ķ
Ĳ×¨× Ĵ×Ł
Ġ×Ķ×ľ× ©×ķ×Ł
Ġ×Ķ×©×Ļ×¨ ×Ļ×Ŀ
ľ×ĺ× ª×Ļ
Ġ×ĳ×ŀ×ķ× ¢×ĵ×ķ×Ł
×ĵ× ľ×ª
Ġas s
Ġ×ŀ×¡×ª×Ľ×ľ ×Ļ×Ŀ
Ġ×Ĺ×ĵ× ©×Ķ
Ġ×ŀ×ł×Ļ× Ĳ×§
Ġ×Ĺ×Ļ×¤× ©×ª×Ļ
i ke
× ¡×Ļ×
× ¢×Ļ×ł×Ļ×Ļ×Ŀ
ľ× ¦×Ķ
ľ× ł×ĵ
Ġ×Ĳ× ĵ×Ļ×
Ġ×Ķ× ĳ×ľ
Ġ×ŀ× ¦×Ļ×
Ġ×ĳ× Ĵ×ķ×
Ġ×ĳ× Ĺ×Ļ×Ļ
ł× ĸ
Ĺ× ĵ×ª
¤× Ĺ
Ĵ× ĸ
Ġ×ŀ ×Ļ×§×Ļ
ĺ× ľ×Ķ
Ġ×Ĳ×Ļ× Ľ×ķ×ª
Ġ×¢×ķ× £
Ġ×¤× ª×Ĺ×ª×Ļ
Ġ×§× ł×
Ġ×Ĺ× ŀ×Ķ
Ġ×Ĵ× ĸ×
§×ķ× £
Ĺ×Ļ ×ķ×ļ
©×Ļ× ª×Ļ
Ġ×¦× Ĳ
Ġ×ĸ× ĸ×Ķ
Ġ×Ķ×©× ł×Ļ×Ŀ
§×Ļ× £
Ġ×Ķ×ĳ× ª
×ķ×ķ ×ķ
Ġthe re
Ġ×¡×ķ× ĵ
Ġf all
¨×§ ×ķ×ª
Ľ×Ļ× ª×Ļ
Ġg irl
Ġ×Ķ×¡× ¤×¨
ĠØ§ ÙĨ
Ġ×ŀ×ĳ× ĺ×Ļ×Ĺ
Ġit s
Ġ×Ķ×Ĳ ×ķ
Ġ×Ķ×Ĳ ×Ļ×©
Ġ×Ķ×Ĳ ×Ķ×ĳ×Ķ
Ġ×Ķ×Ĳ ×ķ×¨×ķ×ª
§×Ĺ ×ķ
Ġ×Ĺ×ĳ×¨ ×ķ×ª
Ġ×Ĳ×ľ× ¤×Ļ×Ļ×Ŀ
Ġ×ĳ×ĵ× ľ×ª
×ķ×ķ×Ļ× ĸ×Ļ×Ķ
Ġ×Ķ×ĺ× ¨×Ĳ×§
Ġ×§×Ĳ× ©×Ļ
ĠØ£ ÙĨØ§
Ġlo ok
Ġ×ķ×§× Ŀ
Ġ×¨×Ĵ× ©×ķ×ª
Ġ×Ķ×ķ×¤× Ľ×Ļ×Ŀ
Ĳ×Ķ× ĳ
Ġ×©×ľ×Ļ× ĺ×Ķ
Ġ×©×ª×Ļ× ª×Ļ
Ġ×ĳ×Ĳ×ľ×Ļ× ĺ×ķ
Ñ Į
Ġ X
×Ļ ×ķ×ķ×
ľ× Ľ×Ļ×Ŀ
Ġ×Ĳ× ĸ×
Ġ×Ĳ× ĳ×Ł
Ġ×ľ× ĳ×ķ×
Ġ×Ķ× ľ×Ľ×ª
¨× Ĵ×ľ
¢× ľ×Ļ×Ļ×Ŀ
Ġ×ĳ× ¤
Ġ×¢× ĳ×¨×ł×ķ
Ġ×ķ× ľ×Ĺ×
¨×ķ× Ĵ
×Ļ×Ļ× ł×Ļ×Ŀ
Ġ×¢×ķ× ¦×Ŀ
Ġ×¢×ķ× ŀ×ĵ×Ļ×Ŀ
Ġ×Ĵ× ¨×ķ×ĳ
Ġ×¡× ĵ×¨
Ġ×¡× ĺ×ķ×¤
¨×Ļ× ¡×ĺ
Ġ×Ķ×ŀ× ĳ×
Ġ×ĸ× ¨
Ġ×ĳ×Ĳ× ĵ
Ġ×ŀ×¡× ª
×ķ×ķ ×Ļ
Ġ×ķ×Ķ× Ĳ×
Ġ×ķ×Ķ× ª×
Ġ×Ķ×¨× ĳ
Ġ×ľ×Ĳ× Ĺ×ķ×¨
ĸ×ķ× ŀ×Ł
Ġ×Ķ×¢× ¨×ĳ
Ġ×ª×Ļ× Ľ×ł×¡
Ġ×Ļ×©× ŀ×ķ×¨
Ġ×Ķ×Ķ ×Ļ×
×ķ×ķ×Ļ× ¥
ĠÐ ½
¡×ª× ĵ×¨
Ġ×ŀ×ĺ× ¢×Ł
Ġ×©×¨× ŀ×ķ×ĺ×Ķ
Ġ×ŀ×Ĵ×Ļ×¢ ×Ļ×Ŀ
Ġ×©×§× ľ×Ļ×Ŀ
Ġ×Ļ×©×¨×Ĳ× ľ×Ļ
os a
Ġ×ł×©×Ĳ× ¨×Ļ×Ŀ
Ġ×Ľ×©×Ķ ×ķ×Ĳ
×ľ×Ļ ×Ļ×Ł
Ġcl ub
Ġ×¤×ľ×Ļ× ĸ
¨×Ĳ×ķ× ł×ĵ
r ough
u ll
× ª×Ŀ
× ĵ×ĳ×¨
Ġ ÑĤ
ĵ ×Ļ×¨
©× ĳ×ª×Ļ
¨× §×
¨× ¤×Ļ×Ŀ
Ġ×ŀ× ¦×Ļ×Ĳ×ķ×ª
Ġ×©× §×¨
Ġ×Ľ× ľ×ľ
§× ¥
×ķ×ª ×Ļ×Ŀ
Ġ×¢× ¥
¡× ŀ×Ļ×Ŀ
Ġ×ķ× ª
Ġ×ª× ĵ×ľ×Ļ×§
ĳ×Ļ× ĵ
ĺ× ľ×
Ġ×¤× ľ×Ļ×Ļ
Ġ×Ĺ× Ĳ×¨×ĺ×Ĳ
Ġ×¡× §×ķ×ľ
Ġt own
¨×Ļ× ĺ
Ġ×ĵ× ¨×Ļ×
Ġ×Ľ×ķ× ©×¨
Ġ×Ľ×ķ× ľ×Ł
Ġm oney
Ġ×ł×ķ× Ĵ×¢
Ġ×§×ķ× ł×
ł×¡ ×ķ
Ġ×ŀ×¡× ª×ķ×ĳ×
¨×Ĵ ×Ļ×Ķ
ĺ×ķ× Ĺ
Ġ×¨×Ĳ× ©×Ļ×Ŀ
Ġ×Ľ×©× Ĳ×Ļ×Ł
Ġ×Ķ×Ĵ× ¢×ł×ķ
ĺ×Ļ× §×
Ġp ut
Ġ×ľ×Ķ×ª× Ĳ×
Ġ×Ķ×Ľ× ĳ×ķ×ĵ
Ġ×ŀ×ĳ× ľ×Ļ
ĠA r
Ľ×¨ ×ķ
ut ion
ĠM an
Ġ×ĳ×Ĳ×ķ× ĸ×Ł
Ġ×Ķ×ĸ ×ķ
Ġ×©×Ĺ× §×Ł
Ġ×ĳ×Ĳ×Ļ× ŀ×Ĳ
Ġ×ŀ×ĸ ×Ļ×Ļ×Ł
Ġpe ace
Ġ×ľ×Ķ×ª×Ĺ× ľ×Ķ
Ġ×Ĵ×ĵ× ľ×ª×Ļ
Ġ×¨×Ĵ ×Ļ×ľ
©×ł× ŀ×Ł
c a
× ĵ×Ļ×
× ľ×Ĳ×
× ĸ×Ļ
ĸ ×Ļ×ª
ŀ ×ķ×¨×Ķ
×Ļ× ª×Ļ
ľ× ¦
ª× ¨×ķ×Ł
Ġ×ĳ× Ĵ×Ł
Ġ×©× ¢×ľ
Ġ×ķ ×ķ×Ĳ
ĵ× ¨×ķ×Ł
Ġ×ķ× ª×Ł
Ġ×Ļ× ¤×
Ġ×Ļ× ĸ×
Ġ×Ļ× Ĵ×Ļ×ĵ
Ġ×© ×ķ×¨×Ķ
¨×ķ× ¦×Ļ×Ŀ
Ġ×ł× Ĳ
Ġ×ł× ¦×Ĳ
¢×ķ× ľ
Ġ×¨× ĺ×ķ×ĳ
×Ļ×Ļ× ¡×
Ġ×¤× ¢×ŀ×Ļ×Ŀ
Ġ×Ĵ× ľ×Ĵ×ľ
Ġ×¡× Ĺ×ĳ×§
Ġ×ŀ×ķ× ĳ×Ł
ŀ×ķ× ¨×ª
Ġ×Ķ×ŀ× ł×Ĵ×Ļ×ł×Ķ
Ġ×ĳ×Ļ× Ĵ×Ļ×ĵ×Ļ
Ġ×©×ķ× ľ×Ĺ
Ġs l
¤×ķ× £
Ġ×ŀ×Ļ ×ķ×Ŀ
Ġ×¦× ĳ×Ĳ
Ġ×Ķ×Ĳ× £
Ġb aby
an s
Ġ×ŀ×Ļ× ©×Ķ×Ļ
×ŀ× ¡×
is h
Ġ×©×Ķ ×Ļ×Ļ×ª×Ļ
Ġ×Ķ×ĳ×Ļ× ĺ×Ļ×Ŀ
Ġ×ŀ×¤× ¨×§
ĠÙħ Ø±
Ġ×ķ×ĳ× Ľ×ľ
Ġth ink
ĠM y
Ġ×ŀ×Ĳ×ķ× ©×¨
Ġ×¨ ×Ļ×Ļ×
Ġ×ľ×ĸ× ¨×ķ×§
Ġ×Ĳ×Ĺ×ķ× ª×ļ
Ġ×Ĳ×Ĺ×ķ× ©×¨×ŀ×ķ×ĺ×Ķ
Ġ×§×Ļ×ĳ× ľ×ª
Ġ×Ĳ×¨×ķ× ļ
Ġ×Ľ×Ķ ×Ķ
Ġ×ª×ľ× ŀ×ĵ
Ġ×Ĺ×ª×ķ× ľ
ĳ×Ļ×Ļ× ©
Ġ×ŀ×ª×ľ× ĳ×©
oot y
Ġ×ª×¢×ĸ× ĳ×ķ
s el
v iv
× ©×Ķ
× Ĳ×Ł
× ©×Ļ×ĺ
Ø «
Ù Ĳ
Ķ ×ķ
ŀ ×Ļ×Ķ
ĳ× ª×Ŀ
©× ł×ª×Ļ
©× ĳ×ķ×Ł
Ġ×Ķ× ª×Ļ×§
Ľ× ŀ×Ķ
¨× Ĺ×Ļ
¢× ľ×Ŀ
ª× ľ
Ġ×ŀ× ª×Ķ
Ġ×ŀ× ł×Ĵ×Ļ×ł×Ķ
Ġ×ĳ× Ĵ×Ļ×
Ġ×©× ŀ×Ļ×Ļ×Ŀ
Ġ×ķ ×Ļ×Ļ×ĳ
Ġ×ķ× ĺ×
Ġ×ķ× ľ×ķ×
¦× ¨×Ķ
Ġ×Ĳ×Ļ× ĳ×ĵ×ª×Ļ
Ġ×ŀ×ķ× ¢×
Ġ×Ķ×ŀ× ¦×
Ġ×ĳ×ķ× ĵ×Ļ
Ġ×ĳ×ķ× Ľ×Ļ×Ŀ
Ġ×ŀ×Ķ× ¦×ĵ
Ġ×ľ×ŀ× §×¡×Ļ×ŀ×ķ×Ŀ
Ġ×ĳ×©× ¨
ĵ×Ļ× ¢
Ġ×§ ×Ļ×ľ×ķ×
Ùħ Ø©
Ġ×ĳ×¡× ļ
Ġ×Ĵ×ķ× ¨×
Ġ×ĳ×¢× ¦×ŀ×Ļ
al ama
Ġ×¤×Ļ× ¡
ve n
Ġ×ł×Ĵ× ŀ×¨×ª
×Ľ× ŀ×ķ
Ġ×ª×Ĺ× ĸ×ķ×¨
Ġ×ª×ª× ł×ķ
Ġ×ĳ×ł× ĸ×ķ×ł×Ķ
Ġ×ŀ×¡×ª× ĵ×¨
Ġ×ª×ĳ×Ļ×Ĳ ×Ļ
Ġ×ľ×ķ×§×Ĺ ×Ļ×Ŀ
Ġ×ł×Ļ ×ķ
Ġ×ŀ×ķ×Ľ× ¨×Ļ×Ŀ
il ver
Ġ×ŀ×ª×Ĵ× ¢×Ĵ×¢
ĠWh at
Ġbr ing
×Ļ×¨×Ļ× §×¡
Ġ×ľ×Ĺ ×Ļ×Ļ×ļ
Ġ×Ļ×ĵ×ķ× ¢
× Ĵ×Ŀ
× ľ×Ķ×
Ġ×ľ× Ľ×Ļ
Ġ×ľ× ¢×ķ×ĵ
Ľ× ľ×¡
¨× ĳ×¢
Ġ×ŀ× Ĵ×¢
ł× ļ
§× ĳ×ķ×ª
Ĵ× ľ×Ķ
Ĵ× ĵ×Ķ
Ĵ× ¢×ķ×Ł
Ġ×ŀ ×Ļ×ľ×ķ×
Ġ×© ×ķ×ķ×Ļ×Ķ
Ġ×ł× Ĵ×Ł
ĸ× Ĳ×ĸ×ľ
Ġ×Ĳ×Ļ× ¨×ķ×¤×Ķ
Ġ×¡× ŀ×
Ġ×¨×ķ× ©×Ŀ
Ġ×ĵ× Ĵ
Ġ×ĳ×ķ× Ĺ×¨
ł×Ļ× ŀ×Ļ
Ġw ar
Ġ×ĸ× ŀ×¨
Ġ×Ķ×©× ŀ×
Ġ×Ķ×©× Ľ×ķ×ł×Ķ
§×Ļ× ª
Ġ×ľ×ŀ× ĵ
Ġ×ľ×ŀ× ¡×Ļ×ĳ×Ķ
on d
Ġd at
Ġ×Ķ×ĳ× ł×Ļ×Ļ×Ł
Ġ×¡×ķ× ĳ×
Ġ×Ķ×ª× ŀ×
Ġ×ŀ×Ļ× ¡×ĺ×¨
Ġ×ľ×¢× ĳ×ķ×¨
Ġ×Ķ×Ĺ× ĸ×Ķ
Ġ×ķ×ŀ× ¢×
×ŀ× Ĳ×
ĺ×Ļ× ŀ×Ļ
is s
Ġ×ŀ×ĳ× §×
al al
Ġ×ľ×¡× ª×ķ×Ŀ
Ġ×ª×Ĺ× ©×ķ×ĳ
Ġ×ľ×Ķ×Ļ× Ľ×ł×¡
¦×Ļ ×ķ×Ł
Ġr un
Ġ×Ļ×¢× ¦×ķ×¨
Ġ×©×ķ×ª ×Ļ×Ŀ
×Ĳ×Ļ× ¤×Ķ
Ġ×Ĵ×¨× ©×ł×ŀ×Ł
Ġ×ŀ×ĵ×ķ× ĳ×¨
Ġ×¡×ķ×Ĺ× ĳ
Ġ×©×ŀ×Ļ× ©×Ķ×ķ
o ol
Ġ .
Ġ×Ĳ× ł×ķ
Ġ×ľ× ª×ķ×
Ġ×ľ× §×Ļ×
Ġ×ĳ× Ĵ×ķ×£
§× £
Ĵ× ¨×
Ġ×ª× ł×ķ×
Ġ×ª× Ĵ×Ļ×¢
Ġ×Ļ× ŀ×ĳ×Ķ
×ķ×¨ ×ķ
Ľ×ķ× ł×ª
ĳ×ķ× §×Ļ×Ŀ
Ġ×§× Ĺ×ķ
Ġ×¡× §×Ļ×
Ġ×¡× Ĵ×ķ×¨
Ġ×Ļ×ķ× ¦×Ĳ×ª
Ġt e
Ġ×¨×ķ× Ł
Ġ×ľ×Ķ× Ĵ×©×Ļ×Ŀ
Ø§ Ø¯
Ġ×ŀ×ķ× Ĺ×
Ġ×ŀ×ª× ľ
ľ×Ļ× ¤×ķ×ª
Ġ×©×ķ× Ĺ×Ķ
Ġ×ŀ×©× ª
Ġ×ł×ķ× ª×¨
Ġ×ĸ× §×Ł
Ġ×ĺ× §
Ġ×ĳ×©× Ŀ
Ġ×Ķ×ĳ× Ĳ×¡
Ġ×Ķ×ĳ× Ĳ×ł×ķ
Ġ×Ķ×¤× ĸ×ŀ×ķ×Ł
Ġ×Ķ×ª× ŀ×ķ×ł×Ķ
Ġ×ľ×Ĳ× ĳ×ĵ
¡×ĺ ×ķ×¨×Ļ
Ġn ame
Ġ×ŀ×§× ľ×Ļ×ĺ
Ġ×ª×©× Ľ×Ĺ
Ġ×ŀ×ĳ× Ĺ×ł×Ķ
ĠS he
Ġ×©×ª× ª×
Ġ×¤×Ļ× ¦×ķ×¥
Ġ×¦×ķ× ¨×Ĺ
Ġ×¦×ķ× Ĺ×§
×ª× ŀ×Ļ×ĵ
ª×Ĺ× ¨×¨
Ġst r
Ġdi d
Ġr osa
Ġ×Ĺ×Ļ× ł×Ŀ
×ŀ ×Ļ×Ļ×§
Ġ×¢×Ļ× §×©
ł×Ķ× Ĵ
Ġ×ŀ×Ļ×Ļ× ¦×
Ġ×ŀ×©×ª× ł×Ķ
Ġ×ŀ×ĸ×Ļ× ĸ×Ķ
Ġ×ŀ×ķ×Ľ× ¨×ª
Ġho ld
Ġ×¢×ľ×Ļ× Ľ×Ŀ
Ø° Ø§
ĠIs rael
Ġsa id
×ķ×ł× Ĵ×ľ
Ġ×¦×ľ ×Ļ×ľ×Ļ×Ŀ
? "",
o ok
Ö ¸
× ¢×ĵ
× ¡×Ļ×ĸ
Ù İ
Ĵ ×ķ×¨×Ķ
Ľ ×Ļ×ľ
Ġ×Ĳ× ŀ×ķ×ł×Ķ
Ġ×Ĳ× ¢×©×Ķ
Ġ×ľ× ĺ×ķ×ĳ
Ġ×¢× ¨×¡
¡× Ĳ×
¡× Ĵ×¨
Ġ×ŀ ×Ļ×Ł
Ġ×ķ× ª×ķ×
Ġ×ķ× Ľ×©
×Ķ× ¨
¢×ķ× Ŀ
Ġ×Ĳ×Ļ× ª×Ł
Ġ×¢×ķ× ©×ķ×ª
Ġ×§× ľ×Ķ
Ġ×Ĺ× ĳ×Ļ×ĳ×Ļ
Ġ×¡× ĺ×Ļ×
×Ļ×Ķ ×ł
§×ķ× ©
Ġ×¨×ķ× ĳ
¨×Ļ× Ĳ
Ġ×Ķ×ŀ× ¡×Ļ×ĳ×Ķ
Ġ×Ķ×ŀ× ĺ×¨×Ķ
¨×Ĳ× ľ×Ļ
Ġ×©×ķ× ĺ×¨
ÙĬ Ø©
Ġ×ł×ķ× Ĺ×ª
Ġ×§×ķ× ł×Ļ×Ŀ
©×ķ× ľ
Ġ×Ķ×©× Ĳ×¨
Ġ×Ķ×Ĳ× §×
Ġ×ĺ× ¨×Ĳ×
Ġd is
Ġ×Ķ×ĳ× Ĵ×ĵ×Ļ×Ŀ
Ġ×ľ×©× Ĺ×¨×¨
ĵ×¢ ×Ķ
Ġ×ŀ×ŀ× ł×ķ
×ŀ× ©×Ķ×ķ
×³ ,
Ġ×Ķ×§× ĺ×Ł
Ġp us
Ĳ×ľ× ª
Ùħ Ø§
Ġ×ķ×ľ× ŀ×Ķ
Ġth an
Ġth ing
Ġ×ľ×¡× Ĵ×ķ×¨
Ġ×©×ĳ× ©×
ĠW hen
im es
×¤× Ĳ×§
Ġr ight
Ġwh ile
Ġ×ŀ×ĵ× ĳ×Ļ×§
Ġ×Ķ×ª×Ĺ× ľ×ł×ķ
Ġ×Ķ×§ ×Ļ×¨
Ġ×ŀ×Ĺ ×Ļ×Ļ×ļ
Ġ×ŀ×Ĵ ×Ļ×ľ
Ø§Ùħ Ø±
ŀ×Ķ× ¨
ct ion
Ġ×Ĵ×ĵ×ķ× ľ×Ļ×Ŀ
×Ļ×Ķ×ł ×ķ×Ŀ
f ore
¨ ×Ļ×ķ×ª
× Ĺ×ĵ
×ķ× §
×ķ× Ķ×
ľ× §×ª
ŀ× ¦×Ĳ
ĳ× ĵ×ª
Ġ×Ĳ× ĳ×ķ×ª
Ġ×Ķ× ĺ×ķ×
¢× ĵ×Ķ
Ĺ× ł×ª×Ļ
¤× ©×Ļ×Ŀ
Ġ×Ľ× ľ×Ľ×
§× ł×ķ×ª
Ĵ× ł×Ļ×Ŀ
Ġ×ķ× ľ×Ĳ×
Ġ×Ļ× ĳ×Ļ×Ł
Ġ×Ļ× ¤×Ļ×Ŀ
ľ×Ļ ×Ļ×ĺ
Ġ×ł× Ĵ×Ļ×¢
Ġ×¤× ł×Ļ
Ġ×¤× ¨×Ķ
Ġ×¡× ŀ×ľ
§×ķ× ľ×ĵ
Ø§ ÙĨØ§
Ġ×Ĳ×ľ ×Ļ×Ķ
Ġ×ĳ×ķ× ¢×¨×ª
Ġ×ŀ×ª× ¢×ķ×¨×¨
Ġ×ŀ×ª× Ľ×ķ×ķ×Ł
Ġ×Ĺ×ķ× ª×
ou nce
Ġ×ŀ×©× ĺ×¨×Ķ
Ġ×ŀ×¡× ¢
Ġ×Ķ×ĳ× ŀ×ķ×ª
Ġ×ľ×©× Ľ×ķ×ł×Ķ
×Ĳ ×Ļ
Ġ×ŀ×ŀ× ľ×Ĳ
Ľ×Ļ× ĳ
Ġ×ĵ×ķ× Ĺ×£
Ġ×Ķ×Ĵ× Ĵ
ĺ×Ļ× ł×Ķ
ŀ×¢ ×Ļ×Ŀ
¡×Ļ ×ķ×Ł
Ġ×ŀ×§× ¡×Ļ×ŀ×ķ×Ŀ
Ġ×ŀ×ĳ× ©×ľ
om et
Ġ×ŀ×¤× ¨×
ł×§ ×Ļ
Ġ×Ķ×¢× ĺ
Ġ×ĵ×Ļ× Ĵ×Ļ
Ġ×ŀ×¨× Ĺ×ķ×§
Ġ×©×Ļ×© ×Ļ×Ŀ
ª×Ļ× ¢×
ut h
Ġ×ķ×Ľ× ĳ×¨
Ġ×Ķ×ĺ× §×¡×ĺ
Ġ×©×ľ×ķ× ©×Ķ
Ġ×ŀ×ĸ× ŀ×Ļ×Ł
×Ĳ×ķ× ľ×Ļ
ĠÙĬ Ø¹
Ġ×ŀ×ĺ×ķ× ¡
Ġ×Ķ×¨×Ĵ× ©×ª×Ļ
Ġ×§×ķ×¤× ¦×Ļ×Ŀ
Ġ×¨×¢× ©
Ġ×ŀ×ķ×§× £
Ġ×ŀ×ķ×§× ĵ×Ŀ
ist en
Ġ×¡×ª× Ľ×ľ
Ġ×Ĳ×ĳ×ķ× ĵ×Ļ×Ŀ
) "
a v
m e
× ©×ķ×ĳ
ľ× ŀ×Ļ
ľ× ŀ×ª×Ļ
ĳ× ¡
ĳ× ¢×ª×Ļ
Ġ×ľ× ĳ×ķ×©
Ġ×Ķ× ľ×ķ×
Ġ×Ķ× ŀ×ķ×ķ×ª
Ġ×ŀ× ł×Ļ
Ġ×ŀ× ¨×§
Ġ×ĳ× ĸ×ķ×
Ġ×ĳ× ¤×Ļ×ł×Ķ
Ġ×©× ¤×Ķ
ł× ĵ×¨×
Ĺ× ¨×ª
¡× ļ
Ĵ× ª×Ļ
Ġ×ķ× ľ×Ķ
ĳ×Ļ× ¨×Ļ×Ŀ
Ġ×ł× ª×Ĺ×Ļ×ľ
ĸ× ¨×Ļ
Ľ×ķ× ¨×ª
ĳ×ķ× ¥
Ġ×Ĳ×ķ× Ł
Ġ×Ĵ× Ĳ×ķ×Ł
×Ļ×§ ×ķ×ª
Ġ×ľ×Ķ× ¤×
Ġ×Ľ×ķ× ĳ×¢
Ġ×ĳ×Ļ× ¡
ÙĬ ÙĬ
Ġ×ŀ×Ķ× ª×
ÙĦ Øª
Ġ×¦× ĵ×§
Ġ×Ķ×ķ× ¨×Ĵ
Ġ×ĺ× Ĺ×ł×ª×Ļ
Ġl ittle
Ġ×ľ×Ĳ× ľ×ľ×Ķ
Ĵ×Ļ× ľ×Ķ
Ġ×ķ×ķ× ľ
Ø± ÙĪ
Ġ×ľ×Ķ×ª× ĳ×
Ġ×ĺ×ķ× ¤×Ĳ×§
Ġ×ĳ×ķ ×Ļ×Ļ×
Ġ×©×ł×Ļ ×ķ×ª
ĠÐ ²
ĠÐ ¼
¢×¨ ×ķ×ª
×§× ľ×Ĳ×
Ġ×Ĺ×©× ĳ×ª
×ĳ ×Ļ×Ļ
×ł× ł×Ķ
Ġ×¨ ×Ļ×Ļ×ĳ
ľ×Ķ× ĳ×ķ×ª
Ġ×ŀ×ĸ× ¨×Ĺ
×Ĳ×ķ× §×Ļ×Ļ
Ġ×©×¢×ķ× ĳ×¨
ĠJ ump
Ġ×Ļ×©×¨×Ĳ× ľ×Ļ×Ŀ
×Ĳ×Ķ ×Ķ
Ġ×ŀ×Ľ×ķ× ł×Ļ×ķ×ª
Ġ×ŀ×¨×Ļ× ŀ×Ļ×Ŀ
Ġ×Ĺ×ĵ× ©×ķ×ª
Ġ×ľ×ķ×Ĺ× Ŀ
Ġ×ĳ×ª×ķ× Ľ×Ļ
Ġ×ĸ×ķ×¨× ŀ×Ļ×Ŀ
Ġ×ª×§×©×Ļ× ĳ×ķ
Ġ×¤×ķ×ľ×Ļ× ĺ×Ļ×§×
Ġ×Ķ×Ļ×Ĺ ×Ļ×ĵ×Ķ
f uck
Ĺ ×Ļ×Ķ
Ĺ ×Ļ×©
Ĳ× ¨×Ļ
ľ× §×
Ġ×Ķ× ¨×ķ×ĳ
Ġ×Ķ× Ĺ×Ļ×
Ġ×ŀ× ĳ×Ļ×ĺ
Ġ×ĳ× ł×ķ
Ĺ× Ĺ
¤× ĺ×Ļ×Ŀ
¤× ¢×Ķ
Ġ×Ľ× ¤×Ļ×Ļ×Ŀ
Ġ×ľ ×Ļ×ĵ×Ļ
¡× Ł
¡× §×Ķ
Ĵ× ¨×Ļ
Ġ×ķ× ¦×
Ġ×Ĺ× ¤×©
Ġ×Ĳ×ķ× ¨×
¨×Ļ× ŀ×Ķ
Ġ×Ľ×ķ× Ĺ×ķ×ª
Ġ×Ķ×ŀ× Ĵ×
Ġ×Ķ×ŀ× ¡×¨
Ġ×§×ķ× ¡×
ŀ×Ļ× ¡
Ġ×ĸ× Ĳ×ĳ
Ġ×©×Ļ× ĵ×ĳ×¨
Ġ×©×Ķ× ©×Ļ×ĺ
Ġc he
Ġ×Ķ×Ĵ× ľ
Ġh igh
Ġ×ĳ×¢× ¨×ļ
¡×§ ×ķ
Ġ×ľ×¦× ¢×ķ×ĵ
Ġe x
Ġ×Ķ×Ĳ×ķ× ĺ×ķ
ł×Ļ×Ļ× Ĳ×§
Ġ×¢×Ļ× ©×ł×ª×Ļ
Ġ×ŀ×ĺ×ķ× ¨×£
Ġ×Ĳ×ĵ ×Ļ×¨
Ġ×ŀ×©×¤× ĺ
Ġwor ds
oy a
Ġ×Ķ×¨ ×ķ×ķ×
Ġ×¤×¡×Ļ× Ľ×Ļ
Ġ×©×ŀ×©× ª×
Ġ×¢×ľ×Ļ× ª×Ļ
Ġ×ŀ×¦×ľ× ¦×ľ
idd le
× ŀ×Ł
× ¨×Ķ
× ĳ×Ļ
Ġ V
×Ļ× ĳ×Ļ×Ŀ
ľ× §×Ķ
ľ× ŀ×ĵ
ĳ× ľ×Ļ
Ġ×ľ× ĵ
Ġ×ľ× ĳ×Ļ×
¨× ł×ĺ
ª× ¢
Ġ×ŀ× ĵ×Ļ×
Ġ×©× Ĳ×Ļ
Ĺ× ©
Ĺ× ľ×ª
¡× Ľ×ľ
¡× ¤×¨
Ġ×ª× ĵ×Ĳ×Ĵ
ĸ× ª×Ļ
ĸ× ĳ×ª
Ġ×Ĳ×ķ× ľ
×Ļ×ĵ ×ķ×
Ġ×Ļ×ķ× ¡×Ļ
Ġ×¨×ķ× ŀ×
Ġ×ľ×Ķ× ¨×
Ġ×ĳ×Ļ× ŀ×Ļ×Ŀ
ľ×Ļ× ¤×Ļ×Ŀ
Ġ×©×ķ× Ľ×Ĺ×Ļ×Ŀ
×ķ×ķ× §×Ĳ
Ġ×ŀ×Ķ× ĳ×Ļ×
Ġ×ŀ×Ķ× ŀ×ķ×
Ġm other
Ġ×§×ķ× ¨×¢
Ġ×Ķ×©× ¢×ķ×Ł
Ġ×ŀ×¡× ¨
Ġ×ĳ×©× ĳ×ķ×¢
Ġ×ł×©× Ľ×Ĺ
¨×Ĵ ×Ķ
Ġ×ľ×¢× ĸ×ķ×ĳ
Ġ×ĸ×ķ× Ĵ
ĳ×¢ ×Ļ×Ŀ
Ĵ×ķ× Ĵ
Ġ×ĵ×ķ× ŀ×Ķ
Ġ×ĵ×ķ× §×ĺ×ķ×¨
Ġ×Ķ×§× ¨×ĳ
Ġ×Ķ×§× ¨×Ĳ×§
Ġ×ľ×Ĺ× ¥
Ġ×ŀ×§× ĳ×ľ×Ļ×Ŀ
Ġ×©×Ķ ×ķ×
Ġ×ł×Ļ× Ĵ×©×ª×Ļ
Ġ×Ĵ×ķ× ¦
Ġ×ª×§× ľ×ķ×ĺ
Ġ×ª×Ļ× Ĵ×¢
Ġ×¦×ķ× ĳ×¨
Ġ×Ĳ×ľ× Ľ×ķ×Ķ×ķ×ľ
Ġ×ķ×Ķ ×Ļ×ķ×Ŀ
Ø´ ÙĬ
Ġ×ł×Ĺ× ©×ĳ
ad y
Ġ×ĳ×Ĳ×ķ× ĺ×ķ
ĠØ¹ Ùħ
Ø§ÙĦ ÙĬ
¤×¨× ł×¡
Ġget ting
Ġ×Ľ×ł× ¤×Ļ×Ļ×Ŀ
Ġ×Ķ×Ľ×Ļ× £
Ġ×Ķ×¤×¨× ¦×ķ×£
Ġ×Ĳ×Ķ× ĳ×ª
Ġ×¡×Ļ×Ļ× ŀ×ª×Ļ
Ġ×§×ķ×ľ× ĺ×Ļ×Ŀ
âĢ¦ ,
Ġey es
g et
i k
Ġ Ñ
×ķ ×ķ×Ĳ
×Ļ× ľ×ĵ
ľ× ¢
ĳ× ľ×ª×Ļ
Ġ×Ĳ× ĳ×Ļ
Ġ×ľ× ĺ×ķ×¤
Ġ×Ķ× Ĺ
Ġ×ŀ× ¦×ķ×
Ġ×ŀ× ĳ×Ļ×ª
Ġ×ĳ× ŀ×Ļ×Ŀ
Ġ×ĳ× ¤×ķ×ľ
¤× ª×Ŀ
¤× ĺ×Ļ
Ġ×Ľ× ĳ×
Ġ×¢× ¦×ķ×¨
ĵ× ¤×
ĵ× ł×Ķ
Ġ×Ļ× ĳ×
Ġ×© ×ķ×ķ×
Ġ×¨× ĵ
×Ļ×Ļ× ł×ķ
Ĺ×ķ× ©
Ġ×Ĵ× ĵ×Ļ
Ġ×¨×ķ× ª×Ĺ
Ġ×ľ×Ķ× Ľ×ł×Ļ×¡
¨×Ļ× ¢
Ġ×ĳ×ķ× Ĳ×ł×Ķ
in al
Ġ×Ĺ×ķ× ĸ×Ķ
Ġm u
ou nt
Ġ×¦× ľ×ķ×ľ
Ġ×§×ķ× §
Ġd ance
×Ĳ× ĳ×Ļ×ĳ
Ġ×©×Ļ× ł×Ļ×Ļ×Ŀ
×ķ×ķ ×Ļ×ĵ
Ġ×ķ×Ķ× Ł
Ġ×ŀ×Ļ× ľ×Ļ
Ġ×ĸ×ķ× Ķ×¨
Ľ×Ļ× ¡
Ľ×Ļ× Ĺ
Ġ×§ ×Ļ×Ļ×
Ġ×§ ×Ķ×ľ
Ġ×¡×Ļ× ¤×ķ×¨×Ļ×Ŀ
Ġto o
ĠØ¨ Ø§Ø¨
ĠT el
Ġ×ķ×ĳ× ¡×ķ×£
Ġ×ĵ×Ļ× ĳ×ķ×¨×Ļ×Ŀ
Ġ×ĳ×¤× ¨×
Ġ×ľ×¡× ¨×ĺ
Ġ×ĺ×ķ× ¨×£
ª×Ļ× ĳ×Ķ
Ġ×Ļ×ľ×ĵ ×ķ×ª
×ķ×ķ×Ļ× ł×Ķ
im p
Ġ×ĳ×ĳ× Ĳ×
Ġ×Ľ×© ×Ļ×©
ĠD o
ĠH ow
Ġ×ŀ×ľ×Ĳ ×Ķ
Ġ×ĳ×¢ ×Ļ×Ł
Ľ×ł× ¢
Ġ×ŀ×ª×§× ĵ×Ŀ
Ġ×ķ×§× Ĳ×©
Ġ×ł×ĵ× ĳ×§
Ġ×©×¤× ¨×Ļ×¥
Ġ×ŀ×©×Ĺ× ¨×¨
st on
Ġ×ª×Ľ× ł×Ļ×¡
Ġ×ĳ×Ľ×ķ× Ĺ
Ġ×©×§×ķ× £
ĠK ing
Ġ×ĳ×¡×Ļ× ĳ×ķ×ĳ
Ġ×Ľ×Ĳ× ¤×Ķ
Ġ×ŀ×ĳ×¡×ķ× ĺ
? )
? ""
z y
¡ ×ķ
¡ ×ķ×Ŀ
× ¤×ķ×
Ĳ ×ķ×¨
ĵ ×Ļ×©
Ġ×ľ× ©×ķ×Ł
Ġ×Ķ× ¦×¨×ķ×ª
Ľ× ľ×Ļ
Ľ× ł×Ķ
Ľ× ŀ×ª
¨× ¨×Ļ×Ŀ
¨× Ĺ×ª
¢× ĵ×Ļ×Ŀ
ª× ł×Ļ×Ŀ
Ġ×ĳ× ĺ
Ġ×ĳ× ĳ×ķ×Ŀ
Ġ×©× ļ
§× ĳ×ľ
Ġ×¢× Ľ×
Ĵ× ľ×Ĵ×ľ
Ġ×ª× ŀ×Ļ×
¦× ł×Ļ×Ŀ
¢×ķ× ĺ
ĺ× ĳ×Ĺ
Ġ×Ĳ×Ļ× ĺ×Ļ
Ġ×Ĺ× ĸ×Ļ×¨
Ĺ×ķ× ĺ
ľ×Ĳ ×ķ
Ġ×¨×ķ× §
Ġ×Ľ×ķ× ª×ĳ×Ļ×Ŀ
Ġ×ĳ×Ļ× ©×¨×Ĳ×ľ
ł×Ļ× ¢
Ġ×Ĺ×ķ× §×Ļ
×ķ×ķ× Ĳ×Ł
¤×ķ× ¦
ÙĬ Ø¯
©×ķ× £
Ġ×ľ×ŀ× Ľ×ķ×¨
Ġ×Ķ×ĳ× Ĳ×Ķ
Ġ×©×ŀ× Ĺ×Ķ
re e
Ġ×¡×ķ× Ĵ
Ġ×Ķ×Ĺ× ĵ×©
Ġ×¤×ķ× ¤
Ġ×¤×ķ× Ĺ×ĵ
Ġ×¤×ķ× §×¡
Ġ×¨×Ĳ× ¡×ĺ×Ķ
Ġ×Ľ×©× Ľ×ķ×ľ×Ŀ
Ġ×Ľ×©× Ĳ×ł×
Ġ×Ķ×Ļ× ª×¨
¤×ª ×ķ×¨
Øª Ø¨
Ġ×ĳ×¡× ª×¨
Ġ×Ĵ×ķ× ł×ĳ
ĠA viv
Ġ×ķ×ĳ× ©×
Ġ×¦×ķ× ľ×ľ
Ġ×ľ×ł× Ĺ×ķ×ª
Ġ×ĺ×ķ× §
Ġ×ª×ª× ¤×
Ġ×ł×Ĺ× ŀ×Ķ
Ġli ve
Ġ×ł×Ľ×ł×¡ ×Ļ×Ŀ
Ġ×ª×ŀ× ©×Ļ×ļ
Ġ×©×ľ× Ĺ
Ġ×ŀ×ª×ķ× §×Ļ×Ŀ
Ġ×ŀ×ķ×©× Ĵ
Ġj ud
Ġ×Ķ×¦ ×ķ×ķ×Ĳ×¨
Ġ×©×Ĺ×ķ×¨ ×Ļ×Ŀ
Ġ×ĳ×ĸ× ŀ×ł×Ļ×Ŀ
Ġ×ŀ×ķ×Ľ× ł×Ļ×Ŀ
Ġ×ª×¦× ľ×Ļ×Ĺ×ķ
Ġ×Ĳ×ĵ ×ķ×Ł
Ġ×Ķ×¤×¡× §×ª×Ļ
Ġ×ľ×ķ×Ĺ× ¥
Ġ×©×ĳ×ķ×¢ ×Ļ×Ļ×Ŀ
ĳ×Ĳ× ĳ×Ĳ×
Ġ×ŀ×¨×Ļ×Ĺ ×ķ×ķ×Ļ×ł×Ķ
Ġ×ľ×¡×ķ× ĳ×ĳ
Ġ×ª×§×©×Ļ× ĳ×Ļ
ĳ×¢× ĳ×¢×
Ġar ound
Ġ×Ĺ×ŀ ×Ļ×©×Ļ×Ŀ
a it
i er
r ic
v ing
¢ ×Ļ×ľ
Ð ´
× Ĵ×ķ
Ġ own
ŀ× Ĳ×¡
¢× ª×Ŀ
Ġ×©× ĳ×¨
ł× ¡×
ł× ĵ×Ļ×
ł× ¦×Ĺ
Ġ×Ľ× ¡×
§× ĳ
Ġ×¢× ¨×ļ
Ġ×¢× ¤×Ļ×Ŀ
Ġ×ķ× ĸ×Ĳ×ª
Ġ×ª× ©×ķ×
×Ķ× ĳ×Ļ
Ġ×Ļ× ¨×ĵ
Ġ×© ×Ļ×¨×Ķ
ĸ× ª
Ġ×ª ×ķ×ķ×ª×¨
×Ļ×Ļ× ª×Ķ
Ġ×Ĳ×ķ× ¤×¡
×Ļ×ĵ ×Ļ×ķ×
Ġ×ľ×Ķ× ¡×ª×Ľ×ľ
Ġ×ŀ×ķ× ł×ķ×
Ġ×Ľ×ķ× ©×Ļ×Ŀ
Ġ×ĳ×Ļ× ĺ×Ĺ×ķ×Ł
Ġ×Ĺ×ķ× ¤×¨
Ġ×Ĺ×ķ× ŀ×ķ×ª
Ġ×Ĺ×ķ× ĵ×©
Ġ×©×ķ× Ĳ×£
©×Ļ× Ĵ
ÙĬ Ùģ
ÙĦ Ø¨
Ġw in
Ġ×ĸ× ŀ×ł×Ļ×Ŀ
Ġ×ĺ× ¨×Ļ
Ġ×Ķ×ĳ× Ĳ×Ļ×Ŀ
×Ĳ× ŀ
Ġ×Ķ×¤× ¨×Ĺ×Ļ×Ŀ
Ġ×ľ×©× ľ×Ŀ
©×ĳ ×Ļ
Ġ×¡×ķ× ¤×¨×
Ġ×ľ×¢× ĸ×Ĳ×ĸ×ľ
Ġ×ľ×ĳ× §×©
Ġ×ķ×ķ× Ĳ×§
Ġ×ķ×ķ× ĵ×§×Ķ
Ġp os
ÙĪ Ø¯
Ġ×ĳ×§× ¦×ĳ
×Ļ×ķ× ł×ķ×ª
Ġ×ĳ×Ĺ× ¦×ķ×
le ase
Ġ×Ĳ×Ĺ ×ķ×Ļ×Ķ
Ġ×ł×ª× §×
ĠN ot
Ġ×ŀ×ĺ× ¤×¡
Ġ×Ķ×ĳ×ķ× ¡
Ø¬ ÙĬ
Ġ×ŀ×¤×ķ× §×ķ×¡
ÑĤ Ð¾
Ġ×ŀ×ĸ×ķ× ŀ×ł×Ļ×Ŀ
×Ļ×ľ×Ļ× ł×Ĵ
Ĺ×Ļ×ª ×ķ×ª
Ľ×ķ×ķ× ł×Ķ
¤×ľ× §×¡
Ġ×Ķ×ķ×ķ ×Ļ×ĵ
ĵ×ŀ× ł×ķ×ª
Ġhand s
ĠÙĬØ¹ ÙĨÙĬ
Ġ×ĳ×©×ĳ×ķ×¢ ×Ļ×Ļ×Ŀ
! !,
b el
e ct
r ow
¤ ×Ķ×
Ø ¦
ŀ× ŀ×
ŀ× ĳ×ķ
ŀ× ¤×¨×Ļ×Ķ
Ġ×Ķ ×ķ×¨×Ļ×ĵ
©× ¢×Ļ×Ŀ
Ġ×ľ× ¢×Ļ×¨
Ġ×Ķ× Ĺ×ķ×Ŀ
Ľ× ¨×ª×Ļ
ł× ¥
ł× ĺ×¨
Ġ×¢× ¨
¡× ŀ×Ļ
Ġ×ķ× Ĳ×Ł
Ġ×ª× ¤×¡
Ġ×ª× ©×ķ×ĳ×Ķ
Ġ×Ļ× ĳ×Ļ×Ĳ
Ġ×¨× ¦×ķ×Ł
Ġ×¤× Ŀ
Ġ×¤× ĺ×
Ġ×¤× ł×ĺ×
Ġ×§× ĵ×ķ×
Ġ×§× ľ×Ļ×ĺ
Ġ×Ĳ×ķ× Ľ×ľ×ª
Ġ×¤ ×Ļ×ľ
×ķ×ĳ ×Ļ×Ŀ
Ġ×¡× ľ×Ĳ×
Ġ×¡× ¤×Ļ×
§×ķ× ŀ×Ķ
¨×Ļ× Ĺ×Ķ
Ġ×ĵ× ĳ×©
Ġ×ĺ ×Ļ×Ļ×Ŀ
Ġ×ŀ×ķ× ¡×
×Ļ×Ĳ ×ķ×
×Ļ×© ×Ļ×ª
Ġ×Ĺ×ķ× §
Ġ×Ĺ×ķ× ª×Ŀ
©×Ļ× ª×Ļ×¢×
ł×Ĵ ×Ķ
Ġ×ĳ×Ĳ× §
Ġ×ŀ×Ĺ× ľ×§
Ġ×ľ×ŀ× ¦×Ļ×Ĳ×ķ×ª
Ġd es
×Ĳ× £
×ķ×ķ ×Ļ×¨×Ķ
ĺ×ķ× ©
Ġ×ķ×Ķ× ¤×
Ġc a
Ĵ×ķ× ¢×Ļ×Ŀ
ĺ×Ļ× ĳ×Ķ
Ġ×ľ×Ľ× ĳ×ķ×©
Ġ×ľ×Ĺ× ĳ×¨
Ġ×ľ×Ķ×ª× ŀ×ķ×ĵ×ĵ
Ġ×ŀ×¤× ª×Ĺ
Ġ×ŀ×¤× Ĺ×ĵ×Ļ×Ŀ
Ġth rough
Ġ×ĳ×Ĵ× ĳ
Ġ×Ļ×©× ł×Ļ×Ŀ
Ùĥ Ùħ
Ġ×ľ×¨× ¦×ķ×ª
as h
Ø³ Øª
×¤× Ĳ×§×Ļ×ł×Ĵ
Ġ×ĳ×ľ× ĳ×ľ
×ķ×Ļ× ł×ĺ
Ġ×ł×¤× ľ×ª×Ļ
ĠL ike
Ġ×ŀ×¡×ķ× ĳ×
Ġ×Ľ×©×Ķ× Ŀ
×¡× ĳ×ĳ×Ķ
Ġ×¢×ĳ×¨ ×Ļ×ª
Ġ×¢ ×Ļ×Ļ×£
Ġ×Ľ×ķ×¡ ×ķ×ª
Ġ×Ľ×ŀ×ķ× ĳ×Ł
Ġ×ĳ×ª ×Ļ×Ŀ
Ġ×Ĳ×©× Ľ×¨×Ķ
Ġ×Ĳ×Ļ×ł× ¢×ľ
Ġ×¢×ĸ× ĳ×Ļ
Ġ×Ĺ×ľ× ©
Ġ×Ķ×ķ ×Ļ×Ļ×ĳ
Ġ×Ĺ×Ļ×Ļ× ľ×Ļ×Ŀ
Ġ×ŀ×©×Ĺ× §×ª
Ġ×Ľ×©×Ķ ×Ļ×Ĳ
Ġle ave
ag e
Ġ×Ľ×Ĳ× ¤×ķ×ª
Ġ×§×© ×ķ×¨
Ġ×ŀ×ł×Ķ ×Ļ×Ĵ
Ġ×ĵ×ķ×¤× §×ª
Ġ×ĳ×ĵ ×Ļ×¨×Ķ
Ġ×ŀ×Ĳ ×Ķ×ĳ×Ķ
ĠSe e
ĠÙĦØ§ Ø²
Ġ×¡×Ļ×Ĵ×¨ ×Ļ×Ķ
Ġ×Ķ×ĳ×Ĳ× ¡×Ļ×Ŀ
Ġ×ĳ×Ĺ×¦×ķ× ¦×¨×Ķ
h y
× ĸ×ķ×
× ł×Ļ×ª
×Ļ× ł×Ļ
ľ× ŀ×ķ
ŀ× ł×Ļ×ª
ŀ× ĵ×ª×Ļ
Ġ×Ĳ× ł×Ķ
Ġ×Ĳ× ĺ×ķ×Ŀ
©× ŀ×ª×Ļ
©× ŀ×ľ
Ġ×ľ× ĳ×¨
¨× ĵ×Ļ
ª× ŀ×Ļ×ĵ
ª× §×Ļ×Ŀ
Ġ×ŀ× ©×ķ×Ŀ
ł× £
Ġ×Ľ× ł×¡
ĵ× ľ×Ķ
Ĵ× Ĳ
Ġ×ŀ ×ķ×ķ×ª
Ġ×ª× ŀ×ķ×ł×ķ×ª
Ġ×Ļ× ¤×ķ×ľ
Ġ×ł× Ĺ×ª
Ġ×ł× ©×Ļ×ŀ×Ķ
Ġ×Ĳ×Ļ× ©×Ļ
Ġ×Ĺ× Ł
Ġ×Ĳ×ķ× ©×¨
Ġ×Ĵ× ŀ×ķ×¨
ľ×Ĳ ×Ļ
Ġ×¡× ¤
Ġ×¡× ľ×ķ×
Ġ×ľ×Ķ× ¤×ķ×ļ
Ġ×ĵ× ł×Ķ
Ġ×ŀ×ķ× ¦×
Ġ×Ļ×© ×Ļ×¨
Ġ×Ķ×ŀ× ĸ×ľ
Ġ×Ķ×ŀ× ª×Ĺ×¨×Ļ×Ŀ
he t
¤×ķ× ¨×¨
Ġ×Ķ×ķ× ¨×
Ġ×Ķ×Ĳ× ŀ
Ġ×ĺ× ľ×
Ġ×ĺ× ¤×ķ
Ġ×ĳ×ŀ× ¡×Ļ×ĳ×Ķ
Ġ×ķ×Ĳ× ĳ×Ĳ
Ġb ig
Ġ×ŀ×Ļ× ł×Ļ×ŀ×ķ×Ŀ
Ġ×ŀ×¢× ľ×Ļ×Ļ
¡×ĺ ×ķ×Ł
ĵ×¨ ×ķ×ª
Ġ×Ķ×Ĵ× ĳ×ķ×ľ
Ġ×§ ×Ļ×Ļ×§
Ġ×Ķ×¡× Ĵ×ł×ķ×Ł
¤×Ļ× ª×Ļ
Ġp ar
Ġ×¤×Ĳ× ł×¦
Ġ×ł×Ļ× ¤×ķ×ľ
Ġ×Ĵ×ķ× ĵ
Ġme k
Ġ×Ķ×¢× ¡×§
×ĳ× ľ×Ĳ×Ĵ×Ł
Ġ×Ĵ×ĳ×¨ ×Ļ×Ŀ
ĠâĢ ı,
Ġ×ª×¢× ©×Ļ
Ġst ep
Ġ×ª×ª× ł×Ļ
Ġ×¨×Ļ× ľ
Ġ×¨×Ļ× ĺ×ķ
Ġr ap
ĠH a
Ġ×ª×¤× Ĺ×ĵ
ĠL e
op e
Ġsh ould
Ġ×Ĳ×ľ×ķ× Ķ×Ļ
Ĳ×ŀ× ¥
Ġ×ŀ×©×ª× ĵ×ľ
Ġ×ŀ×Ľ×ķ× ł×ª
Ġ×Ķ×Ľ×Ļ× ¡
Ġ×©×Ĳ×ķ× ŀ×¨×Ļ×Ŀ
Ġ×¢×ķ×§× ĳ
Ġ×ľ×Ķ×Ĺ× ĸ×Ļ×§
Ġ×©×©×ķ× ŀ×¢×Ļ×Ŀ
Ġ×Ĵ×ĵ×ķ× ľ×Ķ
Ġ×ķ×ĳ×Ļ× ł×ª×Ļ×Ļ×Ŀ
Ġ×¨×¦×Ļ× ł×Ļ
Ġ×Ĺ×ĺ× ¤×ª×Ŀ
¨×ķ×ŀ× ł×ĺ×
Ġ×§×Ļ×ĺ× ©×Ļ×ª
Ġ×ĳ×ķ×Ļ× Ĳ×§×Ķ
Ġ×¢×Ļ×ķ ×ķ×¨
Ġ×Ĳ×ĵ×Ļ× ĵ×¡
sel f
Ġ×Ľ×ľ×Ľ× ļ
n y
o h
Ö ¼
× Ĺ×Ļ
ŀ ×Ļ×Ļ×Ł
ľ× §×ľ
Ġ×ľ× ¤×Ļ×
Ġ×ľ× ©×ķ×Ŀ
Ľ× ł×Ł
Ġ×ŀ× Ĵ×Ļ×
Ġ×ĳ× Ĺ
Ġ×ĳ× ĺ×Ł
Ġ×©× ĵ×ķ×
Ġ×©× ŀ×ķ×¨
Ġ×©× Ĺ×Ļ×
Ġ×©× Ĺ×ķ×¨×Ķ
ł× Ĺ
¤× ł×ķ
Ġ×Ľ× ĵ×ķ×¨×Ļ×Ŀ
¡× ł×ķ
Ĵ× ĳ×¨
Ġ×ķ× Ĵ×ķ×
Ġ×ķ× ĸ×ķ×
Ġ×Ļ× ĳ×©
Ġ×© ×Ļ×Ĳ
ĳ×Ļ× ľ×Ļ
¨×ķ× ¢×ķ×ª
Ġ×ª ×ķ×Ŀ
Ġ×Ĺ× ľ×ľ
Ġ×¡× ł×Ļ×
Ġ×ŀ×ķ× ¨×Ŀ
¡×Ļ× ¡
¡×Ļ× ĳ×Ļ
in es
ľ×Ļ× ¥
Ġ×©×ķ× ľ×Ĺ×Ł
Ġ×©×ķ× §×ķ×ľ×ĵ
Ġ×ŀ×Ķ× ĳ×Ļ×ª
Ġ×ĳ×Ĳ× Ŀ
Ġ×ĺ× ĳ×¢
Ġ×ĺ× ¨×Ĳ×§
Ġ×Ķ×ĳ× ł×Ļ
Ġ×©×ŀ× ¤×
Ġ×ķ×Ķ× ¡×
Ġy o
Ġ×Ķ×ª× Ĳ×
Ġ×ľ×ĳ× ł×Ļ×Ŀ
¨×§ ×ķ×Ł
Ġ×¤×ķ× ¨×©
Ġ×Ķ×Ĵ× ¨×ķ×ĳ
ª×Ĺ ×Ļ×ľ×ķ
Ġ×©×Ĳ× ¡×ķ×¨
Ġp o
Ġ×ľ×Ļ× ľ×ĵ×Ļ×Ŀ
Ġ×ŀ×§× ¦×ĳ×Ļ×Ŀ
Ġ×Ķ×Ľ× ĳ×Ļ×©
Ġ×ĳ×¢× ĳ×¨
Ġ×©×ª× Ĺ×
Ġ×ŀ×Ľ× ł×¡
Ġ×ª×Ļ× Ľ×ķ×Ł
ľ×ĺ ×ķ×ª
Ġ×ĺ×Ļ× ¡×Ķ
ĠB aby
¨×ĵ ×ķ×ª
ĠÙĪ Ø¨
Ġ×ł ×Ļ×Ķ×Ļ×Ķ
ĠY a
Ġ×ķ×Ľ× ŀ×ķ
ĠÐ ±
¨×Ĵ× ¨×Ĳ×ķ×ł×ĵ
Ġ×ĳ×Ķ× ¤×
ĠØ¹ ÙĨ
Ġwh y
Ġ×§×ľ×Ĳ× ¡×Ļ
Ġ×ĳ×ŀ×Ļ× §×¨×ķ×¤×ķ×Ł
¦×ķ ×ķ×ª
Ġ×ŀ×ĸ×ķ× ŀ×ł×Ļ
×ĳ×Ļ× Ĵ
ł×Ĵ×Ļ× ł×ķ×ª
×Ļ×ľ×Ļ× ¡×ĺ
Ġpl an
Ġ×ĳ×Ĳ×ķ×ª ×ķ
Ġ×ľ×Ķ×ª×§× ĵ×Ŀ
Ġfuck ing
Ġ×ŀ×¦×ĺ× ¢×¨
illion s
Ġ×ľ×Ķ×Ĳ× ŀ×Ļ×Ł
Ġ×ŀ×Ļ×Ļ×¦× Ĵ×Ļ×Ŀ
n o
¡ ×Ļ×Ķ
¤ ×Ļ×ľ×ķ
Ø ¡
ĵ ×Ļ×Ķ
ŀ ×Ļ×Ļ×§
×ķ× Ĺ×ĵ
×Ļ× ĳ
×Ļ× ł×Ĵ
ľ× Ĵ×Ł
ĳ× §×©
Ġ×ľ× ĳ×ľ×ķ×ª
Ľ× ļ
ª× ¨×Ļ×Ŀ
Ġ×ĳ× ĳ×¨
Ġ×©× ĺ
Ġ×©× ŀ×ķ×ª
Ġ×©× ĸ×ķ×
Ġ×©× ĺ×ķ×ª
¤× ĸ
¤× §×Ļ×Ŀ
§× ¦×Ļ×Ķ
Ġ×¢× ¦×Ķ
Ġ×ķ ×Ļ×Ļ×Ł
¡× §×ķ×
ĵ× ŀ×ª
Ġ×Ļ× ¡
ĳ×Ļ× ¡
¨×ķ× ¤
ĺ× ©
Ġ×¤× ¨×¡
Ġ×¤× ©×¢
Ġ×Ĺ× ľ×ķ×Ł
Ġ×¤ ×ķ
Ġ×Ĵ× ľ×Ļ
Ġ×Ĵ× ¨×Ĳ×
Ġ×¡× ©×Ł
Ġ×ĵ× ¨
ŀ×ķ× ĵ×Ļ×Ŀ
Ġ×ĳ ×Ļ×Ļ×ĳ
Ġ×Ķ×ŀ× ¤×
in t
Ġ×ŀ×ª× ¤×ķ×¦×¥
ľ×Ļ× ł×Ĵ
Ġ×Ĺ×ķ× ĵ×¨
Ġs it
Ġ×ŀ×Ķ× ŀ×Ļ×
Ġ×ŀ×Ķ× ª×Ĺ×ľ×Ķ
Ġm ad
ÙĦ Ùħ
Ġ×ŀ×©× §×Ķ
Ġw r
Ġ×Ķ×©× Ĺ×ķ×¨
Ġ×ĳ×Ĳ× ĳ×Ĳ
§×Ļ× ľ×Ķ
Ġ×©×Ļ× ¤×Ļ×ľ
Ġ×ķ×Ĳ× ł
Ġ×ł×©× ĳ×ķ×¨
Ġ×ł×©× ¤×ļ
Ġb ooty
Ġ×ķ×Ķ× Ĺ×Ļ×Ļ×Ŀ
Ġ×ľ×Ĳ× ŀ×Ĳ
Ġ×Ķ×Ĺ× ¨×ķ×ĸ×Ļ×Ŀ
¡×ĺ ×ķ×¨
Ġ×©×Ĳ× Ŀ
Ġ×ľ×Ĺ× ĳ×¨×Ķ
Ġ×ĳ×¨× §×¢
¤×ª ×Ļ×
Ġ×ŀ×§× ¤×Ļ×¥
Ġ×ŀ×ĳ× Ĺ×Ļ×
Ġ×ł×Ļ× ŀ×Ļ
Ġ×ĳ×¢× ľ
Ġ×Ĳ×Ĺ×Ļ ×Ļ
ĠØ§ÙĦ Ø´
Ġ×¢×¦× ŀ×Ŀ
ĠB r
Ĵ×¨ ×ķ
ĠW here
Ġ×ľ×Ĵ× Ĳ×ł×Ĵ
Ġ×ľ×Ķ×Ļ× ľ×Ĺ×Ŀ
Ùģ ÙĬ
Ġ×ĳ×¦× ĳ×¢
Ġ×Ļ×ľ× ĵ×Ļ
Ġ×¦×ķ×¢× §×ª
Ġtr uth
Ġ×ŀ×ķ×¦×Ĳ ×Ļ×Ŀ
Ġ×ĳ×¨×Ļ× Ĳ
Ġ×Ĺ×Ļ×Ļ× ĳ×Ļ×Ŀ
Ġ×Ĺ×ĵ× ©×Ļ×Ŀ
Ġ×ŀ×ª×ŀ× ľ×Ĳ
Ġ×§×¨×Ļ× ¡×
Ġpl ace
Ġ×¦×ĵ ×Ļ×§×Ļ×Ŀ
ĠWh o
Ġsp e
Ġ×ĳ×ª×Ĺ× ł×Ķ
Ġ×ł×ķ×¡× ¢×Ļ×Ŀ
ĠEvery body
Ġ×¤×¨×Ĳ ×Ļ×Ļ×¨
Ġ×ª×ĸ×Ļ× ĸ×Ļ
Ġ×Ĺ×¨×Ļ× £
Ġ×ŀ×ª×Ĺ ×Ļ×ľ×Ļ×Ŀ
×Ļ×ĵ×Ļ×ķ× ĺ×Ļ×Ŀ
b e
× Ĺ
× ĺ×ķ×
× ĺ×Ļ×
Ø Į
Ġ ve
Ĳ× Ĳ×
ľ× §×¡
Ġ×ľ× ¨×ķ×
Ġ×ľ× ĸ×ŀ×Ł
Ġ×ľ× ĺ×Ļ×
Ġ×Ķ× ŀ×Ļ
Ġ×Ķ× §×ķ
¢× ¨×Ļ×Ŀ
Ġ×ŀ× Ĵ×Ķ
Ġ×ŀ× ĸ×ķ
Ġ×ĳ× Ľ×Ļ
Ġ×©× ŀ×ķ
Ġ×¢× §×ķ×Ŀ
Ĵ× ĵ×ľ
Ġ×ķ× ¡×Ļ×
×Ķ× ľ×ķ
Ġ×Ļ× §×ķ×Ŀ
ľ×Ļ ×Ļ×ľ×Ļ×¡×ĺ
×ķ×¨ ×Ļ×
Ġ×Ĳ×Ļ× ŀ×Ĳ
Ġ×¢×ķ× Ĵ×Ķ
Ġ×§× ¤×
Ġ×§× ¨×Ļ×Ŀ
Ġ×¤ ×Ļ×§
Ľ×ľ ×ķ
Ġ×Ĵ× ĵ×ľ
Ġ×ĵ× ĳ×Ļ×ľ
Ġ×ŀ×ķ× ĸ×Ļ×
Ġ×ĵ ×ķ×Ł
Ġ×Ķ×ŀ× ĺ×
Ġ×Ķ×ŀ× ©×ķ×
Ġ×Ķ×ŀ× ĸ×¨×Ĺ
ľ×Ļ× ľ×Ļ
ľ×Ļ× ĺ×Ķ
Ġ×Ĺ×ķ× ĳ×Ķ
Ġ×Ĺ×ķ× ĳ×ķ×ª
ª×ķ× ł×ķ×ª
×ķ×ķ× ĵ×¨
¤×ķ× §×Ļ×Ŀ
Ġ×Ĵ ×Ļ×ľ
Ġ×ŀ×Ķ× ľ×ĳ
Ġ×ł×ķ× ©×Ĳ
×Ļ×ķ ×ķ×Ļ×
Ġ×ŀ×¡× ļ
Ġ×©×ŀ× ©×Ķ×ķ
Ġ×ľ×¤× Ĵ×ķ×¢
Ġ×Ķ×¨× £
Ġ×Ķ×¨× Ĺ×ķ×ĳ
... ),
Ġ×ĸ×ķ× ĸ×Ļ
Ġ×ŀ×¢× Ĵ×ľ
Ĵ×ķ× ľ×Ķ
Ġ×©×Ĳ× ŀ×¨
Ġ×Ĳ×ŀ× ¦×Ĳ
Ġ×Ķ×§× ©
Ġ×ľ×Ĺ× ĳ×§
Ġ×Ķ×¡× ĺ×
Ġ×ľ×Ļ× Ĵ×Ķ
Ġ×ľ×Ļ× ŀ×ĵ
al u
Ġ×ĳ×§× ľ×Ĳ×¡
ĠØ¨ Ø¯ÙĬ
Ġ×ķ×ĳ× ª×
Ġ×ª×Ļ× ł×ķ×§
Ġ×¢×¦× ŀ×ķ
Ġ×ł×ŀ× ©×ļ
Ġ×ķ×Ķ ×Ļ×
Ġ×Ķ×ŀ×ķ× ¡×Ļ×§×Ķ
Ġ×ł×ª× ª
Ġ×ŀ×¡×ª× ĳ×¨
ŀ×Ĳ ×ķ×ª
Ġ×ª×¤× ¡×ª×Ļ
ĠG ot
Ġ×ł×¨× §×ķ×
Ġ×ł×Ļ ×Ļ×¨
Ġdo or
Ġ×Ĳ×ĵ ×Ļ×©
ĠÙĩ ÙĬ
Ġ×ł×ĸ× Ľ×¨
Ġ×ŀ×ķ×§× ĵ×©
th ing
Ġ×ĺ×§×¡×ĺ ×Ļ×Ŀ
Ġ×©×Ļ×©× ŀ×ķ×¨
Ġkill in
ret ty
Ġmu ch
ĠKing ston
b er
r om
w o
w an
¢ ×Ļ×ª
ł ×Ļ×§×Ķ
Ġ×Ĳ× §×¡×ķ×Ŀ
Ġ×Ķ× ¨×Ļ×Ŀ
Ľ× £
¨× ©×ª
¨× ¤×ľ
ł× Ĳ×
ł× ¦×
Ĺ× ĸ
¤× ¨×ķ×Ł
Ġ×Ľ× ł×Ķ
Ġ×Ľ× ĳ×Ļ×©
§× ł×Ļ
§× ĺ×
ĵ× ©×Ļ×Ŀ
Ġ×ķ× ĳ×ķ×Ĳ
Ġ×Ĳ×ª ×Ļ×ķ×
×Ķ× ©×
Ġ×ľ×Ļ ×Ļ×Ł
¢×ķ× ¨×Ļ×Ŀ
ĺ× ¤×Ļ×Ŀ
Ľ×ķ× ł×ķ×ª
Ľ×ķ× ľ×ª
Ġ×¤× ł×ķ×
Ġ×§× ¢×
Ġ×Ĵ× ¨×Ĳ×¡
Ġ×ŀ×Ķ ×Ļ×ķ×Ŀ
Ġ×¨×ķ× Ľ×ĳ
Ġ×ĵ× ¤×§
Ø§ Ø§
Ġ×ĺ ×Ļ×Ļ×§
Ġ×ŀ×ķ× Ĺ
Ġ×ŀ×ķ× ¤×
Ġ×ŀ×ķ× ¡×¨
¡×ķ× ¡
Ġ×Ķ×ŀ× Ĺ×¨
Ġ×ĳ×Ļ× Ĵ×Ļ
×Ļ×Ĳ ×Ķ
Ġ×ĳ×Ĳ ×Ķ×ĳ×Ķ
Ġ×©×ķ× Ľ×ĳ
Ġ×©×ķ× ĺ×£
Ġ×©×ķ× ¨×©×Ļ×Ŀ
¤×ķ× ĵ
ou l
Ġ×¦× ŀ×
Ġ×§×ķ× ĺ×Ĵ
Ġw here
Ġ×ĳ×Ĳ× ĺ
Ġ×ŀ×Ĺ× ĳ×¨
Ġ×©×Ļ× ª×
Ġ×Ķ×¤× ł×¨
Ġ×ķ×Ķ× ł×Ķ
Ġl oud
Ġ×Ķ×ª× ¢×
Ġ×©×Ķ× ¨×Ĳ×¤
Ġc are
Ġ×ĸ×ķ× Ľ×¨×ª
Ġ×ķ×ŀ× ¨×Ĵ×Ļ×©
Ġ×Ķ×Ĵ× ĳ×¨
Ġ×Ķ×Ĵ× ĵ×ķ×
Ġ×Ķ×Ĵ× ©×Ŀ
Ġ×©×Ĳ× ľ×ķ×Ķ×Ļ×Ŀ
Ġ×ª×ķ× ¤×Ļ×Ŀ
Ġ×ľ×Ĺ× Ŀ
Ġ×Ķ×¡× ¦×Ļ×ł×Ķ
ÙĪ Øª
Ġ×ĳ×Ľ× ¤×Ļ×Ļ×Ŀ
Ġ×ĵ×Ļ× Ĵ
Ġ! ?
¦×Ļ×Ĳ ×Ķ
Ġwe ll
×¤× ĸ×ŀ×ķ×Ł
Ġ×ł×¢× ľ×Ļ×Ļ×Ŀ
ĠN a
Ġre m
ÙĤ Øª
ĠC ome
Ġ×Ľ×©×Ķ× ŀ×
Ġ×ŀ×ĸ× Ľ×Ļ×¨
Ġ2 4
un g
ĠØª Ø§ÙħØ±
Ġ×ĳ×Ľ×Ļ× ¡×Ļ×Ŀ
Ġ1 6
Ġ×ĳ×Ĵ ×ķ×ĳ×Ķ
×Ĵ× ĳ×¨
Ġ×ĳ×¦ ×ķ×¨×Ķ
ľ×Ĵ× ¨×Ĳ×¡
Ġ×Ķ×ª×§× ľ×Ļ×ĺ
Ġ×Ĳ×ĳ×Ļ× ĳ×Ļ×Ŀ
Ġfl oor
Ġ×§×ķ×¨× Ĳ×ª
Ġ×ŀ×ĵ ×Ļ×Ļ
Ġ×¨×Ĳ ×Ļ×ª
res s
Ġ×Ľ×ķ×¡× Ĳ×ŀ×§
Ġ×ķ×Ķ×ķ× ľ×ļ
Ġ×Ĺ×© ×Ļ×©
O h
a w
a z
h one
t e
Ð º
Ĵ ×Ļ×©
ľ× ĺ×¨
ŀ× ł×ķ×ª
ŀ× ł×ª×Ļ
©× §×
Ġ×ľ× ¤
Ġ×ľ× ĸ×Ļ×Ļ×Ł
Ġ×Ķ× §×Ļ×
¨× ĳ×ª
¨× ĵ×Ŀ
Ġ×ŀ× ĵ×ľ
Ġ×ĳ× ¨×Ĳ×¤
Ġ×ĳ× §×ķ×ľ
Ġ×©× ł×ķ×ª
Ġ×ŀ ×Ļ×ľ×Ļ×
Ġ×ķ× ľ×ļ
Ġ×ķ× ©×ķ×Ŀ
¦× Ĺ×ķ×Ł
×Ķ× Ĳ×
Ġ×© ×ķ×Ĳ×ķ
Ġ×ł× ¤×©×Ļ
Ġ×Ĳ×Ļ× ł×ķ
×Ļ×Ļ× ĸ
×Ļ×Ļ× §×Ļ×Ŀ
Ġ×¢×ķ× ¦×¨×Ļ×Ŀ
Ġ×Ĵ× ľ×Ļ×Ŀ
Ġ×¡× ĳ×Ļ×
Ġ×¡× §×Ļ
Ġ×ľ×Ķ× Ł
×Ļ×ľ ×ķ×Ł
Ġ×ĺ ×Ļ×ķ×
Ġ×ĵ ×ķ×ķ×§×Ĳ
Ġ×Ķ×ŀ× ¤×Ķ
Ġ×ĳ×ķ× ¡×
Ġ×ĳ×ķ× §×¡
âĢ Ĭ
ľ×Ļ× ł×ķ
Ġ×Ĺ×ķ× ľ×Ļ×Ŀ
ŀ×Ļ× ¢
Ġ×Ķ×©× ¨×Ĳ×Ķ
Ġ×Ķ×ķ× ¦×Ĳ×ª×Ļ
Ġ×Ķ×ĳ× ĺ×Ł
×Ĳ× Ĺ×Ļ
Ġb oy
Ġ×ŀ×Ĳ× ĵ
Ġ×ŀ×Ĳ× ©×¨
Ġ×¡×ķ× Ĵ×ĵ
Ġ×Ĳ×ł× ĺ×Ļ
Ġl isten
Ġc ry
Ġ×¨×Ĳ× ©×ķ×ł×Ķ
Ġ×ķ×ŀ× Ĳ×
Ľ×Ļ× ł×Ļ×Ŀ
×ŀ× Ĳ×Ł
Ġ×Ľ×©× ĳ×
Ø± Ø¨ÙĬ
Ġg ive
Ġ×¡×Ļ× ĳ×ķ×ª
Ġ×ĳ×¨× ¦×£
Ġ×ľ×§× ¦×ĳ
Ġ×ľ×§× Ĺ×ķ
Ġ×Ķ×¡× Ĳ×
Ġ×Ķ×Ľ× Ĺ
or y
×©× ŀ×
ĠT r
Ġ×ĳ×Ĵ× ¨×ķ×Ł
Ġ×ŀ×¨× ¡×¡
Ġ×ĺ×Ļ× ¤×ª
Ġ×ľ×ª× §×Ł
Ġ×ķ×ª× ©×
Ġ×ķ×ª× ¨×Ĳ×Ķ
×Ľ× ©×
Ġ×ľ×ĵ× ¨×ļ
Ġ×ª×Ķ ×Ļ×ľ×Ķ
Ġ×ĳ×ľ× ¢×
Ġ×ĳ×Ķ ×Ļ×
Ġbe fore
Ġ×Ķ×Ķ× ĵ×§
Ġgo od
ant a
ĵ×¨× ŀ×Ķ
Ġ×ŀ×¢×ķ× ľ×Ķ
ł×Ĵ× ĵ
Ġ×ª×ĸ× Ľ×ķ×¨
Ġ×ķ×Ĳ×Ļ× ĸ×Ķ
Ġ×ª×ĳ×ķ×Ĳ ×Ļ
Ġ×ŀ×ł×ķ× Ĺ
×ĺ× Ĳ×
Ġ×Ķ×¡×ķ× ĵ
Ġ×ª×ľ× ŀ×Ļ×ĵ
ľ×Ĵ× ľ×Ļ×Ŀ
Ġ×¤×¦× ¦×ķ×ª
Ġ×ľ×Ķ×ª×§× ¨×ĳ
Ġ×ľ×Ķ×¡× ĳ×Ļ×¨
Ġ×ĳ×Ĵ×ľ× ľ×Ļ
Ġ×ŀ×Ķ×Ļ× ŀ×Ļ×Ŀ
Ġ×ĳ×Ļ×§× ©×ª×Ļ
Ġ×¡×Ļ×§×¡×ĺ ×Ļ
g g
× Ĺ×Ļ×Ļ×Ŀ
Ġ 7
Ġ áĬ
ľ ×ķ×ķ×Ļ×ĸ×Ļ×Ķ
ł ×ķ×Ŀ
×Ķ ×Ļ×
Ĳ× ¤×Ķ
ľ× ĳ×
ŀ× ¤×ķ×
ĳ× §×ª
ĳ× Ĳ×§
Ľ× ł×Ļ×ķ×ª
¨× Ĳ×ª
Ġ×ĳ× ª×Ĳ
Ġ×ĳ× ©×ķ×Ŀ
Ġ×ĳ× ª×Ļ×Ľ×ķ×Ł
¤× ¢×ķ×ª
§× ¨×ĺ
Ġ×¢× ł×Ļ×Ļ×ł×Ļ×Ŀ
ł×Ļ ×ķ×Ł
ł×Ļ ×Ļ×§
Ġ×ķ× ĺ×ķ×
Ġ×ª× Ľ×ľ
Ġ×ª× ©×Ļ×¨
ĳ×Ļ× ł×ķ
Ġ×¨× §×
Ġ×¢×ķ× ¨
Ġ×¤× Ĵ×©×ª×Ļ
Ġ×§× ¤
Ġ×Ĵ× ¡
Ġ×Ļ×ķ× ©×ĳ×ª
Ġ×ŀ×ķ× ĳ×
Ġ×ŀ×ķ× ĵ×¢
¡×ķ× ŀ×ķ×ª
Ġ×Ķ×ŀ× Ľ×
Ġ×Ĺ×ķ× ĺ×£
Ġ×©×ķ× ľ×Ĺ×ª
ÙĦ ÙĪ
Ġ×¦× Ĺ×ķ×§
Ġ×¦× ¤×Ļ×ķ×ª
©×ķ× ©
Ġ×ĳ×Ĳ× £
Ġ×ľ×ŀ× ¨×
Ġ×ķ×Ĳ× ľ×ķ
Ġ×ľ×©× ľ×ĳ
re w
Ġb est
Ġ×ŀ×Ĳ× ŀ×
Ġ×ŀ×Ĳ× ľ×Ķ
Ġ×¡×ķ× ¡
Ġ×ľ×ĳ× ĵ×ķ×§
Ġc ar
Ġ×ŀ×ŀ× ł×Ķ
Ġ×Ķ×Ĺ× ľ×ķ×Ł
Ġ×ĵ×ķ× ¨×©
Ĵ×Ļ× ©×Ķ
Ġ×Ķ×Ļ× ¡×ĺ×ķ×¨×Ļ×Ķ
Ġ×§ ×Ļ×©
ĺ×Ļ× ĳ
Ġ×Ĳ×ŀ× Ĳ×ľ
Ġ×Ķ×§× ĳ×¨
Ġ×Ķ×§× ľ×¤×Ļ×Ŀ
Ġp ass
Ġ×ĳ×¡× ĳ×Ļ×ĳ×Ķ
ĠS alama
Ġ×ŀ×Ľ ×Ļ×Ł
¦×ķ× ¤×Ļ×Ŀ
×©× Ĳ×§×Ķ
Ġ×Ķ×¢× ĵ×¨
Ġ×ª×Ļ× ¨×ķ×¥
×ĳ× Ł
Ġ×Ķ×Ĳ ×ķ×ķ×Ļ×¨
Ġin ter
Ġ×¢×¦× ĳ×
Ġ×ŀ×¨× Ĺ×
Ġ×ŀ×¨× ©×Ļ×Ŀ
Ġ×ľ×¡× ¤×ķ×¨
Ġ×Ļ×©× ĳ×ª×Ļ
Ġ×ķ×ª× ŀ×Ļ×ĵ
ĠB l
ĠB ounce
Ġ×Ĳ×¨× ł×§
Ġ×Ľ×Ļ× ¤×Ļ×Ŀ
ª×Ĺ× ľ×ª×Ļ
ľ×§ ×ķ×ª
Ġ×Ķ×¦× ĵ
Ġ×ŀ×ª ×Ķ×¤×ļ
Ġ×ľ×Ķ×Ļ× ©×
Ġ×ĳ×ł× ¢×ľ×Ļ×Ļ×Ŀ
Ġdi e
ĠY oya
Ġ×ĳ×¦× ĳ×Ĳ
Ġ×©×Ľ× Ĺ×ª
Ġ×ª×ŀ× Ľ×ķ×¨
ĠØ¹ ÙĦÙĬ
Ġ×Ķ×Ĳ×ķ× ĸ×ł×Ļ×Ļ×Ŀ
Ĳ×¨× ŀ×Ķ
Ġ×¢×Ļ× ł×Ļ
Ġ×¢×Ļ× ł×Ļ×Ļ
Ġ×ŀ×Ľ×ľ ×ķ×Ŀ
Ġ×ľ×Ķ×©× Ĳ×¨
§×¢ ×ķ
Ġ×Ĳ×©× ľ×Ļ×Ķ
Ġ×ĳ×¢ ×Ļ×ª×ķ×Ł
§×¡×ĺ ×Ļ×Ļ×¤
Ġ×ĵ×Ĳ× Ĵ×ķ×ª
ĠF uck
Ġ×ŀ×ª×§× ©×¨
Ġ×ŀ×Ļ×ķ× ª×¨
Ġ×ŀ×¢×ķ× ł×Ļ×Ļ×Ł
Ġ×ª×ĸ× ĵ×Ļ×Ļ×Ł
Ġ×Ļ×Ĺ× ¡
Ġ×Ĺ×ľ× ŀ×ª×Ļ
Ġ×¦×Ļ× ¤×ķ×¨
Ġ×Ķ×¤×¡× ĵ×Ļ×Ŀ
Ġ×ł×ĸ× ¨×ķ×§
Ġ×Ĵ×¨× ¤×Ļ×ĺ×Ļ
Ġ×ŀ×Ĵ ×Ļ×©
Ġ×Ĳ×Ļ×Ļ× ĺ×ķ×ľ×Ķ
Ġan y
Ġ×ľ×ķ×§× Ĺ×ª
Ĳ×¤ ×Ļ×Ķ
iz ry
Ġ×Ĳ×ķ×ĺ×ķ× ŀ×ĺ×Ļ
§×ľ× Ĳ×Ł
Ġ×©×ķ×¨× ¤×Ļ×Ŀ
Ġ×ĳ×ľ×¢×ĵ ×Ļ×Ļ×ļ
Ġ×Ļ×ķ×¨× ĵ×Ļ×Ŀ
Ġ×ĵ×Ĳ ×ķ×ķ×Ļ×Ł
Ġ×Ķ×¦×ľ× Ĺ×Ķ
' .
p in
¨ ×ķ×ķ×Ļ×Ĺ
© ×Ļ×Ļ×Ķ
× ¡×ķ×
× ł×Ļ×
Ġ 0
Ĳ ×ķ×¨×Ķ
×ķ× ŀ×Ķ
Ĳ× ¨×ĺ
ľ× Ľ×ķ×ª
ĳ× §×Ļ×Ŀ
Ġ×Ĳ× ŀ×ķ×ª
Ġ×Ķ ×ķ×ķ×Ļ×
Ġ×ľ× ¡×ķ×£
Ġ×Ķ× ¤×Ļ
Ġ×Ķ× ĸ×Ļ×
Ġ×Ķ× ĵ×Ļ×ķ
¨× ľ×Ļ
¨× ª×Ŀ
¢× ŀ×§
Ġ×ŀ× ŀ×Ļ×
Ġ×ŀ× ¤×Ļ×§
Ġ×ĳ× Ľ×Ļ×ª×Ķ
Ġ×©× ¨×Ķ
ł× Ĳ×ľ×Ļ
¤× ľ×Ļ×Ŀ
§× ľ×Ļ×
Ġ×ľ ×ķ×Ĳ×Ļ
Ġ×ķ× §
Ġ×ķ× ©
Ġ×ª× Ľ×Ļ×¨
¦× ł×ķ
Ġ×¢×ķ× ľ×ķ×ª
Ġ×¤× §×Ķ
Ġ×§× ©×ķ×ª
Ġ×Ĺ× ¨×ĳ
Ġ×¤ ×Ļ×Ļ×¨
Ġ×Ĵ× ¨×ķ×
Ġ×¡× ļ
Ġ×¨×ķ× ¤×Ĳ
Ġ×ĵ× ¨×ķ×
ł×Ļ× ļ
Ġ×Ĺ×ķ× ¤×¨×ª
Ġ×©×ķ× ľ×
Ġs ilver
¤×ķ× ł×Ļ
Ġ×ŀ×Ķ× Ĺ×Ļ×Ļ×Ŀ
Ġm ind
Ġ×ŀ×©× ¢×
Ġ×ł×ķ× Ķ×
Ġ×Ķ×©× ł×Ĳ×Ķ
Ġ×ŀ×¡× ĺ×Ļ×§
Ġ×Ķ×Ĳ× Ĵ×ķ
Ġ×©×ŀ× ª
Ġ×ķ×Ĳ× ¨×ĳ×¢
Ġ×ł×©× ¨×£
Ġb out
Ġ×Ķ×¨× Ĵ×ľ
Ġ×Ķ×ª× ¢×ķ×¨×
Ġ×ľ×¢× ĳ×¨
Ġ×©×Ķ× ¤×
Ġ×ľ×ĳ× ŀ×Ķ
Ġ×ľ×ĳ× Ĺ×ķ×¨
¦×Ĳ ×ķ
Ġ×ķ×ŀ× §×
ľ×ĳ ×Ļ×Ŀ
¨×Ļ ×ķ×Ł
Ġn igg
Ġ×¡×Ļ× ł×Ļ
Ġ×Ķ×§× ¨×§×¢
Ġ×ľ×Ĺ× ĳ×¨×Ļ×Ŀ
Øª Ø±
Ø¨ Ø±
ĺ×¨ ×ķ
ĺ×¨ ×Ļ×§
ĳ×ķ×¨ ×Ļ
or t
Ġ×Ķ×ĳ×Ļ× ¨×Ķ
ĠS ome
¦×Ļ× ĳ
¦×ķ× ľ
Ġ×ł×Ķ ×Ļ×Ļ×ª×Ļ
Ġ×ķ×ĳ× Ĳ×
ĠØ§ÙĦ Ø£
Ġ×¢×¦× ĳ×Ļ×Ŀ
Ġ×©×ł× ¢×
Ġ×ŀ×¨× Ĺ×£
ĠâĢ ľ
Ġ×©×ĳ× ĺ
Ġ×ª×¢× ĸ×ķ×ĳ
×ª× Ĵ×Ļ×ĵ×ķ
ig n
ĠW ith
Ġ×Ĳ×ķ×ŀ×¨ ×ķ×ª
§×ľ ×Ļ×Ł
Ġ×Ķ×ĸ× ĳ×ľ
ĠM C
Ġ×Ķ×ŀ×Ļ× ĺ×Ķ
ÙĤ ÙĬ
ĠC ause
Ġ×Ķ×Ĳ×ķ× ©×¨
Ġ×Ķ×Ĵ ×Ļ×ķ×ł×Ļ
ĠJ ust
Ġ×ŀ×ª×§× ¨×ĳ
Ġ×ŀ×Ľ×ķ× ¢×¨×ª
Ġ×ŀ×Ļ×ķ× Ĺ×ĵ×ª
Ġ×ĳ×Ĳ×Ļ× ĸ×Ķ
Ø§ÙĨ ÙĬ
Ġ3 0
Ġ×Ķ×Ĳ×Ļ× ©×Ķ
ĠØ´ ÙĪ
Ġ×¢×ķ×§× £
Ġ×ŀ×ª×ł× Ĵ×Ł
Ġpl ay
ĠOn e
©×¨×Ĳ× ľ×Ļ×Ŀ
Ġ×Ķ×ľ×Ľ× ł×ķ
Ġ×¤×¦× ¦×Ķ
Ġ×Ļ×Ķ×ķ× ĵ×Ļ
Ġ×ľ×ŀ×©× ¤×Ĺ×Ķ
×ŀ×©× Ĺ×§
Ġ×ľ×Ļ×Ļ× ¦×Ĵ
Ġ×ľ×¢×¦× ŀ×ļ
Ġ20 2
Ġ×¨×ķ×ĵ× ¤×Ļ×Ŀ
Ġ×©×Ĵ×ķ× ¨×Ŀ
Ġlight s
Ġ×Ķ×ŀ×§× ¦×ĳ
Ġ×§×Ļ×ľ×ķ× ŀ×ĺ×¨
Ġjud ge
©×Ļ×ª×Ļ×¢× ©×Ļ×ª×Ļ×¢×
Ġ×ķ×Ĳ×ľ×ķ ×ķ×¨×Ķ
f ter
r op
u c
y ric
¤ ×Ļ×Ļ×Ķ
Ñ ı
Ġ× ¦×Ķ
Ĳ× ĺ×
Ġ×ľ× ©
Ġ×ľ× ł×ķ×
Ġ×Ķ× ¤×Ļ×ľ
¨× §×¡
¢× ĳ
Ġ×ŀ× Ľ×ķ×ľ×Ŀ
Ġ×ĳ× ŀ×ķ×ª
Ġ×ĳ× ł×Ļ×ª×Ļ
Ġ×ĳ× Ĺ×Ļ×Ļ×
Ġ×ĳ× ¨×Ĵ×Ļ×ľ
Ġ×©× ĵ×
Ġ×©× ª×ķ×
Ġ×©× ¤×ķ×Ļ
ł× ©
Ġ×Ľ× ľ×
§× ľ×Ļ
Ġ×Ĳ ×Ļ×ķ
Ġ×Ļ ×ķ×¨×Ļ×Ŀ
Ġ×ķ× ĵ×Ļ
Ġ×ª× ¢×ķ×
Ġ×ª× §×ķ×Ŀ
Ġ×Ļ× Ĳ×ł×Ĵ
Ġ×© ×Ļ×Ļ×ļ
ĳ×Ļ× ł×Ļ×
Ġ×ł× ¨×Ĵ×Ļ×ľ×Ķ
Ġ×ł× ĵ×Ļ×¨
ĸ× ¨×ª×Ļ
×Ļ×Ļ× ¡×¨
Ġ×¤× Ĵ×¢
Ġ×§× ©×ķ×
×Ļ×§ ×ķ×Ļ
Ġ×Ļ×ķ× ¦×¨
Ġ×ľ×Ķ× ¨×Ĳ×ķ×ª
Ġ×ľ×Ķ× ĳ×Ļ×ĺ
Ġ×ĵ× ł×Ļ
Ġ×ĵ ×ķ×ĳ
×Ļ×Ĳ ×ķ×ª
Ġ×©×ķ× ŀ×¨×Ļ×Ŀ
Ġs in
Ġs ide
Ġ×ŀ×©× §×ľ
Ġ×§×ķ× ľ×ķ×ª
ŀ×Ļ× ª×Ļ
Ġ×Ķ×©× ĳ×ķ×¢
Ġ×Ķ×Ĳ× ¦×ĳ×¢×ķ×ª
Ġ×ľ×ŀ× ¡×
Ġ×Ķ×¤× Ĺ×ĵ
Ġ×ľ×©× Ĺ×ķ×ª
Ġb urn
¨×Ĵ ×ķ×ª
Ġ×ķ×Ķ× ¢×
Ġ×ľ×¤× Ĺ×ĵ
Ġy ear
Ġ×©×Ķ× ľ×Ĺ×¥
Ġ×ĸ×ķ× ŀ×
Ġ×ķ×ŀ× ¡×
Ġ×§ ×Ļ×¨
Ġ×ĳ×¨× ŀ×
Ġ×ĳ×¨× ©×ª
Ġ×Ķ×¡× ¤×Ķ
Ġ×Ķ×Ľ× Ĳ×ĳ
Ġ×ĳ×¢× ĸ×¨×ª
Ġ×ķ×ľ× ŀ×
ĠA s
×©× ľ×ŀ×Ķ
Ġ×ŀ×Ľ× ©×ķ×ľ
Ġ×§×Ļ× ¦
Ġ×ł×ŀ× ĳ×¨
Ġ×ŀ×¨× ¢
ĠâĢ ı
Ġ×ķ×ł× Ĺ×
¤×Ļ×§ ×Ļ
Ġ×ª×Ĺ× ĸ×Ļ×¨
Ġ×ľ×Ĵ× ŀ×ķ×¨
Ġ×ĳ×ĳ× ľ×
Ġ×ĳ×ł× ł×Ķ
ĳ×Ļ×¨ ×ķ×ª
Ġ×ŀ×Ĳ×ķ× Ķ×ĳ
Ġ×ķ×Ľ× ļ
ĠD em
ĠH izry
Ġ×Ķ×ŀ×Ļ× ľ×Ķ
Ġse xy
Ġ×ª×¨× Ĺ×Ŀ
Ġ×ĳ×¨×ķ× Ľ×Ļ×Ŀ
Ġ×©×ľ×ķ× ©×Ļ×Ŀ
×Ĺ× ¨×ķ×ĸ×Ļ×Ŀ
Ġ×ŀ×ª×ķ× ¡×Ľ×ľ
Ġ×Ĵ×Ļ× ĺ×¨×Ķ
ĠØª Ø¹
Ġ×ŀ×¤×ķ× ¨×
Ġ×©×¢× ©×Ļ×ª×Ļ
¨×ŀ× ĺ
Ġ×Ķ×¨×Ĵ× ©×Ķ
Ġ×§×¨ ×ķ
Ġfi re
Ġ×§×ĺ× ł×Ļ×Ŀ
Ġ×¤×ľ× §×¡
×ĵ× ¨×ļ
Ġ×ĳ×¦ ×Ķ×¨×Ļ×Ļ×Ŀ
Ġ×Ĳ×Ķ× ĳ×ª×Ļ
Ġ×Ĳ×ľ×Ļ× Ľ×Ŀ
Ġ×Ļ×Ķ×ķ× ĵ×Ļ×Ŀ
Ġ×Ķ×ĺ×ķ×ĳ ×Ļ×Ŀ
Ġ×ľ×Ķ×¡× ¤×Ļ×§
Ġ×ķ×Ĳ ×ķ×ķ
Ġ×ª×Ĺ×ķ× ©×Ķ
Ġbad da
Ġ×Ķ×ª ×ķ×¨
Ġsc ream
Ġ×ª×©×Ļ× ŀ×ķ
ĠAr ab
Ġ×ĳ×ķ×Ļ×Ļ× §×ľ×Ĳ×Ł
Ġ×§×¨×Ļ×¡× ŀ×¡
i x
¦ ×Ļ×ķ×ª
§ ×Ķ×ľ
© ×ķ×¨
Ð ½
Ö °
× ĵ×Ķ
Ġ !,
Ġ× ª×Ļ
Ġ× ł×Ļ×Ŀ
×ķ× Ĳ×Ŀ
×Ķ ×Ļ×¤
ľ× ĵ×ª
ŀ× ĳ×¨
ŀ× Ĵ×Ŀ
Ġ×ľ× ¢×Ļ×
Ġ×ľ× ŀ×Ļ×ľ×Ļ×Ŀ
Ġ×Ķ× Ĺ×ķ×¨
Ġ×ĳ× ĸ
Ġ×ĳ× ¨×§
Ġ×ĳ× ł×ª×Ļ×Ļ×Ŀ
Ġ×ĳ× Ĺ×ķ×ľ
ł× Ĺ×
Ĺ× ľ×Ļ×Ŀ
§× Ĳ×Ļ
Ġ×Ļ× Ľ×
Ġ×Ļ× ¨×Ĺ
Ġ×Ļ× ¡×ª
ĳ×Ļ× ©×Ļ×Ŀ
Ġ×Ĳ×Ļ× ľ×ª
Ġ×ª ×ķ
Ľ×ķ× ĸ
Ġ×Ĺ× Ĵ
Ġ×Ĺ× ª×
Ġ×¤ ×Ļ×Ļ×ĺ
×Ļ×¨ ×Ļ×§×Ķ
Ġ×ĵ× Ĺ×
Ġ×ĵ× ¤×ķ×§×Ļ×Ŀ
Ø§ Ø¹
Ġ×Ľ×ķ× ľ
Ġ×Ļ×© ×Ļ×
Ġ×Ķ×ŀ× ¤×ª×Ĺ
¡×Ļ× Ľ×Ķ
Ġ×Ĺ×ķ× ©×ļ
¤×ķ× ¨×ĺ
Ġ×ŀ×Ķ× ¨×Ĳ×©
Ġ×ŀ×©× ľ×ķ×Ĺ
Ġ×§×ķ× ł×Ĵ
©×ķ× ļ
ľ×ķ× ł×ķ×ª
Ġ×ĸ× Ĳ×ª×Ļ
Ġ×Ķ×©× §×
Ġ×ŀ×¡× ¨×Ļ×Ŀ
Ġ×ĺ× ¢×Ļ×
Ġ×ĺ× Ĳ×ł×Ĵ
Ġ×Ķ×ĳ× ¢
Ĳ×ķ× ¡
Ġ×©×Ļ× ł×ķ×Ļ
Ġ×¡×ķ× ĳ×ĳ
Ġ×Ķ×¨× Ĺ×ĳ×Ķ
Ġc ould
Ġ×ľ×Ĳ× ŀ×
Ľ×© ×Ļ×¨
Ġ×Ķ×Ĺ× Ĵ×Ļ×
Ġ×¤×ķ× ¢×Ŀ
Ĵ×ķ× ĵ
Ľ×Ļ× ł×ķ
×ŀ× ª×
Ġ×Ľ×©× ľ×Ĳ
Ġh ard
Ġ×Ķ×Ľ× ª×¨
Ġ×Ķ×ĸ×Ķ ×ĳ
ĠS un
Ġ×ŀ×Ľ ×Ļ×¨×Ķ
Ġ×Ķ×ĵ× Ĵ×ľ
×©× ľ×Ļ
Ġ×ª×Ļ× ĸ×Ķ×¨
Ġ×§×Ļ× ľ×Ķ
Ġ×Ķ×Ĳ ×ķ×Ļ×
¨×ĺ ×ķ×Ł
Ġ×ĳ×¤× Ĳ×
Ġ×Ķ×ł× §×ĳ×ķ×ª
Ġ×ĳ×ĵ× ¨×Ľ×Ļ
×ķ×ķ×Ļ× ¡×Ķ
Ġ×Ķ×ĸ× ĵ×ŀ×ł×ķ×ª
Ġ×Ķ×ŀ×ķ× ©×
Ġ×ľ×Ķ×Ļ× ¨×Ĵ×¢
Ġ×¤×¨× ¦×ķ×£
¨×Ĵ× ©×Ķ
Ġre ally
Ġ×Ķ×ĺ× ¢×Ŀ
Ġ×ĳ×ª× Ľ×ľ×¡
Ġbe en
Ġ×ª×¤× ľ×ķ
Ġ×©×ľ×ķ× §
Ġ×¨ ×Ļ×§×Ļ×Ŀ
Ġ×Ĵ×ĳ×ķ× ľ×ķ×ª
Ġ×©×Ĺ× ¨×¨
Ġ×Ķ×Ĵ×ķ× ¨×ľ
Ġ×ķ×Ĺ× ¦×Ļ
Ġ×ķ×§× ¦×ª
Ġ×ł×ķ×ª× ł×ķ×ª
Ġ×ĵ×¨× Ľ×Ļ×Ŀ
×ĳ×Ļ× ĺ×Ļ×Ŀ
Ġ×ŀ×ĸ ×ķ×Ļ×
Ġ×§×ľ× ¤×Ļ×Ŀ
Ġ×Ĳ×Ĵ× ĵ×Ķ
Ġ×Ķ×ľ ×Ļ×ľ×ķ×ª
Ġ×Ĺ×©×ķ× ļ
Ġ×ĳ×ŀ×¨× Ľ×ĸ
Ġ×ĳ×©×Ļ× ¢×¨
Ġqu e
ĠÙĦÙĬ Ø´
Ġ×ŀ×ľ×Ĳ× Ľ×Ļ×Ŀ
Ġ×¡×ĳ× ª×Ĳ
Ġ×ľ×Ķ×ĸ× Ľ×Ļ×¨
Ġ×Ľ×¨×Ļ× ©
Ġ×¢×ķ×¦× ¨×ª
Ġ×Ľ×©×Ĳ×ł× Ĺ×ł×ķ
! "",
" ?
a ut
h at
o b
u gh
× Ĺ×ª
× §×Ļ×Ŀ
Ġ Ã
ľ ×Ļ×ľ
×ķ× Ĳ×ł×Ļ
Ĳ× ľ×ķ×ª
ľ× ł×Ļ
ľ× ª×Ŀ
ľ× ĳ×©
ĳ× ¢×ķ×
ĳ× ł×ª×Ļ
ĳ× ª×Ĳ
Ľ× ¡
Ľ× ¡×£
¢× ł×ķ×ª
Ġ×ĳ× ł×Ļ×ł×ķ
Ġ×©× Ĵ
Ġ×©× ľ×ĺ
ł× ĵ×Ļ
ł× ł×ķ×ª
§× ŀ×Ł
Ġ×Ĳ ×Ļ×Ļ×ľ
¡× Ĺ
¡× ĺ×ķ×
ĵ× ľ×§
Ĵ× ľ×Ļ×Ŀ
Ġ×ª× Ĵ
Ġ×Ļ× ŀ×Ļ×ł×Ķ
Ġ×© ×ķ×ķ×Ļ×Ŀ
ĳ×Ļ× Ķ
Ġ×ł× ĵ×¢
Ġ×ł× ª×Ĺ×
Ġ×¨× Ĵ×Ļ×ľ×Ķ
Ġ×Ĺ× Ľ×Ķ
Ġ×Ĺ× Ľ×ŀ×ª
Ġ×Ĳ×ķ× ľ×ĵ
Ġ×¤ ×ķ×Ŀ
Ġ×ĵ× Ĺ×ķ×£
Ġ×ŀ×ķ× §×Ļ
Ġ×Ķ×ŀ× Ľ×Ķ
Ġs ame
Ġs omet
Ġm ove
Ġ×¦× ĳ×Ļ×
Ġ×¦× Ĳ×Ļ
Ġ×§×ķ× ĳ×¨
©×ķ× ľ×Ļ×Ŀ
Ġw on
Ġ×Ķ×©× §×ĺ
§×Ļ× ł×Ļ
Ġ×Ķ×ķ× ¨×¡
Ġ×Ķ×Ĳ× ľ×
Ġ×Ķ×ĳ× ľ×Ĳ×Ĵ×Ł
Ġ×ĳ×ŀ× ĺ×¨×Ķ
Ġ×ĳ×ŀ× ĸ×¨×Ĺ
Ġ×©×Ļ× Ĺ×ķ×ª
Ġ×©×Ļ× ¢×ķ×¨
Ġb ed
Ġthe ir
Ġ×Ķ×ª× ©×ķ×ĳ×Ķ
Ġ×Ķ×Ĺ× ľ×
Ġ×Ľ×©× ª×
Ġ×Ķ×Ĵ× ľ×Ĵ×ľ
Ġ×ľ×ķ× ŀ×ĵ×Ļ×Ŀ
Ġ×Ķ×§× ©×¨
Ĺ×§ ×ķ
Ġh ad
Ġh ate
Ġ×Ķ×ĳ×Ļ× ¦
ĠS anta
Ġ×ķ×ľ× Ľ×ľ
Ġ×ķ×ľ× ľ×Ĳ
Ġ×©×ª× ¨×
Ġ×©×ª× ŀ×Ļ×ĵ
Ġ×Ķ×ĵ× §
×©× Ľ×ľ
ar k
×ĳ× ©×
ĸ×Ļ× ¢
Ø¯ Ø§
Ġ×ª×¢× ĳ×ķ×ĵ
Ġ×ŀ×ľ× ĺ×¤×ª
ª×Ļ× ĳ
ØŃ ÙĨØ§
Ġdi r
Ġ×¤×¨× ¤×¨
Ġ×ķ×Ļ× Ĳ×ľ×ľ×Ķ
Ġ×ł×ª× ¤×¡
ic al
Ġ×Ķ×ĺ× ¨×ķ×
Ġ×ĳ×Ķ ×Ļ×¤
Ġ×Ĵ×Ļ× ©×Ķ
Ġ×Ĵ×ĳ×ķ× Ķ×Ļ×Ŀ
Ġ×©×¢×ķ× ©×Ļ×Ŀ
Ġ×©×©× ¨×Ļ×Ŀ
Ġ×Ķ×ĵ×Ļ× ¡×§
Ġne w
Ġ×ª×¦× ¨×ķ×ļ
Ġ×ŀ×Ĺ ×Ļ×Ļ×
Ġ×Ĵ×ľ ×Ļ×ĵ×Ķ
Ġ×©×§ ×Ļ×ķ×ª
Ġ×Ķ×© ×ķ×¨×ķ×ª
Ġ×ŀ×§ ×Ļ×Ĳ
Ġ×ĳ×§×ķ× ©×Ļ
ie nd
Ġ×Ķ×Ĵ×Ļ× ©×Ķ
Ġ×¡×¤× ľ×Ļ×£
Ġ×Ĳ×ķ×¤× ĺ×Ļ×ŀ×Ļ
Ġ×Ķ×¡×¤× §×ª×Ļ
Ġ×ĵ×ľ×ª ×ķ×ª
ł×¡×ĺ× ¨×ķ×ŀ×ł×ĺ×
Ġ×ŀ×Ĳ×ĵ×Ĳ×¤× Ĳ×§×Ļ×ł×Ĵ
Ġ×ľ×¨×Ļ× ĳ
Ġ×¡×ķ×ĳ× ĳ×Ļ×Ŀ
Ġmother fuck
ĠØ¨Ø§Ø¨ Ø§
¤×ª×Ļ× ¢
A M
o c
v ol
¡ ×Ļ×Ļ×
ª ×Ļ×ª
Ð »
× ĳ×¨×Ķ
ĳ ×Ķ×
ĳ ×ķ×Ļ
ľ ×ķ×ķ×
Ĳ× ľ×ķ
Ġ×Ĳ× Ĵ
Ġ×Ĳ× ©×¨
Ġ×Ĳ× ¡×ĺ×
Ġ×ľ× ĵ×ķ×
Ġ×ľ× Ĵ×ķ×
Ġ×ľ× ª×Ĳ
¢× §×ķ×ª
ª× ł×ª
Ġ×ŀ× ¤×Ļ×
Ġ×ŀ× Ĳ×Ļ×¨
ł× ¤×¥
Ġ×Ľ× £
§× ¡×Ļ×
Ġ×¢× ¦×ĳ
Ġ×¢× ŀ×ķ×ĵ
Ġ×ķ ×Ļ×Ļ×
¡× Ĵ×Ķ
ĵ× ©×Ķ
Ġ×ŀ ×Ļ×Ĳ×ķ
ĺ× §
Ġ×ª ×Ļ×§×ķ
Ġ×¨× ¢×Ļ×Ŀ
Ġ×¨× ¦×ķ×ª
ĳ×ķ× ĺ
ĳ×ķ× ł×ķ×ª
Ġ×¢×ķ× ŀ×ĵ×ª
Ġ×¤× ľ×Ļ
Ġ×§× ĳ×¢
Ġ×§× ¤×ķ×¦
Ġ×Ĺ× ŀ×ķ×¨
Ġ( ""
ł×ķ ×ķ×¨
Ġ×Ĵ× ŀ×¨×ª×Ļ
ľ×Ĳ ×Ķ
Ġ×ľ×Ķ× ¦×ľ×Ļ×Ĺ
Ø§ Ùĩ
Ġ×Ľ×ķ× ¢×¡
ŀ×ķ× Ĺ
¨×Ĳ ×Ļ×ª
Ġ×ĳ×ķ× ©×Ķ
¤×Ķ ×ķ×¤
ľ×Ļ× Ĵ
¤×ķ× Ĺ
Ġ×ŀ×Ķ× Ľ×ľ
Ġ×¦× ¤×Ļ×ª×Ļ
Ġ×ł×ķ× Ĺ
Ġ×§×ķ× ¨×¡
Ġ×Ķ×©× ĺ×Ł
Ġ×ŀ×Ĺ× ľ×Ļ×§
Ġ×Ķ×Ĳ× Ĵ×Ł
Ġ×Ķ×ĳ× Ĺ×ķ×¨×ķ×ª
Ġ×ĳ×ŀ× ľ×Ĺ×ŀ×Ķ
Ġ×©×ŀ× ĵ×ĳ×¨×Ļ×Ŀ
×Ĳ× ł×Ĺ×ł×ķ
Ġ×Ķ×¤× ¨
Ġ×ľ×¤× Ĺ
Ġ×ľ×¤× ¨×
Ġ×©×Ķ× ¤×ľ×ķ×Ĳ×ķ
Ġ×ŀ×ŀ× ĸ×ŀ×Ł
Ġ×¤×ķ× §×ķ×¡
×ŀ× ¦×ĳ
Ġ×Ľ×©× ł×
Ġ×Ľ×©× ĸ×Ķ
ľ×Ĳ× ĺ
Ġ×ľ×ķ× §×Ļ
Ġ×Ķ×§× ĳ×ķ×¦×Ķ
Ġ×ľ×§× ¦×Ķ
Ĳ×¨ ×ķ×ª
ÙĪ Ùģ
ÙĪ ÙĦÙĬ
Ġ×ĳ×¡× ĳ×ĳ×Ķ
Ġ×Ĺ×Ļ ×ķ×ª
Ġ×©×Ķ ×Ļ×ķ×Ŀ
Ġ×Ĵ×ķ× ľ
Ġ×ĳ×¢× ¨×Ķ
ŀ×ķ ×Ļ×ķ×ª
ĠA m
ĠA y
Ġ×©×ª× ¡×
×©× ľ
ĠØ§ÙĦ ÙĨ
Ġ×ĵ×Ļ× ¡×§
Ġ×ł×Ĵ× ¢×ª×Ļ
Ùĥ Ø±
×¢× ľ×Ļ×Ļ
Ġ×¡ ×ķ×ķ×Ĳ×Ĵ×Ķ
Ġ×ŀ×ł× ¦×ķ×¨
Ġe as
Ġ×ŀ×Ĵ× ĵ×ľ
Ġr ock
Ġ×ĳ×Ĳ×ķ× ¤×Ł
Ġ×Ķ×ŀ ×ķ×¨×Ķ
Ġ×Ĺ×Ļ× ¤×Ķ
ĠØ¹ Ø§ÙĦ
ĠØ£ ÙĬ
Ġ×Ĳ×ķ×ķ ×Ļ×¨×Ķ
Ġ×¢ ×Ļ×Ļ×
Ø¬ Ø±
Ġ×Ķ×¦ ×Ļ×ĵ×Ķ
ĠJ e
Ġ×¢×©× ª×Ķ
×ŀ×ķ× ©×ķ×Ł
Ġ×ŀ×ĸ×Ļ× ¢
Ġ×ŀ×ķ×Ľ× ł×Ķ
Ġ×Ĺ×Ļ×Ļ× ĸ×¨
ĠÙĨ ÙĪ
Ġ×ª×ĸ×ķ× ĸ
Ġ×ĸ×ķ×¨×§ ×Ļ×Ŀ
ak es
Ġ×ª×ĵ×¢ ×Ļ
Ġ×ŀ×ĵ×ķ× ŀ×Ķ
Ġ×ŀ×ĳ×ķ× ľ×ĳ×ľ
Ð°Ð »
Ġ×Ķ×ŀ×¡× ļ
Ġal one
Ġ×ł×Ľ×ł× ¡×ª
Ġ×ĳ×§ ×Ļ×¨
Ġ4 0
Ġ×ľ×¡×Ļ× ĳ×ķ×ĳ
Ġ×¢×© ×ķ×¨
Ġ×ŀ×ľ×Ĳ× ļ
Ĺ×ķ×© ×Ļ×ľ×Ļ×ł×Ĵ
×ĺ×Ĳ× ¤×©
o ld
p ing
¦ ×Ļ×§
© ×Ļ×Ł
Ĳ ×ķ×ĳ
×Ļ× ĺ×Ļ×Ŀ
ľ× ĸ×ľ
ŀ× ¤
ŀ× ŀ×Ķ
Ġ×Ĳ× ĸ×Ķ
Ġ×Ĳ× ¤×ķ×ľ
Ġ×Ķ ×Ļ×§×ķ×Ŀ
Ġ×ľ× ĺ×ķ×
Ġ×ľ× ¦×Ļ×
Ġ×ľ× Ĺ×Ļ×
Ġ×ľ× ł×ķ×Ĺ
Ľ× ĸ×ĳ
¢× ł×Ļ×Ŀ
Ġ×ŀ× ľ×Ķ×
Ġ×ĳ× ł×Ļ×Ŀ
Ġ×ĳ× ¦×Ļ×
Ġ×©× Ĳ
Ġ×©× Ĺ×¨
ł× ĳ×Ļ
ł× ¡×ª
Ĺ× ľ×Ķ
Ġ×Ľ× ¤×Ļ×ª
§× ¨×ķ×Ł
Ĵ× Ĳ×Ł
Ġ×ķ× ľ×Ļ
Ġ×Ļ× §×Ĺ
Ľ×ķ× ł×Ļ×Ŀ
Ġ×¤× Ł
Ġ×¤× ¡×ķ×
Ġ×¤× ł×Ļ×
Ġ×¤× ¨×Ļ
Ġ×¤× ¨×Ĳ×©
Ġ×Ĺ× ĸ×Ķ
Ġ×Ĳ×ķ× ĸ×ł×Ļ×ķ×ª
Ġ×Ľ×ľ ×Ļ×Ŀ
§×ķ× §
§×ķ× ŀ×Ļ
Ġ×¨×ķ× ¢
Ġ×ľ×Ķ× ¨×ķ×Ĵ
Ġ×ĺ ×Ļ×Ļ×
Ġ×ŀ×ķ× ľ×ļ
Ġ×Ķ×ŀ× ĳ×ĺ
Ġ×Ĳ×ľ ×Ļ×Ŀ
Ġ×ĳ×ķ× ĵ×§
Ġ×ĳ×Ļ× ¦×Ļ×Ŀ
¡×Ļ× ¡×Ļ×Ŀ
Ġa way
Ġ×ŀ×ª× Ĺ×Ļ×ľ×Ķ
ª×ķ× ľ×ľ
Ġ×©×ķ× ł×Ĳ×Ļ×Ŀ
©×Ļ× Ĺ
Ġ×ŀ×Ķ× ĳ×ķ×§×¨
ÙĦ Ø³
Ġ×¦× ľ×Ĺ×ª
Ġ×¢×ĵ ×Ļ×Ł
Ġ×ł×ķ× ĸ×ľ
©×ķ× ¨×ª
ľ×ķ× ¡
Ġ×Ķ×©× ĳ×§
Ġ×ĳ×Ĳ× ¡
Ġ×ĳ×Ĳ× ©
Ġ×ĳ×Ĳ× ľ×
Ġ×ŀ×Ĺ× ŀ×Ŀ
Ġ×ľ×ŀ× ¢×Ł
Ġ×ĺ× ł×§
Ġ×ĺ× ¨×ł×
Ġ×Ķ×ĳ× ł×§
×Ĳ× ľ×£
×Ĳ× Ĺ×ķ×©×Ļ×ľ×Ļ×ł×Ĵ
Ġ×ķ×Ĳ× Ĺ×Ļ×ķ×ª
×ķ×ķ ×Ļ×ª
Ġ×¦ ×ķ×¨×Ķ
an ot
it s
it ive
Ġ×¡×ķ× ¤×
Ġ×Ķ×¨× ĵ×Ļ×ķ
Ġ×©×Ķ× §×
Ġ×©×Ķ× Ĺ×Ļ×Ļ×Ŀ
Ġ×ŀ×ŀ× ©×ľ×Ķ
Ġ×ŀ×¢× ¨×Ļ×
ĵ×ĳ×¨ ×ķ
¡×ĺ ×Ļ×Ļ×
Ġ×Ķ×Ļ× ©×
Ġ×Ķ×Ĵ× ¢×ª
Ġg l
Ġ"" !
Ġ×ª×ķ× §×¢
Ġ×§ ×Ļ×¨×ķ×ª
Ġn ight
ĺ×Ļ× ł×Ĵ
ŀ×¢ ×Ķ
Ġ×ĳ×¨× Ľ×Ķ
Ġ×Ķ×¡× Ĳ×ķ×ł×ĵ
Ø¨ Ø©
Ġ×ª×©× Ĺ×§
or ning
Ġme d
Ġ×ĳ×¢× ł×ł×Ļ×Ŀ
Ġ×ŀ×Ľ ×Ļ×ª×Ķ
ł×§ ×ķ×ª
Ġ×ł×ŀ× ¡
Ġ×ĺ×Ļ× ¤×
Ùĥ ÙĪÙĨ
Ġ×ķ×ª× §×
Ġ×ľ×ł× ©×ŀ×Ķ
Ġ×Ĺ×ĸ× ł×Ļ×Ŀ
ĠÙĪ Ø£
Ġ×ľ×¦× ¨×ķ×Ĺ
Ġ×¨×Ĳ×© ×Ļ
Ġ×ľ×Ĵ× ¨×©
Ġe nd
Ġ×ª×ª× ¤×ķ×¡
Ġ×ł ×ķ×¨×Ļ×ĵ
×ľ× ŀ×
×ľ× ľ×Ļ
Ùģ Ø§Ø±
ª×§ ×ķ×ķ×Ķ
Ġ×ŀ×¡×ª× ¤×§
Ġ×Ķ×ĺ× ŀ×
ĠØ¹ Ø´
×ŀ ×Ļ×ľ×Ļ×Ŀ
Ġ×©×§× ©×Ķ
ĠR ight
Ġ×ŀ×ª×§× ¨×ĳ×Ļ×Ŀ
Ġ×©×©× ľ×Ļ
Ġ×ª×Ĳ× ŀ×¨
Ġ×Ķ×ľ× Ľ×Ķ
Ø§Ø± Ø©
Ġ×ł×ĵ× ¤×§
Ġ×Ķ×¨×Ļ× Ĺ
¨×ł× ©
Ġ×ŀ×ª×ł× ¦×ľ
Ġpr om
Ġ×ľ×Ĳ×Ļ× ĳ×ķ×ĵ
Ġ×ķ×¢×ķ× ©×Ķ
oll ow
Ġ×ĳ×¡×ķ× ¤×ķ
Ġ×Ķ×ķ×ķ× ľ×Ļ×ķ×Ŀ
ĠRe bel
ĠBe cause
×ŀ×Ļ×Ļ× §×Ķ
af ot
Ġ×ĳ×¦×ķ× ŀ×ª
Ġ×ŀ×©×ª ×Ļ×Ł
Ġ×ŀ×Ķ×ĳ×Ļ× ŀ×Ķ
Ġ×¢×¦×ĳ× ł×Ļ×Ļ×Ŀ
Ġ×ĳ×Ĺ×Ļ×Ļ× Ĳ×ª
vol ution
? âĢı,
i a
i ous
Ã ©
× ¢×ķ×ľ×Ŀ
× ĺ×ķ
× ĵ×ķ×¨
× ľ×Ĳ×§
Ġ other
×ķ× ĵ×Ķ
×Ļ× ŀ×ĳ×ķ
Ĳ× ŀ×¨
ľ× ł×Ļ×Ŀ
ŀ× ľ×Ķ
ĳ× §×Ķ
ĳ× ľ×¡
Ġ×Ķ ×ķ×ķ×¨×¡
Ġ×Ķ× ĺ×Ļ
Ľ× ł×Ļ×Ŀ
ª× ŀ×ķ×ľ
Ġ×ŀ× ĳ×¨
Ġ×ŀ× ľ×Ļ×
Ġ×ŀ× ¢×ķ×ľ×Ŀ
Ġ×ŀ× ª×Ļ×
Ġ×ŀ× ¡×Ļ×§×Ķ
Ġ×ŀ× ¦×Ļ×ķ×Ł
Ġ×ĳ× ĺ×ķ×Ł
Ġ×©× ĺ×Ł
¤× ł×Ķ
Ġ×Ľ× ©×¨
§× Ĳ×ķ×ª
Ġ×¢× ĸ×¨
Ġ×¢× ¦×ķ×ª
ĵ× §×Ļ×Ŀ
ĵ× ĵ×ª
Ġ×ķ× Ĳ×Ķ
Ġ×ķ× ¦×ķ×
Ġ×ª× §
Ġ×ª× §×ķ×ķ×ª
Ġ×Ļ× ł×
ĳ×Ļ× ¦×Ļ×Ŀ
ĸ× Ŀ
Ġ×¨× ĸ×Ķ
Ġ×¤× ¨×§
Ġ×Ĺ× ŀ×Ļ×Ŀ
×Ļ×ĵ ×ķ×¨
Ġ×Ĵ× ¢×
Ġ×ľ×Ķ× §×©×Ļ×ĳ
Ø§ Ùģ
Ġ×ŀ×ķ× ł×
Ġ×ŀ×ķ× ł×Ļ×ª
Ġ×ŀ×ķ× ¢×ĵ×ķ×Ł
ł×ķ× ļ
Ġ×Ķ×ŀ× ĵ×ĳ×¨
Ġ×ŀ×ª× ¤×¨×
Ġ×Ĺ×ķ× £
Ġ×©×ķ× ĵ
Ġ×©×ķ× ¨×ĵ
Ġ×Ĵ ×ķ×¨×Ļ
Ġ×ĸ ×Ļ×ķ×
ŀ×Ļ× ł×Ļ
Ġw ait
Ġ×ĸ× ŀ×Ļ×Ł
Ġ×ĳ×Ĳ× ĵ×Ļ
Ġ×Ķ×Ľ×ľ ×Ļ×Ŀ
Ġ×ĺ× §×
Ġ×Ķ×ĳ× ¨×Ľ×Ļ×Ļ×Ŀ
Ġ×ĳ×ŀ× Ĳ×
Ġ×ĳ×ŀ× ĳ×ĺ
×Ĳ× §×
Ġ×Ķ×¤× ľ×Ĳ×
Ġ×ł×©× ĳ
Ġ×ķ×Ķ× ¢×ª×Ļ×ĵ
Ġ×ľ×¤× Ĵ×ķ×©
Ġ×Ĳ×ł× ĵ×
Ġl yric
Ġ×ŀ×Ļ× ĺ×Ķ
¦×Ĳ ×Ķ
Ġ×ľ×Ĳ× ľ
Ġ×ľ×Ĳ× ĳ×Ĳ
Ġ×Ķ×Ļ× ¨×Ĺ
Ġ×ĳ×¨× Ĺ×ª×Ļ
Ġ×ľ×§× ¨×ĳ
Ġ×ª×©× ¢×Ļ×Ŀ
Ġ×ķ×ľ× ĳ×
Ġ×ķ×ľ× ŀ×¨×ķ×ª
Ġ×ª×§× ¨×Ĳ×ķ
et s
ĠÙħ ØŃ
Ġ×Ķ×ĵ× Ĳ×
Ġ×Ķ×ĵ× ©×Ĳ
Ġ×ĳ×Ľ× ł×Ļ×¡×Ķ
ĠØ¨ ÙĬ
Ġ×ķ×ĳ× ł×ķ×ª
×ĳ× ł×Ļ
ĠØ§ÙĦ ÙĤ
Ġ×Ĳ×¦× ľ×Ķ
Ġ×¦×ķ× ¢×ĵ
Ġ×ŀ×¨× ©×
Ġe ven
Ġ×ĳ×ĳ× ¢×Ļ×
Ġ×Ķ×Ĺ×ķ× ĵ×©
Ġ×ĳ×ł× ©×ŀ×Ķ
¡×ĺ× ľ
Ġ×ŀ×ĺ× ŀ×ĺ×Ŀ
Ġ×¨×Ĵ×¢ ×Ļ×Ŀ
ł×ĺ× ¨×ł×ĺ
Ġ×©×¨× ¤×ª×Ļ
Ġkn ock
©×ķ ×ķ×Ĳ
Ġ×Ķ×¦ ×Ļ×¨
Ĳ×ł× Ĵ×
ĠYou r
Ġ×Ķ×ľ× Ľ×ķ
ĠThe re
Ġ×¡×Ĳ× Ĺ×Ļ
em p
Ġ×ķ×¨× ĳ×ķ×ª
Ġ×ŀ×©×¤× Ĺ×ª
Ġ×ª×ŀ×¦×Ĳ ×Ļ
Ġ×ŀ×©×ķ×Ĵ×¢ ×Ļ×Ŀ
Ġ×Ķ×¨×Ĳ× ©×ķ×ł×Ķ
Ġ×Ķ×ķ×¤× ¢×Ķ
Ġ×Ĳ×¡× ľ×Ļ
Ġ×Ķ×ł×ķ× £
Ġ×ķ×Ľ×ķ× ľ×ł×ķ
Ġat t
Ġhear t
ĳ×ľ×ķ× §
Ġ×ŀ×ľ×Ĺ× ŀ×ķ×ª
ł×Ĵ×ķ× ľ×ĵ×Ķ
Ġ200 0
Ġ×ĳ×Ĵ×ľ× ľ×ļ
Ġ×ŀ×¡×ª ×Ļ×¨
Ġ×ķ×Ľ×© ×Ķ×
ĠÙĦØ§Ø² ÙħØ©
O W
u h
¦ ×ķ×¨×Ļ×Ŀ
× ľ×ļ
× ¡×ķ×£
× ľ×ķ
Ĵ ×ķ×Ł
ĵ ×Ļ×Ł
ĺ ×Ļ×©
×ķ× §×¨
ŀ× ŀ×ª
ĳ× ĵ×
Ġ×Ĳ× ¢×
Ġ×Ĳ× ĺ×
Ġ×Ķ ×Ļ×ľ
©× ľ×Ļ
Ġ×ľ× ¨×Ĳ×¤×¨×Ļ×Ŀ
Ġ×ľ× Ĵ×ľ×ķ×ª
Ġ×Ķ× Ľ
¨× Ľ×Ķ
¨× ĵ×Ķ
¨× ĳ×Ļ×ª
¨× ©×Ŀ
Ġ×ŀ× ¡×Ļ×
Ġ×ĳ× §×ķ
Ġ×ĳ× ¡×ĺ×Ļ×Ļ×ľ
Ġ×ĳ× ŀ×Ļ×ľ×Ļ×Ŀ
Ġ×©× Ľ×Ł
Ġ×©× ĺ×ķ×ĳ
§× ľ×Ŀ
§× ĵ×ª
Ġ×¢× ©×ĳ
Ġ×ľ×Ĳ ×Ķ×ĳ×Ķ
Ĵ× ¨×ª×Ļ
Ĵ× ĸ×Ļ×Ŀ
Ĵ× ľ×Ļ×Ļ×Ŀ
Ġ×ķ× ª×Ļ×§
Ġ×ª× ĳ×Ļ×ĺ
Ġ×ª× ¤×§×Ļ×ĵ
¦× ¤×ª
×Ķ× Ĺ×
Ġ×Ļ× Ĳ×ķ×
Ġ×Ļ× ¡×ª×ĵ×¨
Ġ×ł× ¢
ĺ× ŀ×Ł
ĺ× ¦×Ļ×Ķ
ĳ×¨ ×Ļ
Ġ×¨× ŀ×Ķ
Ġ×¨× ¦×Ķ
Ġ×¤× Ĳ×ķ×
Ġ×¤× Ĵ×Ļ×¢
Ġ( ...
Ġ×Ĵ× ľ×ķ×
Ġ×Ļ×ķ× ŀ×Ļ×Ļ×Ŀ
Ġt a
Ġ×ľ×Ķ× ľ×Ĺ×Ŀ
Ġ×ľ×Ķ× ¤×¡×Ļ×ĵ
Ġ×ĵ× Ĳ×ł×Ĵ
Ġ×ŀ×ķ× ¡×Ļ×§×Ķ
Ġ×ĵ ×Ļ×Ļ×
Ġ×Ķ×ŀ× ľ×Ĺ×ŀ×Ķ
ł×Ļ× £
âĢ İ
âĢ Ŀ
Ġ×Ĺ×ķ× ŀ×Ķ
Ġ×©×ķ× ĺ×¨×Ļ×Ŀ
Ġ×©×ķ× Ĳ×ľ×ª
ŀ×¨ ×Ķ
©×Ļ× Ľ×ķ
¤×ķ× ©
Ġ×Ĵ ×Ļ×Ĳ
Ġ×ŀ×Ķ× ¤×¡×Ļ×Ŀ
Ġm at
Ġ×¦× ¨×¤×ª
Ġ×ĸ× ŀ×ł×Ļ
Ġ×ĳ×Ĳ× ľ×Ļ
Ġ×ĳ×Ĳ× ĵ×ŀ×Ķ
§×Ļ× ľ×ĸ
Ġ×Ķ×Ĳ× ľ×ĳ×ķ×Ŀ
Ġ×ĳ×©× ŀ×Ĺ×Ķ
Ġ×ĳ×ŀ× ¡×¢
×Ĳ× ł×¡
×Ĳ× Ĺ×ĵ
Ġ×©×Ļ× §×
Ġ×Ķ×¤× Ľ×Ķ
Ġ×ķ×Ĳ× ľ×
Ġ×ł×©× ¨
Ġ×¦ ×ķ×ķ×ª
Ġb u
Ġ×¡×ķ× ľ
Ġ×ľ×¤× ¨×§
Ġ×ŀ×Ļ× ¥
Ĺ×ª ×ķ×Ŀ
Ġ×¤×ķ× ª×Ĺ×ª
ĵ×¨ ×ķ
Ġ×ķ×ķ× Ĳ×ĺ
Ø± Ùģ
Ġ×§ ×Ļ×Ļ
Ġ×ľ×ķ× ¤
ŀ×¢ ×ķ
Ġ×ľ×Ĺ× ĵ×¨
Ġ×ĳ×¨× Ĺ×ĳ×Ķ
Ġ×Ķ×¡× ł×
Ġ×ª×©× ŀ×ķ×¨
Ġh it
ĠØ¨ ÙĦ
Ġ×¤×Ļ× ł×Ĵ
Ġ×ŀ×Ľ× ª×ķ×ĳ
Ġ×ķ×ĳ× Ĵ×
Ġ×Ķ×¢× ¦×ĳ
Ġ×¢×¦× ĳ×ł×Ļ
Ġ×¦×ķ× ¤×Ķ
Ġ×¦×ķ× ĵ×§
Ġ×©×ł× Ľ×ł×¡
ĸ×Ļ× ľ×ł×ĵ
Ġ×Ķ×ł× Ĳ×
Ġ×Ļ×Ĳ ×ķ
Ġ×ľ×¨× ĵ×ª
¦×¨ ×ķ
ĠÙĪ Ø§ØŃ
Ġmy self
Ġ×ł×Ĺ× ĸ×ķ×¨
Ġ×Ķ×Ĺ×ķ× ľ
Ġ×Ķ×Ĺ×ķ× ¤×©
Ġ×ķ×Ļ× ĺ×ķ×Ł
Ġ×ŀ×¡×ª× ĳ×ļ
Ġ×ľ×¤×ł×Ļ ×Ļ
Ġ×©×Ľ× Ĳ×Ł
Ġ×ª×¨× Ĵ×¢
Ġ×Ļ×¢× ©×Ķ
Ġ×ŀ×ª×Ĺ× ĳ×¨
ľ×Ķ× §×Ķ
Ġ×Ĳ×ľ×ķ× §×Ļ×Ŀ
Ġ×Ĵ×ĳ×ķ× ľ
Ġgo ing
os t
Ġ×ŀ×Ĺ×ķ× ľ
Ġtr ou
Ġman y
×Ĳ×Ļ× ł×¡×ĺ×¨×ķ×ŀ×ł×ĺ×
Ġ×ª×ķ×¤×¡ ×Ļ×Ŀ
Ġ×ª×Ĵ× ŀ×ķ×¨
×¨× Ĵ×¢
Ġ×ľ×Ķ×ķ× Ľ×Ļ×Ĺ
Ġ×Ĺ×ķ×ľ× ŀ×ª
Ġ×¢×¨× ¡×Ļ×Ŀ
ĺ×ķ×¡ ×Ļ×§
ĳ×ľ× ł×ķ×ª
Ġ×©×Ļ×ķ× ĵ×¢
Ġ×Ķ×©×ª× ĳ×©
Ġ×ľ×Ķ×©×ª× Ĵ×¢
Ġ×§×ĳ×ľ ×ķ
Ġ×Ķ×ŀ×¡× ¤×¨
Ġ×ĳ×© ×Ļ×Ĳ
Ġ×§×¨×ķ× ĳ×Ļ×Ŀ
ŀ×¤× Ŀ
Ġ×Ĵ×ł× ĳ×Ļ×Ŀ
Ġ×ª×ķ×¨×Ļ×ĵ ×Ļ
Ġwho le
Ġ×Ĳ×ł×ķ× ©
Ġ×ĳ×ķ×ľ× ¢
iv ing
Ġ×ľ×¦ ×Ļ×ĵ×Ļ
Ġ×Ķ×¢ ×Ļ×¨×Ķ
Ġ×ĳ×ľ×¢×ĵ ×Ļ×Ļ
¦×ĺ× ¨×£
Ġ×ĳ×©×Ļ×¨ ×ķ×ª×Ļ×Ŀ
Ġ×Ķ×ŀ×¨× Ľ×ĸ
Ġfeel ing
Ġ×ł×© ×Ļ×§×Ķ
Ġ×ŀ×Ĺ×ĸ×Ļ×¨ ×Ļ×Ŀ
Ġ×Ķ×©×Ľ× ł×Ļ×Ŀ
ĺ×ł× ¦×Ļ×
Ġ×ĵ×¨×Ļ× ł×§
! ""
p e
¨ ×ķ×ķ×
Ð ²
× ŀ×Ļ×Ŀ
× Ľ×Ļ×
Ľ ×ķ×¨×Ļ×Ŀ
ŀ ×Ļ×ľ
Ġ× ³
×Ļ× ľ×ĵ×Ļ×Ŀ
Ĳ× ĳ×Ļ×Ŀ
Ĳ× ĺ×Ļ
ľ× §×Ļ×Ŀ
Ġ×Ķ ×ķ×Ļ
©× ľ×ª×Ļ
Ġ×Ķ× Ĺ×Ļ×ķ×ļ
ª× ¤×¨
Ġ×ŀ× ¦×Ļ×ª
Ġ×ŀ× ¡×Ļ×ĳ×ķ×ª
Ġ×©× ĵ
Ġ×©× ĳ×Ķ
Ġ×©× ¨×ķ×Ł
Ġ×©× ¢×ĵ
Ġ×©× Ĳ×Ļ×ª×Ļ
Ġ×©× ĸ×Ĳ×ª
¤× ¢×ľ
§× ¨×¡
Ġ×¢× ¡×§×Ļ×Ŀ
¡× ¤×ķ×
ĵ× ¨×Ļ
ĵ× ©×ª
ĵ× ĳ×§
Ġ×ľ×Ĳ ×Ļ×©
Ġ×ķ× ¡×ķ×
Ġ×ķ× ŀ×Ķ×
Ġ×ª× ¤×Ļ×ľ
Ġ×ª× ł×¡×ķ
¦× ¦×Ļ×Ŀ
×Ķ× Ł
¨×ķ× §×Ł
Ġ×ł× ł×
Ġ×ł× §×¡×ĺ
×Ļ×Ļ× ŀ×¡
ĳ×ķ× §×
Ĺ×ķ× ŀ×Ļ
Ġ×Ĵ× Ĳ×Ķ
ľ×Ĳ ×ķ×ª
Ġ×¡× ŀ×ķ×
Ġ×¡× ĳ×Ļ×ĳ
Ġ×¡× ĳ×Ļ×ĳ×Ļ
Ġ×¡× ł×ĺ×Ķ
§×ķ× ¨×ª
Ġt ing
Ġt wo
Ġ×¨×ķ× ¥
Ġ×ľ×Ķ× Ľ×ł×¡
Ġ×ľ×Ķ× ¦×ľ×Ĺ×Ķ
¨×Ļ× ¡
Ġ×Ķ×ŀ× Ĺ×ķ×
Ġ×Ĳ×ľ ×ķ
ł×Ļ× Ĳ×§
×Ļ×© ×ķ
Ġa fter
Ġ×ŀ×ª× ł×Ķ
Ġ×©×ķ× ¤×ļ
Ġs un
Ġm illion
Ġm orning
Ġ×¦× ŀ×Ĳ
Ġ×§×ķ× £
©×ķ× §×Ķ
on y
Ġ×ĺ× ł×Ļ×Ķ
Ġ×ĺ× ¢×Ļ×ª
Ġ×Ķ×ĳ× ¡×ĺ
Ġ×ĳ×ŀ× ¦×
Ġ×©×ŀ× Ĵ×Ļ×¢
Ġ×Ķ×¤× Ĳ×£
×ķ×ķ ×Ļ×ķ×ª
Ġb itch
Ġ×ŀ×Ĳ× Ĺ×¨
Ġ×ķ×Ķ× ĸ×ŀ×Ł
Ġ×ľ×¤× Ĳ×§×Ļ×ł×Ĵ
Ġ×Ķ×¨× Ľ×ĳ×ª
Ġ×Ķ×ª× ¨×ĳ×ķ×ª
Ġ×ĸ×ķ× ľ×ķ×ĵ
Ġ×ľ×Ĳ× Ĺ×¨
¨×§ ×Ļ
¨×§ ×ķ
Ġ×¤×ķ× ¨×¥
Ġ×Ķ×Ļ× ©×Ł
Ġ×©×Ĳ× ł
ĺ×Ļ× £
Ġ×ľ×ķ× ¡
ĠØ§ ÙĨØª
Ġ×ľ×Ļ× ¨×ķ×§
Ġ×ľ×Ļ× ĵ×ļ
ľ×Ĺ× ŀ×ķ×ª
Ġh is
or k
Ġ×©×Ķ ×Ļ×Ļ×ª×Ķ
Ġ×ł×Ļ× ľ×Ĺ×Ŀ
Ġ×Ĵ×ķ× ¤×ł×Ļ
Ġ×ķ×ľ× ¤×
Ġ×©×ª× ĳ×Ļ×
Ġ×ŀ×¤× ¦×Ļ×¥
Ġ×Ķ×¢× ©×ĳ
Ġ×ª×Ļ× ŀ×ł×Ļ
Ġ×ª×Ļ× ¨×Ĵ×¢
ĠØ§ÙĦ Ø¨
Ġ×ĵ×Ļ× ł×Ĵ
Ġ×ĳ×Ĺ× ľ×ķ×Ł
Ġ×ł×ŀ× ¦×Ĳ×ª
Ġ×ª×¢× ¦×ķ×¨
ĠB oom
ĳ×ķ ×Ļ×
ĠW ant
Ġ×ľ×Ĵ× ł×ķ×ĳ
Ġ×Ķ×Ĺ×ķ× §
×ľ× Ĳ×Ł
ad a
¡×ĺ× ¨×Ļ×Ŀ
Ġ×ķ×Ľ× Ľ×Ķ
Ġ×Ĳ×Ĺ×¨ ×Ļ×ķ×ª
ĠØ£ ÙĨ
Ġ×ŀ×ĸ× ŀ×Ļ×ł×Ļ×Ŀ
Ġ×Ĳ×©× Ľ×ł×
Ġ×ł×¨× Ĵ×¢
Ġ×ª×Ĳ× ŀ×Ļ×Ł
Ġ×Ļ×Ľ×ķ× ľ×ª
Ġ1 9
Ġ×Ķ×ķ×ľ× ĵ×ª
Ġ×Ķ×§×ķ× ¤×Ķ
×© ×ķ×Ĳ×ķ
Ġ×Ļ×Ļ× §×Ĺ
Ġ×Ķ×Ĵ×Ļ×¢ ×ķ
Ġ×Ĺ×ľ× §×Ŀ
Ġ×ŀ×©×Ĳ×Ļ×¨ ×Ļ×Ŀ
×ŀ×Ļ× ľ×Ļ×ķ×Ł
Ġ×Ķ×Ľ×Ļ× ¤×Ĳ×§
Ġ×¢×¨× ĳ×Ļ×Ŀ
Ġ×ł×Ĳ× ŀ×Ł
ĠØ® Ø¶
Ġ×Ķ×ª×§× ľ×Ļ×ĺ×Ļ×Ŀ
Ð°Ð ¼
Ġ×Ķ×¨×Ĳ× ¤×¨
ra zy
Ġ×Ĳ×ĳ×Ļ× ¨×Ļ
Ġ×ķ×ķ×Ļ× ¡×§×Ļ
Ġ×Ķ×¦×ľ ×Ļ×ľ
Ġnot hing
Ġ×ĳ×Ĳ×ķ×ª ×Ķ
Ġ×ľ×ŀ×©× Ĺ×§
Ġ×ľ×Ķ×¡× ª×ķ×ĳ×ĳ
Ġ×ķ×ł×ķ× ©×Ŀ
ne y
Ø±Ø¨ Ùĥ
Ġ×ŀ×ķ×ª× Ĵ
Ġ×ł×Ļ×¦× Ĺ×ķ×Ł
Ġ×Ķ×ŀ×ŀ× ©×ľ×Ķ
Ġ×¡×Ļ×Ĵ×¨ ×Ļ×ķ×ª
ĠÙĦÙĬ Ùĩ
Ġ×ł×ľ×Ĺ× ŀ×Ļ×Ŀ
ł×ª× Ĺ×ķ×ŀ×Ļ
Ġsk y
Ġ×©×ª×ĵ×¢ ×Ļ
Ġ×ŀ×Ļ×ľ×ķ× ľ×Ļ
Ġ×ľ×ŀ×ĵ ×ķ×¨×Ķ
get her
Ġ×Ĵ×¨×Ĳ× ¤×Ļ×ĺ×Ļ
×Ļ×ķ×ķ×Ļ× ª×Ļ
Ġ×Ķ×Ĺ×Ĵ×Ļ× Ĵ×Ķ
' ve
i ed
m an
n g
v a
Ġ 8
Ġ im
Ġ áĪ
ł ×ķ×Ĳ
×ķ× ĸ×Ļ×ľ×ł×ĵ
ľ× ¨×Ļ×Ŀ
ŀ× ł×Ķ
ŀ× ł×ª
ĳ× ĺ×
Ġ×Ĳ× ¦
©× ¨×Ķ
Ġ×ľ× ĳ×ľ×ķ×
Ġ×Ķ× ĳ
Ġ×Ķ× Ľ×Ļ×ª×Ķ
Ľ× Ĺ×Ļ
Ľ× Ĺ×ķ×ª
ª× §×ª
Ġ×ŀ× ł×ª
Ġ×ĳ× ĳ×ľ
Ġ×ĳ× Ĺ×ķ
Ġ×©× ŀ
Ġ×©× Ĺ×Ļ
Ġ×©× ¦×ķ×
Ġ×©× ŀ×ķ×§
Ġ×©× Ĳ×Ķ×
ł× Ĳ×ŀ×Ļ
Ĺ× ¨×ª×Ļ
¤× ĺ×
§× ĺ×Ļ×Ŀ
×ķ×ª ×ķ
Ġ×¢× ĳ
Ġ×¢× ¤×Ķ
Ġ×¢× ł×Ļ×ª×Ļ
ł×Ļ ×Ļ×¨
¡× §×ķ×ľ
Ġ×ķ× ¨×Ļ×
Ġ×ª× Ĳ
Ġ×ª× ŀ×Ļ×Ŀ
Ġ×ª× ©×ķ×ĳ×ķ×ª
¦× ¢×Ļ×Ŀ
×Ķ× ª×
Ġ×ł× ĳ×Ļ×ĺ
ĸ× ŀ×Ķ
Ġ×¨× ĳ×ķ×ª
Ġ×¨× Ĳ×Ļ×
ĳ×ķ× ¢×Ļ×Ŀ
Ġ×¢×ķ× ŀ×¨
Ġ×§× ¡×Ŀ
Ġ×Ĳ×ķ× ¤
Ġ×¤ ×Ļ×ª×Ķ
ł×ķ ×ķ×
Ġ×Ĵ× ĳ×Ļ
Ġ×¡× §
Ġ×¡× ¨×
Ġ×¡× ĳ×ľ
Ġ×¡× ł×ĵ
Ġ×¡× Ĳ×ķ×ł×ĵ
§×ķ× ¥
ĳ×ľ ×Ļ×ľ×ķ×ª
Ġ×Ļ×ķ× Ĳ×ĳ
Ġt imes
Ġ×ľ×Ķ× §×Ķ
Ġ×ľ×Ķ× ĳ×ķ×ª
Ġ×ĵ× Ĳ×ĳ
Ø§ ÙĬÙĨ
Ġ×Ĳ×Ĺ× ¨×ķ×ł×Ķ
Ġ×ĵ ×Ļ×ķ
Ġ×ĳ×ķ× ¡
he d
he s
¨×Ĳ× Ŀ
Ġ×ŀ×Ķ× ĵ×¨×ļ
Ġm ar
ÙĦ Ø©
Ġ×ŀ×©× ŀ×¢
Ġ×§×ķ× ŀ×¤×
Ġ×Ķ×©× ¤×Ķ
Ġ×Ķ×©× ĵ×Ļ×Ŀ
§×Ļ× ¢×Ķ
Ġ×Ķ×ķ× ĸ×Ķ
Ġ×ŀ×¡× Ľ×Ł
Ġ×ŀ×Ĺ× ĳ×Ļ×Ĳ
Ġ×ŀ×Ĺ× ĳ×¨×ª
Ġ×ľ×ŀ× ¦×ĳ
Ġ×ľ×ŀ× Ĵ×Ļ×¨×Ķ
Ġ×ĳ×©× ĵ×Ķ
Ġ×ĳ×©× ĺ×Ĺ
Ġ×ĳ×ŀ× ĺ×ĳ×Ĺ
×Ĳ× ª×Ŀ
re d
Ġb ody
¨×Ĵ ×Ļ×ķ×ª
ĺ×ķ× ł×Ļ
Ġ×ķ×Ķ× ¢×ķ×ľ×Ŀ
Ġ×ľ×¤× ł×ķ×ª
Ġ×Ķ×¨× ŀ×
Ġf ace
... "
Ġ×ľ×Ĳ× ŀ×¨
¢×Ļ× ĸ
Ġ×¢×ľ×Ļ ×ķ×ª
¨×§ ×Ķ
×ŀ× ª×Ĺ×¨×Ļ×Ŀ
Ġ×Ķ×Ļ× Ľ×Ł
Ġ×©×Ĳ× ¤×©×¨
Ġ×ª×ķ× ¦×Ļ×Ĳ
Ġ×¡×Ļ× ł×Ĵ×ķ×ľ×ĵ×Ķ
Ġ×ľ×ķ× ĳ×©×ª
Ġ×Ķ×§× Ĳ×©
Ġ×ľ×Ľ× ¡×£
Ķ× ĺ
ĸ×ķ× ŀ×Ķ
Ġ×ľ×Ļ× ¦×ķ×¨
Ġ×Ķ×Ľ× ª×
Ġ×Ķ×Ľ× ľ×ĳ×Ķ
Ġ×ĳ×¢× ĳ×ķ×ĵ×Ķ
Ġ×©×ª× ĳ×ķ×Ĳ
Ġ×¤×Ļ× §×
ĠT ry
×ĳ× ł×ł×Ķ
Ġ×ĳ×¤× Ĳ×§×Ļ×ł×Ĵ
Ø¯ Ùĩ
Ġ×Ķ×ł× ¤×©
Ġ×ª×¢× ©×ķ
Ġ×¡ ×ķ×¨×Ļ
¨×ĵ ×ķ
Ġ×ª×Ĺ× ľ×Ļ×£
ay be
Ġ×ŀ×ł× §×Ķ
Ġ×ŀ×ł× Ĺ×Ļ×ª
Ġ×Ķ×¦× ľ×Ĺ×ª×Ļ
Ġst y
Ġst ay
Ġst and
Ġ×ª×ª× §×¢×ķ
Ġ×ŀ×Ĵ× ľ×Ķ
ĠN in
Ġ×Ķ×ĺ× ĳ×¢
Ġ×ŀ×©×ķ× ł×Ķ
×§ ×ķ
Ġ×Ķ×Ĳ×ķ× ¤×§
Ġ×Ķ×Ĳ×ķ× ľ×¤×Ł
Ġ×¨ ×ķ×ķ×Ĺ
Ġsh ake
ĠÙĥ Ø§ÙĨ
ł×Ķ× ł×Ķ
Ġ×ł×¡× Ĺ×¤×Ļ×Ŀ
ĠF rom
Ġ×Ĳ×¡ ×ķ×Ł
Ġ×ª×Ĳ× Ľ×ľ
Ġ×ľ×ĺ× ¨×ķ×£
Ġ×ª×ĳ× ¨×Ĺ
¡×ĺ×¨ ×ķ
Ġ×§×¨× Ł
Ġ×Ļ×Ļ× Ĵ×ŀ×¨
Ġ×Ķ×Ĳ×Ĺ× ¨×ķ×ł×Ķ
Ġ×Ľ×©×Ķ ×Ļ×Ļ×ª×Ļ
Ġ×Ķ×¤×¡× Ĵ×Ķ
Ġ×ª×Ľ× ľ×¡
Ġ×ĳ×Ľ×ķ× Ľ×ĳ×Ļ×Ŀ
Ġ×Ķ×¤×¨× ¡×Ļ
ĠØ´ Ø¹
Ġfe ar
Ġ×Ĵ×ł× ĳ×ª×Ļ
Ġ×©×ŀ×Ĺ× ¤×©
Ġfl ow
Ġdr op
×¤ ×Ļ×ª×Ķ
Ġ×ľ×¦ ×Ļ×Ļ×¨
ł×¡×ĺ× ¨×Ļ×Ŀ
Ġ×Ķ×©×Ĳ× ¨×ª×Ļ
×ª×ķ× ĵ×Ķ
ĠĠĠĠĠĠĠĠĠĠĠĠĠĠĠĠ ĠĠĠĠĠĠĠĠĠĠĠĠĠĠĠĠ
we en
ŀ×¨× ŀ×ķ×¨×ª
Ġ×©×¨×Ļ× ĺ×Ķ
Ġ×ĳ×ª×Ĺ×ª ×Ļ×ª
Ġ×ŀ×ł×¦×Ĺ ×Ļ×Ŀ
Ġ×ŀ×ĳ×§× ©×Ļ×Ŀ
ł×ĵ×¨× ľ×Ķ
Ġ×Ĺ×ĸ×Ļ×¨ ×Ļ
¤×Ķ× ¤×Ķ×
Ġ×ł×¨×§×ķ× ŀ×Ł
Ġ×§×¤ ×ķ×Ĳ
Ġ202 6
ĳ×Ļ×ł×Ļ× ŀ×ĺ
Ġdir ty
Ġtrou ble
ĺ×ł×¦×Ļ× Ĳ×ľ
! "
o g
s ide
t im
¡ ×Ļ×§
Ĳ ×Ļ×¨×Ķ
Ľ ×ķ×Ŀ
×ķ× ł×¨
×Ķ ×ķ×ķ
Ĳ× ŀ×Ļ×Ł
ľ× §×ķ×
ĳ× ¨×Ĺ
Ġ×Ķ ×ķ×¨×Ļ×Ŀ
Ġ×Ķ ×ķ×Ļ×
©× ŀ×Ļ×Ŀ
©× ŀ×ķ×ª
Ġ×ľ× Ĵ×Ł
Ġ×ľ× Ĺ×ķ
Ġ×Ķ× ľ×Ļ
Ġ×Ķ× ĵ×Ļ
Ġ×Ķ× Ľ×ķ×ķ×
Ġ×ŀ× ľ×Ļ
Ġ×ŀ× Ĵ×Ł
Ġ×ŀ× ľ×ķ×Ł
Ġ×ĳ× Ĳ×Ł
Ġ×ĳ× Ľ×ķ×ķ×ł×Ķ
¤× Ĵ×
Ġ×Ľ× Ĺ×ķ×
Ġ×Ľ× ĵ×ķ×
§× Ĺ×ª
§× §×Ļ×Ŀ
Ġ×¢× ŀ×Ļ
Ġ×¢× ©×ĳ×Ļ×Ŀ
¡× ľ×Ļ
ĵ× ľ×Ļ
ĵ× ľ×ª×Ļ
Ġ×ŀ ×ķ×ķ×
Ġ×ŀ ×ķ×¨×Ķ
Ġ×ķ× ¨×ķ×ĵ
×Ķ× ł×Ķ
¨×ķ× §×Ļ×Ŀ
Ġ×ł× ©×Ļ×¨
ĺ× Ŀ
ĺ× ¨×ª
ĸ× ľ×Ļ×Ŀ
Ġ×Ĳ×Ļ× ĸ
Ġ×¨× ¢×Ķ
Ġ×¨× §×¢
Ġ×¨× ĳ×Ļ×ĵ
Ġ×¤× §
Ġ×¤× Ĺ×
Ġ×¤× ¦×¢
Ġ×§× ł×Ķ
Ġ×§× ĳ×ķ×¢
Ġ×§× ¡×ŀ×Ļ×Ŀ
Ġ×Ĳ×ķ× ľ×
Ġ×Ĳ×ķ× §×Ļ
×Ļ×¨ ×Ļ×Ļ×Ķ
Ġ×Ĵ× ¨×Ļ×
Ġ×Ĵ× Ĳ×Ł
Ġ×ŀ×Ķ ×ķ×
×Ļ×Ķ ×Ŀ
Ġ×Ļ×ķ× ł×Ļ×ª
Ġ×¨×ķ× ĳ×Ļ×Ŀ
Ġ×ĵ× ľ×ķ×§
Ø§ Ø³
Ġ×ŀ×ķ× ĳ×Ļ×ľ
Ġ×Ľ×ķ× ĳ×©
ŀ×ķ× ¤
.. ..
Ġ×Ķ×ŀ× ª×Ĺ
Ġ×Ķ×ŀ× ł×Ļ×Ļ×§
Ġa h
Ġ×ŀ×ª× ľ×ķ×ł×Ł
Ġ×©×ķ× §
Ġm a
Ġm ine
Ġm iddle
Ġ×Ĳ×ķ ×Ļ×ĳ×Ļ×Ŀ
Ġ×¦× Ĺ×ķ×§×Ļ×Ŀ
Ġ×¦× ¤×ķ×£
Ġ×ł×ķ× £
Ġ×ł×ķ× ¢×
Ġ×§×ķ× ©
Ġ×§×ķ× ľ×Ķ
Ġ×§×ķ× ¤×Ķ
ľ×ķ× ł×Ķ
Ġ×Ķ×©× ľ
Ġ×Ķ×ķ× ŀ×
Ġ×ŀ×¡× ĵ×¨
Ġ×ŀ×¡× Ľ×Ļ×Ŀ
Ġ×ľ×ŀ× ĵ×ł×ķ
Ġd ream
Ġ×ĳ×©× §
Ġ×ĳ×©× §×ľ
Ġ×©×ŀ× ļ
Ġ×©×Ļ× Ĵ×Ļ×ĵ×ķ
ĵ×ķ× £
Ġ×¦ ×Ļ
¨×Ĵ ×Ļ
Ġ×ķ×Ķ× §×
Ġ×ķ×Ķ× ĳ×Ļ×ĺ
Ġ×¡×ķ× ª×Ŀ
Ġ×Ķ×¨× ¢×©
Ġf ollow
Ġc ount
Ġ×ŀ×ŀ× ĺ×¨
Ġ×ĸ×ķ× ľ
Ġ×ľ×Ĳ× ľ×ķ×Ķ×Ļ×Ŀ
¡×ĺ ×ķ
Ġ×ķ×ŀ× ĳ×
×ŀ× ĺ×
Ĵ×Ļ× ĸ
Ġ×Ķ×Ĵ× ¢×ª×Ŀ
Ġg un
Ġ×ª×ķ× Ľ×ł×Ļ×ķ×ª
Ġ×§ ×Ļ×ĵ
ĺ×Ļ× ¤×ķ×Ł
Ġ×¡×Ļ× §×¡
Ġ×ľ×Ĺ× ©×ķ×©
Ġ×ĳ×¨× Ĵ×ľ
Ġp re
Ġ×Ķ×Ļ×Ļ× ĺ×¨×Ļ×Ŀ
Ķ× ľ
Ġ×ľ×Ļ× ĺ
Ġ×ª×©× Ĳ×ľ×Ļ
Ġ×©×Ķ ×Ļ×Ļ×ª
Ġ×ĳ×¢× ĺ
Ġ×©×ª× ¢×
Ġ×ŀ×¤× Ĵ×¨
Ġ×Ķ×ĵ× ŀ×¢×ķ×ª
Ġ×ĳ×§× ¨×ķ×ĳ
ĠT ell
Ġ×ŀ×Ľ× ¡×Ķ
Ġ×ķ×ĳ× ŀ×
Ġ×ķ×ĳ× ĺ×Ĺ
Ġ×Ĳ×Ķ ×ķ×
Ġ×ĵ×Ļ× ¡×
Ġ×ĵ×Ļ× ¡×Ļ×Ŀ
Ġ×ľ×ª× ľ
Ġ×Ķ×ł× ©×Ļ×ŀ×Ķ
Ġ×Ķ×ł× ¨×Ĵ×Ļ×ľ×Ķ
ĠB ack
×ª× ©×¢
Ġ×ķ×ł× ¨×Ĳ×Ķ
Ġ×ķ×ł× ª×Ĺ×Ļ×ľ
Ġwe h
Ġe l
Ġ×Ķ×ĸ× ¨×Ŀ
Ġst art
Ġ×ł×¢× ľ
Ġ×ĳ×Ĳ×ķ× ¤×§
Ġ×ķ×©× ª×Ļ×Ļ×Ŀ
ĠØ¹ ÙĨØ§
Ġ×Ľ×©×Ķ× Ľ×ľ
ľ×Ļ×ĺ ×Ļ×§×Ķ
Ġ×¢ ×Ļ×ª×ķ×Ł
Ġ×ĳ×Ļ×Ļ× ¤
ir d
Ġ×ł×¨× ĵ×
ĠF or
Ġ×ľ×ĸ× Ľ×ķ×¨
Ġ×ŀ×ĺ×ķ× ¨×¤×Ļ×Ŀ
ĵ×¨× Ľ×Ķ
Ġ×ŀ×Ľ×ķ× ł×Ļ×ª
Ġ×§×¨ ×Ļ×Ļ×¨×Ķ
ł×Ĵ× ¡×ĺ×ķ×Ł
×Ķ×Ķ ×Ķ
Ġ×¢×ĸ× ĳ×ª×Ļ
Ġ×ľ×Ķ×ķ× ĵ×ķ×ª
Ġ×ł×ĵ× ľ×§
Ġ×Ĺ×Ļ×Ļ× ĳ×ª
ĠWe ll
Ġv o
ĠØ® Ø§ÙĬÙĨ
Ġ×Ķ×¨×Ĳ× ¤×¨×Ļ×Ŀ
Ġ×ķ×Ľ×©× Ĳ×ł×Ļ
ough t
Ġ×ĳ×ŀ×Ĺ× ©×ĳ×ķ×ª
Ġ×Ĺ×¨× ŀ×Ł
Ġ×Ĳ×¨ ×Ļ×Ķ
Ġ×ª×Ĵ×ĳ×Ļ×¨ ×ķ
Ġ×Ķ×ķ×ķ× Ĳ×Ł
Ġ×ķ×Ļ×ķ× ¦×Ĳ
Ġ×Ķ×¢ ×Ļ×Ł
Ġday s
Ġ×ŀ×ķ×ª× ©
×ĳ×Ĳ× ¡×Ļ×Ŀ
Ġ×ľ×©×Ļ× ł×ķ×Ļ×Ļ×Ŀ
Ġ×Ĺ×ŀ×ķ× ©
Ġ×¤×ª×ķ× Ĺ×ķ×ª
Ġ×Ĺ×Ļ×ķ× Ľ×Ļ×Ŀ
FF FF
Ġgirl s
Ġ×Ĳ×ĳ×ķ×ª ×Ļ×ł×ķ
het to
Ġ×ŀ×Ķ×ŀ×Ļ× ĺ×Ķ
Ġ×§×¢× §×ķ×¢
ĠÙĨÙĪ ÙĬÙĦ
Ġ×ĳ×ĳ×¢×Ļ× ĺ×Ķ
×Ĳ×Ļ×ł×¡×ĺ×¨×ķ×ŀ×ł×ĺ× ľ×Ļ
ĠØ®Ø¶ Ø±Ø§
" (
' !
C a
h h
k y
m a
s h
v es
× ¨×Ĳ×
× ĺ×Ķ
ŀ ×Ļ×©×Ļ
×ķ× ĸ×
×Ļ× ¢×Ķ
×Ļ× Ĵ×Ļ×Ŀ
×Ļ× ©×¨×Ĳ×ľ×Ļ×Ŀ
ľ× §×ª×Ļ
ŀ× ĳ×Ł
ĳ× ł×ķ×ª
Ġ×Ĳ× §×ķ×Ŀ
Ġ×Ĳ× Ĵ×ĳ
©× ŀ×ķ
©× ľ×ķ×Ł
Ġ×ľ× ĳ×Ļ×ĺ
Ġ×ľ× ĵ×ķ×¨
Ġ×Ķ× ĺ×ķ×¤
¨× ¨×Ķ
Ġ×ŀ× ©×ķ
Ġ×ĳ× ł×Ļ×Ļ×Ł
Ġ×©× Ĳ×ķ×ª
ł× ¨×ª
ł× ł×ª
Ġ×Ľ× ¤×
Ġ×Ľ× ©×Ļ×
Ġ×Ľ× ĸ×ķ
Ġ×¢× ĳ×ĵ×Ļ×Ŀ
Ġ×ľ ×Ļ×Ķ
Ġ×ķ× ¤×ķ×
Ġ×ª× ĵ×Ĳ×
Ġ×Ļ× ¨×ķ×©×
ĳ×Ļ× ľ×Ķ
¨×ķ× ľ
ĸ× ĳ×ķ×ª
Ġ×Ĳ×Ļ× ĳ×ĵ
Ġ×ª ×ķ×¨
Ġ×¨× Ľ×Ķ
×Ļ×Ļ× ĵ
Ġ×§× ŀ×ª×Ļ
Ġ×Ĺ× ¦×ķ×£
Ġ×Ĳ×ķ× ŀ×Ł
Ġ×Ĳ×ķ× ĸ×Ł
Ġ×¤ ×Ļ×Ļ×Ł
Ġ×Ĵ× Ĵ
§×ķ× ¤×ª
Ġ×ľ×Ķ× ¨×©×Ļ×Ŀ
Ġ×ĵ× ¢×ķ×ª
Ġ×ĺ ×Ļ×§
Ġ×ŀ×ķ× §
Ġ×ŀ×ķ× ¡×Ļ×£
Ġ×ĳ ×ķ×ķ×
Ġ×Ķ×ŀ× Ĺ×Ļ×¨
Ġ×ĳ×ķ× Ĵ×Ķ
Ġ×ĳ×ķ× ľ×ĺ
Ġ×ĳ×ķ× ¨×Ĺ×Ļ×Ŀ
Ġ×ŀ×ª× ĳ×Ļ×Ļ×©
Ġ×Ĺ×ķ× ¨×ĸ
Ġ×©×ķ× ĳ×¨×Ļ×Ŀ
Ġs we
©×Ļ× Ľ×Ķ
Ġ×ŀ×Ķ× ¦×¨×ķ×ª
Ġ×Ĳ×ķ ×Ļ×Ķ
Ġ×ĸ ×Ļ×ª
Ġ×ŀ×©× ŀ×Ķ
Ġ×ŀ×©× §×¨
Ġ×ŀ×©× ŀ×¢×ķ×ª
Ġ×§×ķ× ľ×Ļ
ŀ×Ļ× ĸ
ŀ×Ļ× §×¡
Ġw ine
Ġ×ĸ× Ľ×¨×ķ×ł×ķ×ª
Ġ×Ķ×ķ× ĵ×¢×ķ×ª
Ġ×Ķ×Ĳ× ľ
Ġ×Ķ×Ĳ× Ĺ×ĵ
Ġ×Ķ×ĳ× ¡
Ġ×©×ŀ× Ĳ×ľ×Ķ
×Ĳ× ł×©×Ļ×Ŀ
Ġ×ĺ×ķ×ĳ ×Ļ
Ġ×ł×©× ¨×ķ×£
Ġ×ŀ×Ĳ× Ĺ×ķ×¨×Ķ
an a
Ġ×ľ×¤× ¨×ķ×©
Ġl ow
Ġ×Ķ×ª× ¨×
Ġ×©×Ķ× ¢×ķ×ľ×Ŀ
Ġ×ľ×ĳ× ĵ×Ļ
Ġ×ķ×ŀ× ª×Ĺ×
Ġ×ķ×ŀ× Ĺ×¨
Ĵ×ķ× ¡×ĺ
×ŀ× ª×Ļ
§×¨ ×Ļ×Ļ×¨×Ķ
Ġ×Ķ×Ļ× ©×ĳ×Ł
Ġg one
Ġg ame
Ġ×©×Ĳ× ľ
Ġ×©×Ĳ× §×Ķ
Ġ×ª×ķ× Ľ×ł×Ļ×ª
Ġ×§ ×ķ×ĳ×Ļ
Ġ×ľ×ķ× Ķ×ĺ
Ġ×Ķ×§× ¨×Ĺ
Ġ×Ķ×§× ĳ×Ļ×ł×ĺ
ª×Ķ ×Ļ×ľ×Ķ
ľ×ĵ ×ķ×ª
Ġp as
Ø¨ ÙĪ
Ġ×ª×©× Ĵ×¢
Ġ×Ķ×Ľ× ĵ×ķ×¨
or n
Ġ×©×Ķ ×Ļ×ķ
Ġ×ł×Ļ× ł×Ĵ
Ġ×ª×§× ľ×Ļ×ĺ×Ļ×Ŀ
Ġ×©×ª× ĳ×Ļ×Ł
×©× ª×Ļ
Ġ×¤×Ļ× §×¡
ĠT ake
Ġ×Ķ×¢× ¥
ĠØ§ÙĦ ÙĪ
Ġ×ŀ×¨× Ĺ×§
Ġ×Ķ×Ľ×Ļ ×ķ×ķ×Ł
×Ľ× Ľ×Ķ
am i
ĠÙĪ Ø±
Ġ×ª×Ĺ× ¨×ķ×ª
Ġ×ª×Ĺ× ĸ×¨×Ļ
ØŃ Øª
Ġ×ª×ª× ¢×ķ×¨×¨
Ġ×Ķ×Ĺ×ķ× ľ×¦×Ķ
Ġ×ľ×ĵ× ¨×ķ×©
Ġ×ľ×ĵ× Ĺ×ķ×£
ad d
Ġ×ķ×Ļ× ľ×¦
Ġ×ł×¢× ľ×ŀ×Ļ×Ŀ
Ġr hy
Ġ×Ķ×ŀ ×Ļ×Ļ×
ĠD e
ĠD i
Ġ×Ļ×ľ× ĵ×ķ×
Ġhe l
ĠH ip
Ġ×Ĺ×©× ©
Ġbe aut
ĠL ord
ĠL ook
ł×ĵ ×ķ×Ł
ĠØ£ ÙĨØª
¤×¨× ¤
Ġ×Ĵ×Ļ× ĳ×ķ×¨×Ļ×Ŀ
ĠÙĥ ÙĬÙģ
Ġ×Ķ×Ĵ ×Ļ×Ķ×ł×ķ×Ŀ
Ġ×©×Ĺ× ĳ×ľ
ĠP l
Ġ×ŀ×Ļ×Ļ× §×ľ
Ġ×Ķ×ĳ×ķ× ľ×
Ġ×ŀ×©×ª× Ĵ×¢
Ġ×Ķ×ª×Ĺ× ľ×ª
Ð° ÑĤ
Ġ×ŀ×Ķ×ŀ× ¦×Ļ×Ĳ×ķ×ª
ĵ×¨× ¤×
¨×Ĵ×Ļ× ¢
Ġ×ĳ×ĵ×ķ× Ĵ×¨×Ļ
Ġ×ķ×Ĳ×ķ× ª×ļ
×¨× ¡×§×Ļ
Ġ×ľ×Ķ×ķ× ¤×¢×Ķ
Ġ×ł×Ķ× ĵ×¨×ª
Ġ×ł×§× ¨×Ĳ
Ġ×Ķ×¤×¡× §×Ķ
Ġ×ľ×Ĳ×ķ× ľ×¤×Ł
Ġ×ľ×©×ŀ×ķ× Ĺ
Ġ×§×ľ× Ĳ×Ł
Ġ3 6
ĠØ® ÙĦÙĬ
Ġ×ĳ×Ĺ×ķ× ©×ļ
Ġ×Ĳ×Ļ×¦ ×Ļ×§
Ġch ild
Ġ×§×¨×Ļ× ŀ×Ļ×
Ġ×ľ×ŀ×ķ× ĸ×Ļ×§×Ķ
Ġ×ŀ×¨ ×ķ
ĠØ¬ ÙĨ
Ġ×Ķ×ľ ×Ļ×¨×Ļ×§×¡
Ġ×ŀ×Ļ×ĵ ×Ļ×Ļ
Ġ×ķ×Ĺ×ķ× ©×ĳ
Ġ×ŀ×¦ ×ķ×ķ×Ķ
Ġ×Ĺ×¨× ĺ×Ĳ
ĠØ· ÙĦØ¹
Ġ×Ĺ×©×ķ× ĵ
Ġ×ª×ĳ×Ļ× ł×ķ
ud e
Ġbet ween
Ġcon t
if ul
Ġ×ľ×Ķ×¢× ĳ×Ļ×¨
Ġ×Ļ×¦×Ļ× ĳ
Ġ×ł×¡×Ļ× Ľ×Ķ
Ġ×ª×ĸ×Ļ× ĸ×ķ
Ġ×©×ª×Ķ ×Ļ×Ķ
Ġ×©×ª×Ķ ×Ļ×Ļ
Ġ×¦×Ļ×¤ ×Ļ×ķ×ª
Ġ×Ĺ×©×ĳ ×ķ
Ġ×¨×¦× ª×Ķ
Ġpos itive
Ġspe ak
Ġ×Ķ×Ĵ×ĵ×ķ× ľ×Ķ
Ġ×Ķ×ª×¢×ķ×¨× ¨×ª×Ļ
Ġyear s
Ġ×Ĳ×ĸ×Ķ ×¨×Ķ
Ġlyric s
Ġ×¤×Ĵ×Ļ×¢ ×Ķ
Ġsty le
! âĢı,
a ire
l im
r o
¦ ×ķ×Ļ
× ĳ×Ķ
× ĳ×ķ×§×¨
Ľ ×Ļ×Ļ×Ł
×ķ× ŀ×Ļ
Ĳ× ¦
ľ× ł×Ĵ
ŀ× ľ×Ĳ
ŀ× ĳ×ľ
Ġ×ľ× ŀ×Ļ×Ŀ
Ľ× Ĺ×ķ
¨× ¤×
¨× ł×ķ×ª
ª× ľ×Ļ×Ŀ
Ġ×ŀ× Ĺ×ķ
Ġ×ŀ× ŀ×Ķ×
Ġ×ĳ× ¢×ª×Ļ×ĵ
Ġ×ĳ× Ĺ×ķ×Ŀ
Ġ×ĳ× Ĺ×Ļ×ľ×Ķ
Ġ×©× ¡×
Ġ×©× ĸ×ķ
ł× ĳ×ª
ł× ĳ×Ļ×Ŀ
ł× Ĵ×ľ
¤× Ĵ×©
§× ł×Ķ
§× ¨×Ĳ
Ġ×¢× ¦×ķ×
Ġ×ľ ×Ļ×¨×ķ×ª
¡× ĵ
Ġ×ķ× ľ
Ġ×ķ× ĸ×
Ġ×ķ× §×Ļ×
Ġ×ķ× Ĵ×Ļ×
Ġ×ķ× ¤×Ļ×
Ġ×ķ× ©×Ŀ
Ġ×ª× ł×¡×Ļ
Ġ×ª× ¡×ª×ķ×Ŀ
¦× ĳ×Ł
Ġ×Ļ× ª×¨
Ġ×ł× ĺ×ķ
Ġ×ł× ĵ×ŀ×Ķ
Ġ×ł× ĳ×ł×Ķ
ĺ× ¨×ļ
ĺ× Ĵ×Ĳ×Ł
ĸ× ŀ×ķ×ł×Ļ×Ŀ
Ġ×¨× Ĳ×Ķ
Ľ×ķ× ¤×£
Ġ×¤× ¨×Ĳ×
Ġ×§× ŀ×Ķ
Ġ×Ĺ× ¤×¥
Ġ×Ĳ×ķ× ł×ķ
Ġ×Ĳ×ķ× ¨×Ĵ×
Ġ×¡× Ĺ×Ļ
§×ķ× ľ×Ļ×Ŀ
Ġ×ľ×Ķ× ŀ×
Ġ×ľ×Ķ× ª×Ļ×Ļ×
Ġ×ľ×Ķ× ĸ×Ļ×¢
Ġ×ĵ× Ĵ×ľ
Ġ×ĵ× Ĵ×Ļ×Ŀ
Ġ×ĺ ×Ļ×ľ×Ļ×Ŀ
Ġ×ŀ×ķ× Ĵ×
ł×ķ× ¤
Ġ×ĵ ×Ļ×ľ
Ġ×Ķ×ŀ× Ľ×ł×¡
Ġ×Ķ×ŀ× ł×Ĵ×Ļ×ł×ķ×ª
Ġ×ĳ×ķ× ©×ķ×ª
Ġ×ŀ×ª× ¨×Ĵ×
Ġ×Ĺ×ķ× §×Ļ×Ŀ
Ġ×©×ķ× £
Ġs on
Ġs ick
Ġ×ŀ×Ķ× ĺ×
Ġ×ŀ×Ķ× Ĳ×ķ×
Ġm iss
ou ch
Ġ×¦× ¨×Ķ
Ġ×Ķ×©× ľ×ķ×Ŀ
Ġ×Ķ×ķ× ľ×Ķ
Ġ×Ķ×ķ× ¦×Ĳ×ª
Ġ×ŀ×Ĺ× ĳ×¨×Ļ×Ŀ
Ġ×Ķ×Ĳ× Ĺ
Ġ×Ķ×Ĳ× ĵ×
Ġ×ľ×ŀ× ľ×Ĳ
Ġ×ĺ× ľ×¤×ķ×Ł
Ġ×ĳ×ŀ× §×¨×Ķ
×Ĳ× ŀ×Ĳ
Ġ×Ķ×¤× ľ×
Ġ×ľ×©× ľ×ķ×ĺ
Ġ×ľ×¤× ¨×ķ×¥
Ġ×ľ×¤× ¡×¤×¡
Ġ×ľ×¤× ¢×ķ×Ŀ
Ġ×Ķ×¨× Ĺ×ķ×ĳ×ķ×ª
Ġ×ľ×ĳ× Ĳ×
Ġc ause
Ġ×ŀ×ŀ× Ľ×¨
Ġ×ŀ×ŀ× ľ×Ĳ×Ļ×Ŀ
Ġ×ĸ×ķ× Ľ×¨×Ļ×Ŀ
Ġ×¤×ķ× ĺ×ł×¦×Ļ×Ĳ×ľ
Ġ×Ĺ ×Ļ×ľ×ķ×
ĳ×¢ ×ķ×ª
Ġ×Ľ×©× Ĺ×
Ġ×Ĳ×ŀ× ¨×Ļ×
Ġ×ľ×ķ× ĵ
Ġ×ľ×Ľ× ĳ×ķ×ª
Ġ×Ķ×¡× Ŀ
¤×Ļ× ¡×ĺ
ľ×ľ ×ķ×ª
Ġp lease
Ġp retty
Ľ×ķ×ľ ×ķ×ª
Ġ×ĳ×©×ĳ×Ļ× ľ×Ķ
Ġ×ľ×Ķ×ª× Ĳ×Ķ×ĳ
Ġh as
Ġto p
Ġto gether
Ġ×ĳ×¢× ¨×ĳ
Ġ×ĳ×¢× ł×Ļ×Ļ×ł×Ļ×Ŀ
Ġ×ķ×ľ× ¦×
Ġ×©×ª× ĸ×
Ġ×ŀ×¤× ł×§
Ġ×ĳ×§× ĺ×ł×Ķ
ĠØ¨ ÙĤ
ĠØ¨ ÙĦØ§
Ġ×ŀ×Ľ× ĳ×Ķ
Ġ×ķ×ĳ× ¢×
ar y
Ġ×ª×Ļ× ©×
Ġ×Ķ×Ĳ ×Ļ×ĵ×Ļ×ķ×ĺ×Ļ×Ŀ
ĠØ§ÙĦ Ùģ
ĠØ§ÙĦ Ø¬
Ġ×Ĳ×¦× ľ×Ļ×Ĺ
Ġ×©×ł× ª
Ġ×ŀ×¨× Ľ×ĸ
Ġ×Ļ×©× ł×Ķ
Ġ×Ĳ×ľ× ŀ×
¨×ĳ ×ķ
Ġ×ķ×ª× Ĺ×
Ġ×ŀ×ľ× ŀ×ĵ
Ġ×Ľ×Ļ× ¡×Ĳ
×¢× Ľ×©×Ļ×ķ
×Ľ× Ĳ×Ł
Ġ×Ĳ×ŀ×¨ ×Ļ×§×Ķ
Ġ×ľ×¦× ľ×ķ×ľ
Ġ×ľ×Ĵ× ŀ×¨×Ļ
Ġwe re
Ġ×ł×Ĺ× ©×Ļ×Ŀ
Ġ×ł ×ķ×Ł
Ġli ving
Ġ×¤×¨× ¡×Ķ
¡×ĺ× ¨×Ķ
Ġ×ł×¢× ĳ×ķ×¨
Ġ×ĳ×ľ× ¢×ª×Ļ
Ġ×ĳ×ĺ× ľ×ķ×ķ×Ļ×ĸ×Ļ×Ķ
Ĺ×Ļ× ł×Ķ
Ġre l
Ġ×ĳ×Ķ ×ķ×
Ġ×©×ľ× ©×ķ×Ŀ
Ġ×Ķ×Ķ× ©×
Ġ×Ķ×Ķ× ¦×ľ×Ĺ×Ķ
ĠØ£ ÙĦ
×¡× ľ×ķ×
×ł× ©×ŀ×Ķ
ĠÙĦ ÙĦ
ł×ĺ× ĸ
×ŀ ×Ķ×
Ġ×©×Ĺ× ©×ķ×ĳ
§×ķ×ĵ ×ķ×ª
Ġ×Ķ×Ļ×ĵ ×Ļ×¢×Ķ
Ġ×ł×¨× §×ķ×ĵ
ĠÙģ Ø§
Ġ×Ķ×Ĺ×ĳ×¨ ×ķ×ª
Ġ×ŀ×Ķ×ŀ× Ĺ×
Ġ×Ķ×Ľ×ķ× Ľ×ĳ×Ļ×Ŀ
Ġtr ue
Ġ×ª×Ĵ× ľ×Ļ
Ġ×ł×©×Ĳ× ¨×Ķ
Ġ×ŀ×ł×ķ× Ĺ×Ķ
Ġ×Ĳ×ĳ× ©×Ķ
Ġ×Ĳ×ĳ× ł×Ļ×Ŀ
Ġ×ĵ×¨× Ľ×Ļ
ŀ×ķ×¡ ×Ļ×§×Ķ
Ġ×ľ×ľ× ŀ×ĵ
Ġ×Ľ×Ķ× ł×ķ×ĳ
Ġ×¡×ķ×ķ×Ļ× ¡×Ļ
Ġ×ĳ×ľ×ķ× ¤
×ľ×Ķ ×Ļ×ķ×ª
Ġ×¤×¨×Ļ× ¡×ĺ×Ļ×Ļ×ľ
Ġ×Ļ×¦×Ĳ ×ķ
Ġ×ĳ×ĳ×Ļ× ľ×ķ×Ł
Ġ×ľ×Ķ×Ĺ× ĸ×Ļ×¨
Ġ×Ķ×¨×Ĵ×¢ ×Ļ×Ŀ
Ġ×ĳ×Ĳ×ł×Ĵ ×Ļ×Ŀ
Ġ×©×Ķ×©× ŀ×©
Ġ×ľ×ŀ×Ļ× ĺ×Ķ
iz e
Ġ×ĳ×ķ×ľ× ĵ×ķ×
×Ķ×¤× Ľ×Ķ
Ġ×¨×Ĵ ×Ļ×©
Ġ×©×ŀ×¢× ª×Ŀ
ĠHe y
Ġ×§×ķ×ŀ× ĳ×Ļ×ł×Ķ
×ĵ×Ĳ× ĳ×ľ
Ø§ÙĬ Ùģ
Ġ×ª×ª×§× ©×¨
Ġ×ł×ľ×Ĺ× ŀ×ª×Ļ
×ķ×¤× ¢×ķ×ª
Ġ×Ĳ×ĵ×ķ× ł×Ļ
Ġ×ľ×¢ ×Ļ×ĵ×ķ
Ġ×ĳ×ĺ×Ļ× ¨×ķ×£
Ġ×Ļ×Ķ× ľ×ķ×Ŀ
Ġyu h
Ġ×ĸ×¨× §×ª×Ļ
Ġbre ak
Ġ×Ķ×¤×Ĳ× ł×§
×Ļ×ķ×ķ× ¨×ª
Ġ×©×ŀ×©×ª× ŀ×©
ĠLe gal
Ġ×ŀ×Ľ×ł×¡ ×Ļ×Ļ×Ŀ
Ġ×ĺ×Ļ×ķ× ľ
Ġ×ĳ×ķ×¡× §×Ļ×ľ×ĸ
Ġ×ł×ķ×Ķ× Ĵ
Ġ×ŀ×¤×ķ×¨× ¡×Ŀ
Ġscream ing
Ġ×Ļ×ľ×ĵ×ķ× ł×ª
l ow
o ah
u g
u z
¡ ×ķ×Ļ
¦ ×ķ×Ŀ
× ľ×Ļ×
× Ĵ×Ł
× ª×Ļ×
á Į
Ĳ ×Ļ×Ļ×§
Ĵ ×Ļ×Ķ
×ķ× ľ×
Ĳ× ł×¡
©× ĳ×ª×Ŀ
Ġ×ľ× ĸ×ķ
Ġ×ľ× ĺ×ķ×¡
Ġ×ľ× Ĵ×ķ×£
Ġ×Ķ× ¨×Ĵ×Ļ×©
Ġ×Ķ× ĺ×ķ×¡×Ļ×§
Ľ× ĳ×Ļ
¨× ¡×Ķ
Ġ×ŀ× ľ×Ķ
Ġ×ĳ× ł×ķ×
Ġ×©× ŀ×Ļ
Ġ×©× ¤×ķ×
Ġ×©× ©×¨
Ġ×©× ¤×ķ×ļ
Ġ×©× ľ×Ĺ×ª×Ļ
Ĺ× ¨×
Ĺ× ľ×ĺ
¤× Ĳ×Ļ×Ŀ
§× ĳ×ķ×§
Ġ×ķ ×Ļ×§
¡× ľ×Ķ
ĵ× ¨×Ĵ×ķ×ª
Ġ×ª× ¤×Ļ×
Ġ×ª× ľ×Ĺ×¥
¦× ¨×ª
¨×ķ× ł×Ļ
ĺ× ¤×ķ
ĸ× ł×¡
Ġ×¨× Ľ×
Ġ×¢×ķ× ĳ×ĵ×Ķ
Ġ×§× ľ×ĺ×ª×Ļ
Ġ×Ĳ×ķ× ĺ×ķ
Ġ×Ĳ×ķ× ľ×¤×Ł
Ġ×¤ ×Ļ×Ļ×Ķ
×ķ×ĳ ×Ļ×ķ×ª
Ġ×¡× ľ×ĺ
Ġ×¨×ķ× ª×Ĺ×ª
Ġ×ĵ× ¨×ķ×ļ
Ġ×ĵ× ŀ×Ļ×ķ×Ł
Ġ×ĺ ×ķ×¨×ķ
Ġ×ĵ ×ķ×Ŀ
Ġ×ĵ ×Ļ×§
Ġ×Ķ×ŀ× Ĵ×Ļ×¨×Ķ
Ġ×ĳ×Ļ× £
Ġ×ĳ×Ļ× ĳ×Ļ
Ġ×Ľ×Ļ ×ķ×ķ×ł×Ļ×Ŀ
Ġ×ĳ×Ĳ ×Ļ
Ġ×ĳ×Ĳ ×ķ×¨
Ġ×ŀ×ª× ŀ×ķ×
Ġ×ŀ×ª× ŀ×ķ×ĵ×ĵ
Ġ×ŀ×ª× ł×Ķ×Ĵ
ĠØ «
ĠØ ¶
Ġ×Ĺ×ķ× ĺ
Ġ×Ĺ×ķ× ¦×Ķ
ª×ķ× ľ
Ġ×©×ķ× ł×Ļ×Ŀ
Ġ×©×ķ× ª×§
Ġ×©×ķ× ŀ×¢×ª
"" !,
Ġ×ŀ×Ķ× Ĵ
Ġ×ŀ×Ķ× Ĵ×
Ġ×ŀ×Ķ× Ĵ×ĳ
Ġm us
Ġ×¦× ¨
Ġ×ł×ķ× ¦×¥
ŀ×Ļ× ľ×Ķ
Ġ×Ķ×©× ĳ×ĺ
Ġ×Ķ×©× Ĺ×Ļ×ª×ķ×ª
Ġ×ĳ×Ĳ× §×
Ġ×ĳ×Ĳ× ŀ×ķ×ł×Ķ
Ġ×Ķ×Ĳ× Ĺ×ª
Ġ×Ķ×Ĳ× ĵ×Ŀ
Ġ×ĳ×ŀ× Ľ×ķ×ł×Ļ×ª
×Ĳ× ŀ×
Ġ×©×Ļ× ¡×Ĵ×¨
Ġ×Ķ×¤× ©×¢
Ġb el
Ġ×ŀ×Ĳ× ¡×ĺ×¨
ĺ×ķ× Ĳ×
Ġ×ķ×Ķ× ¨×Ĳ×©
¤×¨ ×Ļ×Ļ×Ŀ
Ġ×Ķ×ª× ¡×
Ġ×ľ×¢× Ľ×ľ
Ġ×ľ×Ĳ× Ĺ×ĵ
Ġ×ľ×Ĳ× ¨×¥
Ġ×Ķ×Ĺ× ĵ×©×Ķ
Ġ×¤×ķ× ĸ×Ķ
Ġ×ĵ×ķ× ĵ×Ķ
Ġ×ĵ×ķ× ¨×¡
Ĵ×Ļ× ĳ
Ġ×Ķ×Ļ× ľ×ĵ×Ķ
at h
Ġp ick
¡×Ļ ×ķ×
Ġ×ľ×Ķ×ª× ¤×ķ×¦×¥
Ùħ Ø³
Ùħ Ø§ÙĨ
Øª Ùĥ
Ġ×ĳ×¡× ¦×ł×Ķ
Ġ×ŀ×§× ľ
Ġ×ŀ×§× ©×Ļ×
Ġ×ª×©× Ĳ×ľ×ķ
ĺ×¨ ×Ļ×Ķ
Ġ×ŀ×ĳ× ĺ×Ļ×Ŀ
Ġ×ŀ×ĳ× ¢×ĵ
Ġ×ŀ×ĳ× Ĺ×Ł
Ġ×ł×Ļ× ¡×¢
Ġ×Ĵ×ķ× ¨×ľ
Ĳ×Ļ× ĳ
ĠA l
ĠA re
Ġ×ĳ×§× ¦×Ķ
ar s
Ġ×ª×Ļ× ł×ķ×
Ġ×ª×Ļ× ¤×ķ×ľ
ĠØ§ÙĦ Ø³
Ġ×ĵ×Ļ× Ĵ×Ļ×
Ġin to
ľ×ĺ ×ķ
Ġ×ĳ×Ĺ× ľ×ķ×Ŀ
Ġ×ĳ×¤× ¡×Ĵ×Ķ
Ġ×ĺ×Ļ× ¨×ķ×£
Ġ×ľ×¡× ĵ×¨
Ġ×ķ×ª× ¢×
Ġ×©×Ļ×¨ ×ķ×ª
Ġ×ª×¢× ľ×Ķ
Ġ×ķ×ł× ¢×
Ġ×ŀ×ľ× Ľ×ķ×
Ġ×ľ×¨× ©×ķ×Ŀ
Ġ×Ľ×Ļ× ¡×Ļ×Ŀ
Ġ×ŀ×ł× ĺ×
Ġ×ŀ×ł× Ĳ×Ļ×Ļ×§
Ġwe j
ĠM r
Ġ×Ĳ×¤×©×¨ ×Ļ
×ľ× ¢×
en ce
Ġ×ĳ×ĺ× ĳ×¢
ĠÐ º
Ġ×Ķ×ĸ ×Ļ×ķ×ª
Ġ×©×ľ× ŀ×Ļ×Ŀ
ĠØ¹ ÙĬÙĨÙĬ
Ġ×ª×¨× ¦×Ķ
Ġ×ŀ×¡×ķ× ĳ×ļ
Ġ×ķ×Ľ×ľ ×ķ×Ŀ
Ġ×¢×ĳ×¨ ×Ķ
Ġ×¢×ĳ×¨ ×Ļ×Ļ×Ł
ir st
ĠÙĬ ÙĪÙħ
Ġ×Ķ×¦ ×ķ×¨×Ķ
Ġ×Ķ×¦ ×ķ×ķ×ª
Ġ×Ķ×ª×Ĺ× ľ×Ķ
Ġ×Ļ×Ľ×ķ× ľ×ª×Ļ
Ġ×ŀ×Ķ×ŀ× ©×
Ġ1 0
Ġ1 5
¦×ľ ×Ļ×Ķ
Ġ×ĳ×ĸ× Ľ×ķ×ª
Ġ×ĳ×Ĳ×Ļ× ĸ×Ļ
Ø§Ø± ÙĬ
Ġ×¢×ĸ× ¨×Ķ
Ġ×Ĺ×ľ× ľ×Ļ×ª
Ġ×¡×Ĳ× ĳ×ľ×Ļ×ŀ×Ļ×
Ġ×Ĳ×¨×ĳ×¢ ×Ļ×Ŀ
ÙĦØ§ Ùħ
ĳ×ľ×Ļ× ł×Ĵ
Ġ×ĳ×ŀ×ķ× Ĺ
Ĳ×ĺ ×Ļ×§×Ķ
Ġ×ª×Ľ× £
Ġ×ª×§×ķ× ¤×ķ×ª
Ġ×©×¨×ķ× ¦×Ļ×Ŀ
Ġ×©×Ĳ×ķ× ľ×Ļ
Ġv ib
ĠÙĤ Ø¨
Ġ×ĵ×¤× §×Ķ
Ġ×Ĳ×ĳ×Ļ× ¨×Ļ×Ŀ
Ð¾Ð ²
Ð¾Ð ´
Øº ÙĬØ±
Ġ×Ĺ×ª×ķ× ľ×Ķ
Ġ×Ļ×Ķ×ķ× ĵ×Ķ
ang e
ł×ĵ×¨ ×Ļ×§
Ġ×Ĳ×ł×ķ× ©×Ļ×ª
×¤ ×Ļ×Ļ
Ġ×ŀ×Ķ×Ĺ× ľ×ķ×Ł
Ġ×¤×ł× Ĳ×Ł
Ġ×ĺ×¨×ķ× ¨
Ġ×ĳ×¢×ķ× ĸ×Ļ
Ġ×¢×© ×ķ×Ļ
Ġ×¨×Ĳ ×ķ×Ļ
Ġ×ª×¢×ĸ× ĳ×Ļ
Ġ×ł×¦× ŀ×ĵ
Ġ×Ĺ×ª×Ļ× Ľ×ª
Ġ×ľ×¢ ×Ļ×Ł
Ġsm oke
Ġ×ĳ×¢×¦× ŀ×ļ
Ġ×ĳ×ŀ×Ļ ×ķ×Ĺ×ĵ
Ġ×ķ×ľ×Ĺ× ©×ķ×ĳ
Ġ×ŀ×¡×ª×ķ×ĳ× ĳ×Ļ×Ŀ
Ġ×Ĵ×ķ×¨× ŀ×ª
×¤×Ĳ×§ ×Ļ×Ł
Ġ×Ķ×ĺ×§×¡×ĺ ×Ļ×Ŀ
Ġ×ŀ×¡×ķ×ĳ× ĳ×ª
Ġ×ŀ×ĳ×Ĺ×Ļ× ł×ª×Ļ
Ġ×¤×ł×ķ× ŀ×
rop hone
Ġ×ŀ×ĸ×ķ×Ļ× £
Ġ×¤×¡×ķ× ľ×ª
Ġprom ise
Ġ×ķ×¨×ĳ×ķ×ª ×Ļ×Ļ
2 0
B oom
b out
d ay
¤ ×Ļ×ľ×Ļ×Ŀ
Ð ¿
Ñ Ī
× Ĵ×ķ×
× §×¡
× ª×ķ
× ¤×Ļ×ł×Ķ
× Ĵ×ķ×£
Ġ Z
Ķ ×Ļ×Ļ
ł ×Ļ×Ł
×ķ× ¢
×ķ× ¦
×ķ× Ĵ×Ŀ
ľ× §×ĺ
ľ× Ĵ×ķ×ª
ŀ× ľ×Ľ×Ķ
ĳ× Ŀ
Ġ×Ĳ× Ł
Ġ×Ĳ× Ĵ×Ļ×¢
Ġ×Ķ ×ķ×Ł
©× ª×ķ×ł×ķ×ª
Ġ×ľ× ĸ
¨× ĵ×Ļ×Ŀ
ª× ¨×ª×Ļ
Ġ×ŀ× ¨×Ĺ
Ġ×©× Ĺ
Ġ×©× Ĺ×Ļ×Ļ×Ŀ
Ġ×©× Ľ×Ļ×¨
Ĺ× ª×Ŀ
Ĺ× ł×ķ×ª
Ĺ× ĸ×ķ×ª
¤× ľ×ª
¤× ľ×Ļ×Ļ
Ġ×ķ ×ķ×Ļ
¡× ł×Ļ×ª
ĵ× ¨×ª×Ļ
ĵ× ¨×ķ×¡
Ĵ× ¨×Ŀ
Ġ×ķ× §×Ĺ
Ġ×ª× Ĺ
Ġ×ª× ©×ĳ
¦× Ĺ×ª
¦× Ĵ×Ķ
×Ķ× ĳ
Ġ×Ļ× ª×Ł
Ġ×Ļ× ¢×ľ×Ķ
Ġ×Ļ× ¨×Ĳ×ķ
Ġ×© ×ķ×¨
ĳ×Ļ× ľ×Ł
ľ×Ļ ×Ļ×ļ
Ġ×ł× Ĳ×ŀ×
ĺ× ª×Ļ
×ķ×¨ ×Ļ×§×ķ
Ġ×Ĳ×Ļ× Ľ×
×Ļ×Ļ× ł×ª
×Ļ×Ļ× ĺ×¨×Ļ×Ŀ
ĳ×ķ× ĸ
Ġ×¢×ķ× ľ×ŀ×ķ×ª
Ġ×¤× ©×ķ×
Ġ×¤× ł×Ļ×ª
Ġ×¤× ª×Ļ×
Ġ×Ĺ× Ľ×Ļ
Ġ×Ĺ× ľ×Ļ×¤×Ķ
Ġ×Ĳ×ķ× ¤×Ļ
Ġ×Ĳ×ķ× ¨×ĳ×
×ķ×ĳ ×ķ
Ġ×¡× Ĳ×Ł
§×ķ× ĵ×ª
Ġ×¨×ķ× ĳ×Ķ
Ġ×ĵ× ¨×ķ×Ŀ
Ġ×ĵ× ĳ×ķ×¨×Ķ
Ġ×Ĳ×Ĺ× ĸ×ķ×¨
¡×ķ× ¨×ª
¨×Ĳ ×Ļ×ª×Ļ
Ġ×Ķ×ŀ× ¦×Ĺ
Ġ×Ķ×ŀ× ¦×Ĳ×ª×Ļ
Ġ×ĳ×ķ× Ĵ×ĵ
Ġ×ĳ×Ļ× ¤
Ġ×ĳ×Ļ× ł×Ļ
Ġ×ĳ×Ļ× ¨×ķ×©×ľ×Ļ×Ŀ
Ġ×ĳ×Ĳ ×Ļ×Ļ×
ĠØ Ł
ľ×Ļ× Ĺ×Ļ×Ŀ
Ġ×©×ķ× ŀ×Ł
Ġs ong
"" ),
ÙĦ Ùĥ
Ġ×ĸ ×ķ×¨×Ļ×§×ķ
Ġ- -
ľ×ķ× ¤
Ġ×ĸ× ¨×Ļ×Ŀ
Ġ×ĸ× Ľ×¨
Ġ×Ķ×©× ŀ×Ĺ×Ķ
Ġ×ĳ×Ĳ× ĳ×Ļ×ľ×ķ×Ł
ł×¡ ×Ļ×Ķ
Ġ×Ķ×Ĳ× ŀ×Ļ×ª×Ļ
Ġ×ĳ×©× ŀ×©
Ġ×Ķ×ĳ× Ĺ×ķ×¨
×Ĳ× ł×¨
Ġ×©×Ļ× Ĺ×Ķ
Ġ×ķ×Ĳ× Ĺ×¨
Ġ×ķ×Ĳ× Ĺ×¨×Ļ
Ġ×¦ ×Ļ×ķ×Ł
Ġ×ŀ×Ĳ× ľ×
©×ĳ ×ķ
Ġ×ľ×¤× Ĳ×
ĵ×Ļ× Ĺ×Ķ
Ġ×Ķ×ª× ľ
×Ĳ ×ķ×Ļ
Ġ×ľ×ĳ× ł×Ķ
Ġc ame
Ġ×ŀ×ŀ× ©×
... âĢı,
Ġ×ĸ×ķ× Ķ×Ļ
Ġ×ĸ×ķ× ľ×Ĵ×ķ×ª
Ġ×ŀ×¢× ¦×ŀ×Ļ
Ġ×¤×ķ× ¢×ľ
Ġ×¤×ķ× Ĺ×ĵ×Ļ×Ŀ
Ġ×¨×Ĳ× ĳ×§
¡×ĺ ×Ļ×ª
Ġ×ķ×ŀ× ł×
Ġ×ķ×ŀ× ¤×
Ĵ×ķ× ĸ×Ļ×Ŀ
Ġ×ĵ×ķ× ł×Ĵ
ing ing
Ġ×Ķ×Ĵ× ĸ×
Ġ×Ķ×Ĵ× ł×Ķ
Ġ×Ķ×Ĵ× ľ×Ļ×Ŀ
Ġ×©×Ĳ× ĳ×Ĳ
Ġ×©×Ĳ× ŀ×¨×ª×Ļ
Ġ×ª×ķ× ª×Ĺ
ĺ×Ļ× Ĺ×Ļ×Ŀ
Ġ×ľ×§× ľ×ķ×ĺ
ÙĪ ÙĤ
Ķ× ¨×ª
Ġ×ŀ×§× ¨×Ķ
Ġ×ŀ×§× ľ×ĺ
Ġh ot
Ġ×Ķ×Ľ× ł×ª×Ļ
Ġ×ł×Ļ× ©×Ĳ×¨
Ġ×Ĵ×ķ× ¤×Ķ
Ġ×Ĵ×ķ× ¤×Ļ
Ġ×Ķ×ĳ×Ļ× ĺ×Ĺ×ķ×Ł
ĠA in
ľ×Ľ× ª×Ļ
Ġ×Ĳ×ķ×ŀ× ł×ķ×ª
Ġ×Ķ×ĵ× ¨×ŀ×Ķ
×©× ļ
×Ļ×ķ× ª×¨
Ġ×ĳ×Ľ× ŀ×Ķ
Ġ×ĳ×Ľ× ĳ×Ļ×©
Ġ×¤×Ļ× ¨×Ĳ×
Ġ×¤×Ļ× ¦×Ķ
ľ×ķ ×Ļ×ķ×ª
©×Ļ×¨ ×Ļ×Ŀ
Ġ×ĺ×Ļ× ¤×ķ×¡
Ġ×ľ×¡× ©×ł×Ļ×Ŀ
Ġ×Ļ×©× ŀ×¢×ķ
Ġ×ª×¢× ©×Ļ×Ļ×Ķ
ĠB et
Ĵ×¨ ×ķ×ª
Ġ×ĺ×ķ× ĵ×ķ
Ġ×ķ×ł× ©×Ĳ×¨
Ġ×ŀ×ľ× Ľ×Ķ
us s
ł×¡×Ķ ×ķ×ľ
Ġ×ª×Ĺ× ª×ķ×ļ
ľ×§ ×Ļ
Ġ×ŀ×ł× Ĵ×ĳ
Ġst re
Ġ×Ķ×Ĺ×ķ× ŀ×ķ×ª
Ġde ad
en s
Ġ×ł×ª× §×¢
Ġ×Ķ×ŀ ×Ķ×¤×Ľ×Ķ
Ġ×ķ×©× ľ×ķ×©
Ġre s
Ġre volution
×§× ¦×ĳ
×§× ĺ×¢
Ġ×ŀ×ĺ× Ĳ×
Ġ×ª×ŀ× ©×Ļ×Ľ×ķ
Ġ×ŀ×©×ķ× ľ×
Ġ×ŀ×©×ķ× ¨×¨
Ġ×ª×¤× ł×Ķ
Ġ×ł×¤× ľ×Ĳ
ĠØ¹ Ø±Ø¨ÙĬ
Ġ×ĳ×¨×ķ× ¨×Ķ
Ø§ÙĦ Ùħ
×ĳ ×Ļ×Ļ×
Ġ×Ķ×Ĳ×ķ× Ľ×ľ
¤×¨× ¢
Ĳ×¨× ĵ×§×ķ×¨
Ġ×¡×ĺ× Ĳ×¨
Ġ×©×¨× ©×¨×ª
ĠG irl
Ġ×ł×©×ŀ×¢ ×Ļ×Ŀ
Ġ×Ĳ×¤×¡ ×Ļ×Ŀ
Ġ×ŀ×Ļ×Ļ× ¤×ľ
Ġ×ŀ×ª×§× ª×§
Ĳ×ł× ĺ×Ļ
Ġ×Ĳ×ŀ×Ļ× ª×Ļ×ª
Ġ×©×¢× Ľ×©×Ļ×ķ
Ġ×ĳ×ĺ×ķ× ¤
Ġ×ĳ×Ľ×Ļ× Ľ×¨
Ġ1 00
Ġ×ľ×ĺ× ¢×ķ×Ŀ
Ġ×Ķ×§ ×Ļ×¨×ķ×ª
ł×¨ ×ķ
Ġ×Ķ×ķ×ľ× Ľ×ķ×ª
Ġ×ŀ×ķ×Ľ× ©×¨
Ġ×ĵ×¨× ¢×§
Ġ×©×¤× ©×ķ×ĺ
ĠÙĩ ÙĪ
Ġ×¢×¨× ĳ×Ļ
Ġ×ľ×Ķ×©×ª× ľ×ĺ
Ġ×ĸ×Ļ× ¢×Ķ
Ġ×ŀ×§ ×ķ×¨
Ð°Ð º
×Ľ×ķ× ¡
×Ľ×ķ× Ľ×ĳ
Ġ×ľ×Ķ×Ĺ× ľ×Ļ×£
ĠØ¯ Ø±Ø¨Ùĥ
Ġ×Ķ×ĵ ×Ļ×¨×Ķ
ĠÙħØ¹ Ùĥ
Ġ×Ķ×ĺ×Ļ× ¨×ķ×£
Ġ×ŀ×Ķ×¡× ¨×ĺ
Ġ×Ķ×ĳ×ĺ× Ĺ×ª
Ġ×Ļ×ķ×¨× ĵ×ª
Ġ×ª×ª×§× ¨×ĳ
Ġ×¨×ķ×ĵ× ¤×ķ×ª
Ġ×©×¨×Ļ× ¤×Ķ
ĠNe w
Ġ×ĺ×¨ ×Ļ×§
Ġthing s
Ġstep pin
Ġ×§×©×ķ× Ĺ
Ġ×ĸ×ķ×ŀ× ĳ×Ļ
Ġ×ŀ×¨×¢ ×Ļ×ĵ×Ļ×Ŀ
Ġ×Ļ×¡×ª ×ķ×¨
Ġ×Ĵ×¢× Ĵ×ķ×¢×Ļ×Ŀ
Ġ×Ķ×¡×ł× ĵ×§
Ġ×ľ×ĳ×ľ×ķ× ¢
Ġ×¢×¦×ķ× ŀ×ķ×ª
o i
o le
w a
¨ ×Ļ×Ķ
ª ×Ļ×Ŀ
ª ×Ļ×ľ
ª ×Ļ×§×Ķ
× §×ľ
× ¤×ľ×ķ×Ĳ×ķ
Ġ &
Ġ z
Ġ ill
Ľ ×Ļ×¨×Ķ
ŀ ×Ļ×Ĳ
ŀ ×Ļ×Ĳ×ķ
×ķ× ĳ×
Ĳ× ľ×Ļ×
Ĳ× ¨×ª
ľ× ŀ×
Ġ×Ĳ× ¤×ķ×
Ġ×Ĳ× ĵ×¢
Ġ×Ĳ× ¨×Ĵ×Ļ×©
©× ł×Ķ
Ġ×ľ× ¨×Ĳ×
Ġ×ľ× ľ×Ļ×
Ġ×ľ× ¤×ķ×
Ġ×ľ× Ľ×Ļ×
Ġ×ľ× Ĵ×Ļ×
Ġ×ľ× ĺ×Ļ
Ġ×Ķ× ĳ×Ļ
Ľ× ł×ª
Ľ× ĺ×ķ×ª
¨× §×ľ
¢× ĳ×ĵ
Ġ×ŀ× ł×Ļ×Ļ×Ĳ×§
ł× ĳ×ľ
ł× ¤×Ķ
ł× Ĳ×ľ
¤× ¨×Ļ×¥
Ġ×Ľ× ª×ķ×
Ġ×Ľ× ł×Ļ×¡×Ķ
Ġ×¢× ¦×Ļ×Ŀ
Ġ×ľ ×Ļ×¨×Ļ×
Ġ×ľ ×Ļ×¨×Ļ×§×¡
ĵ× ľ×ª
Ĵ× ł×Ļ
Ġ×ķ× Ľ×Ł
Ġ×ª× Ĵ×¢
Ġ×Ļ× ĵ×Ļ
Ġ×Ļ× ĳ×Ļ×ł×ķ
ĳ×Ļ× ¡×Ķ
Ġ×ľ×Ļ ×ķ×
ľ×Ļ ×Ļ×Ķ
Ġ×ł× §×ķ×ĵ×Ķ
¢×ķ× ľ×Ķ
ĺ× ĳ×ķ×
ĺ× ¨×£
Ġ×Ĳ×Ļ× ©×Ļ×ª
Ġ×¨× ŀ×ª
×Ļ×Ļ× ¤×Ļ×Ŀ
ĳ×ķ× Ķ
ĳ×ķ× ¨×ª
Ġ×¤× §×ķ×
Ġ×¤× Ĺ×Ļ×ª
Ġ×¤× ł×§×Ļ×Ļ×§
Ġ×§× ŀ×
Ġ×§× ŀ×Ļ×Ŀ
Ġ×§× ľ×Ļ×Ŀ
Ġ×§× ĳ×Ļ×ł×ĺ
Ġ×Ĺ× ŀ×ķ×ĵ
Ġ×Ĳ×ķ× ¤×Ł
Ġ×Ĳ×ķ× ŀ×Ļ×Ļ×
Ġ×Ĳ×ķ× ¨×ĸ
Ġ×Ĳ×ķ× ĸ×ł×Ļ×Ļ×Ŀ
Ġ×Ĳ×ķ× Ĺ×ĸ
Ġ×Ĳ×ķ× Ĵ×ķ×¡×ĺ
Ġ×©×ľ ×ķ×ķ×Ķ
Ġ×Ĵ× ĳ×Ļ×Ł
Ġ×Ĵ× ł×ķ×ĳ
Ġ×¡× §×ķ×
Ġ×¡× ĳ×Ļ×¨
Ġ×Ļ×ķ× ¡×£
Ġt on
Ġt ouch
Ġ×ľ×Ķ× ł×ķ×ª
¨×Ļ× ŀ×ķ×ª
Ġ×ĵ× ľ
Ġ×ĵ× ¤×Ļ×Ŀ
×ķ×Ĳ ×ķ×¤
Ġ×ŀ×ķ× ŀ×ķ
ł×ķ× ł×Ļ×Ŀ
Ġ×Ķ×ŀ× ¨
Ġ×Ķ×ŀ× ł×Ļ×Ĳ×§
Ġ×ĳ×ķ× ŀ×ĳ×Ķ
Ġ×ĳ×Ļ× ĺ×ķ×Ĺ
¡×Ļ× Ľ×ķ×
ł×Ļ× Ĺ
ľ×Ļ× Ĺ×ķ×ª
Ġ×©×ķ× ¨×ĺ
Ġs imp
©×Ļ× ŀ×ķ×ª
"" "
Ġ×ł×ķ× ĳ×ľ×¡
Ġ×§×ķ× ĳ×¢
©×ķ× ł×Ļ×Ŀ
ŀ×Ļ× §×¨×ķ×¤×ķ×Ł
ł×Ĵ ×ķ×ľ
Ġw atch
ľ×ķ× ŀ×Ļ×Ŀ
Ġ×Ķ×©× ¨×Ļ×
Ġ×Ķ×©× ¤×ª×Ļ×Ļ×Ŀ
Ġ×ĳ×Ĳ× ¡×Ķ
Ġ×Ķ×Ĳ× Ĺ×¨
Ġ×ľ×ŀ× Ĺ×¨
Ġ×ľ×ŀ× ¡×¢
Ġd ark
Ġ×ĳ×ŀ× ĳ×Ķ
Ġ×ĳ×ŀ× ¨×Ĳ×Ķ
Ġ×©×ŀ× ¨×Ĵ×Ļ×©
Ġ×©×ŀ× ¢×ķ
×Ĳ× ¤
×Ĳ× ¨
×Ĳ× ĺ
Ġ×©×Ļ× ¦×Ĳ
Ġ×Ķ×¤× ľ×Ĳ
Ġ×Ķ×¤× ¨×¡
Ġ×Ķ×¤× Ľ×ª
Ġ×ķ×Ĳ× ¤×Ļ×ľ×ķ
ĵ×ķ× ł×Ķ
Ġ×ľ×©× Ĳ×ķ×
re n
Ġ×¦ ×Ļ×£
Ġ×ŀ×Ĳ× ª×Ļ×Ļ×Ŀ
Ġ×ŀ×Ĳ× ľ×Ļ×ķ
Ġ×ľ×¤× ª×¢
×Ĳ ×ķ×¨
Ġ×ŀ×ŀ× ¨×Ļ×
Ĵ×¢ ×Ļ×Ŀ
ŀ×ª ×Ļ×Ł
Ġ×ķ×ŀ× ª×Ļ
Ġ×ķ×ķ× ¨×¡×Ļ×Ŀ
Ġ×ª×ķ× ¤×¡×ª
Ġ×§ ×ķ×¨×Ļ×Ŀ
Ġn ah
Ġ×¡×Ļ× ĺ×Ļ
Ġ×¡×Ļ× ł×ĵ×¨×ľ×Ķ
Ġ×ľ×ķ× §
Ġ×ľ×Ĺ× Ĵ×ķ×Ĵ
Ġ×ĳ×¨× Ĺ
Ġ×¤×Ĳ× §×Ķ
or us
Ġ×ŀ×ĳ× ľ×ĳ×ľ
Ġ×Ĵ×ķ× ¡
Ġ×Ĵ×ķ× ĵ×ľ
ľ×Ľ× ¡
¦×ķ× Ĺ
Ġ×ŀ×¤× ł×Ķ
Ġ×ŀ×¤× ĸ×¨
Ġ×Ķ×ĵ× ¨×
Ġ×Ķ×¢× ł×Ļ×Ļ×ł×Ļ×Ŀ
Ġ×¢×¦× ŀ×Ķ
Ġ×ĳ×Ĺ× ĸ×Ķ
Ġ×¦×ķ× Ĺ×§×Ļ×Ŀ
Ġ×ŀ×¨× ¤×Ļ
Ġ×ŀ×¨× ¤×§
Ġ×ĺ×Ļ× ¤×ķ×ľ
Ġ×ľ×¡× Ĳ×
Ġ×Ļ×©× ł×ª×Ļ
ĠâĢ ĺ
Ġ×©×ĳ× ¡×ķ×£
Ġ×Ĳ×ľ× ¤×Ļ×Ŀ
Ġ×Ĳ×ľ× ¤×Ļ
Ġ×Ĳ×ľ× ł×ĳ×Ļ
ĠB itch
×ª× Ĵ×Ļ×ĵ×Ļ
Ġ×ķ×ł× ¢×ľ×Ŀ
Ġ×¡ ×ķ
Ġ×¡ ×Ļ×¨×Ķ
Ġ×Ķ×Ķ ×ķ×
Ġ×Ķ×¦× ľ×Ĺ×ª
ĠM a
Ġk id
Ġ×Ķ×Ĺ×ķ× ŀ×ķ×¡
Ġ×ĳ×ł× ¦×Ļ
¤×ķ×¨ ×ķ×ª
Ġ×ķ×Ļ× ľ×Ķ
Ġ×ķ×Ľ× Ĳ×Ł
Ġ×ł×¢× ł×¢
Ġ×ĳ×ľ× Ĵ×Ł
Ġ×ĳ×ľ× ĳ×ľ×Ķ
Ġ×ł×ª× ¨×Ĳ×Ķ
Ġ×ĳ×ĺ× ľ×¤×ķ×Ł
ĠÐ ³
ĠÐ ´
¡×ª ×Ļ×¨
¨×Ĵ× ©×ķ×ª
Ġ×Ĺ×Ļ× ¤×©
×¡× ĺ×ķ×¤
Ġ×¡×ĺ× ĺ×Ļ×§
Ġ×¢ ×Ļ×ķ×ķ×¨×ª
ĸ×Ļ×§ ×Ļ×Ŀ
ł×Ļ×¡ ×ķ
Ġ×ł×¡× Ĺ×
ĠF ight
Ġfor th
Ġ×ŀ×¤×ķ× §×
Ġ×ŀ×Ķ×ŀ× §×ķ×Ŀ
Ġ×ŀ×ª×¤× ©×ĺ
Ġ×©×ł×Ķ ×Ļ×Ķ
Ġ×ŀ×Ľ×ķ× ¢×¨
Ġfr iend
ĠThe n
Ġ×Ķ×ĵ×Ļ× ĳ×ķ×¨×Ļ×Ŀ
Ġ×Ķ×§ ×Ļ×§
Ġ×ŀ×ķ×¨×Ļ×ĵ ×Ļ×Ŀ
Ġ×Ļ×Ļ× ¦×Ĳ
Ġ×Ļ×Ļ× §×Ĺ×ķ
Ġ×©×ł×ķ× ª×ł×Ļ×Ŀ
Ġ×ª×§×ķ× ¢×Ļ×Ŀ
Ĳ×ĸ ×Ļ×Ł
Ġ×¢×¨× ¤×
Ġ×§×ľ× ŀ×Ł
Ġ×ŀ×¨×ķ× §×Ł
Ġ×ª×ľ× Ľ×Ļ
Ġ×ĳ×§×ķ× ¤×
Ĺ×Ļ×§ ×ķ×Ļ
¤×ª×Ĺ ×ķ
Ġ×ķ×ķ×Ļ× ĳ
ł×ĺ×Ļ× ŀ×Ļ
×ĸ ×Ļ×Ł
×ĳ×ķ×Ĳ ×Ļ
Ġ×ľ×Ķ×ª×§× ©×¨
Ġ×ĳ×ŀ×¨× ¤×¡×ª
Ġevery thing
Ġ×ĳ×Ļ×ķ× ª×¨
Ġ×ĳ×¤×ķ× ĸ×Ķ
Ġ×ŀ×ª×Ļ×Ļ× Ĺ×¡
Ġ×ŀ×ª×ľ× ĳ×ĺ
Ġ×ŀ×ŀ×©×Ļ× Ľ×Ķ
Ð¸Ð »
ĺ×¨×Ļ× §×¡
Ġ×©×§×Ļ× ª
Ġ×ª×ª×§× ¨×ĳ×Ļ
Ġ×¡×ĳ× ĳ×Ļ
Ġ×Ļ×¨ ×Ļ×ķ×ª
af ar
Ġ×Ĳ×Ĺ×ķ×ª ×Ļ
Ġ×Ķ×Ļ×Ĺ ×Ļ×ĵ×Ļ
ĠØ² ÙĬ
ľ×ĵ× ¡×§×ķ×ľ
way s
Ġ×Ļ×Ĵ× Ĳ×ľ
Ġ×ĳ×Ĺ×Ļ× ł×Ŀ
Ġ×§×¨×Ĳ× ª×Ļ
Ġ×¨×¦× Ĺ×ª×Ļ
Ġ×ľ×ĵ×Ļ× Ĵ
Ġmic rophone
Ġ×ĺ×¨×Ļ× ¤
ĠÙħØ± Ø©
Ġ×ŀ×Ĵ×¢ ×Ļ×ľ
Ġ×ª×ł×ķ× ¢×Ķ
Ġ×§×ķ×¡× Ĳ×ŀ×
¡×§×ķ× ¤
Ġnigg a
Ġsomet hing
ľ×ķ×ķ× ł×ĺ×Ļ
Ġmat ter
Ġ×¦×¨×¤×ª ×Ļ×ª
ĠÙĪØ§ØŃ Ø¯
Ġ×©×¢×ĵ ×Ļ×Ļ×Ł
Ġ×Ĳ×ķ×¤ ×Ļ×ķ×Ŀ
Ġ×Ĳ×Ķ×ķ× ĳ×ª×Ļ
Ġhel p
a ir
e al
m y
y a
y ah
§ ×Ļ×Ĳ
Ö ´
× ¡×ĺ×
× ¡×ª×Ľ×ľ
× ĵ×¨×ŀ×Ķ
Ø ¸
Ġ ice
Ĳ ×ķ×ķ×Ķ
Ĵ ×Ļ×Ł
ŀ ×Ļ×Ļ×Ķ
×ķ ×Ļ×Ļ×
Ĳ× §×ĺ
ľ× ¥
ľ× Ľ×ķ×
ľ× ĳ×ķ×ľ
Ġ×Ĳ× ł×Ĵ
Ġ×Ĳ× ĳ×ĵ
Ġ×Ĳ× ĳ×ķ
Ġ×Ĳ× ĵ×Ĳ×Ĵ
Ġ×Ķ ×ķ×ķ×Ķ
©× ŀ×ª
©× Ľ×ª
Ġ×ľ× ¨×ķ×ĳ
Ġ×ľ× ł×Ĵ×ķ×
Ġ×ľ× ł×§×ķ×ª
Ġ×Ķ× ¦×ķ×
¨× ŀ×Ļ×Ŀ
Ġ×ŀ× §×Ļ×
Ġ×ŀ× Ĳ×Ļ×Ł
Ġ×ĳ× ł×Ļ×Ļ×ł×Ļ×Ŀ
Ġ×ĳ× ľ×Ķ×ĳ×ķ×ª
Ġ×©× Ľ×Ļ×
Ġ×©× Ĺ×§
Ġ×©× ł×Ļ×Ļ×Ŀ
Ġ×©× ¨×ķ×£
ł× ľ×Ļ×Ŀ
ł× ¨×Ĵ×Ļ×Ķ
Ĺ× Ĳ
Ĺ× ĺ×Ļ×Ŀ
Ġ×Ľ× ¤×¨
Ġ×Ľ× ¤×ķ×ľ
Ġ×Ĳ ×ķ×ķ×
Ġ×¢× ¡×
Ġ×¢× ¨×ķ×
Ġ×¢× ª×Ķ
Ġ×¢× ŀ×ĵ
Ġ×¢× ¤×ķ×ª
ĵ× §×ª
Ġ×ľ×Ĳ ×ķ×ķ×Ļ×¨×Ķ
Ĵ× ŀ×Ķ
Ĵ× ĵ×Ļ
Ġ×ŀ ×Ļ×Ķ
Ġ×ŀ ×Ļ×¨×Ļ
Ġ×ķ× ¦
Ġ×ķ× ĺ×Ļ×
Ġ×ķ× ĺ×ķ×ĳ
Ġ×ķ× ĳ×ľ×Ļ×ľ×ķ×ª
Ġ×ª× ©×ĳ×ķ×¨
Ġ×ª× ¤×Ļ×ľ×Ķ
¦× ľ×Ļ
Ġ×Ļ× ĺ×
Ġ×Ļ× ¤×¡×Ļ×§
Ġ×© ×Ļ×§×ķ×Ŀ
ĳ×Ļ× ļ
ĳ×Ļ× ľ×Ļ×Ŀ
ª×Ļ ×ķ
Ġ×ł× ¨×ķ×ª
ĸ× ŀ×ł×Ļ×Ŀ
Ġ×Ĳ×Ļ× ŀ×¤×¨×Ļ×Ķ
Ġ×ª ×ķ×¨×Ķ
Ġ×¨× ¢×ķ×ª
Ġ×¨× Ĳ×ķ
Ġ×¨× ¦×ķ
Ġ×¨× ĵ×Ļ×ķ
Ġ×¢×ľ ×ķ
Ġ×¢×ķ× ł×Ļ×Ŀ
Ġ×§× §×Ķ
Ġ×§× ¦×¨×Ļ×Ŀ
Ġ×§× ĳ×¨×ķ×ª
Ĺ×ķ× Ĳ×ł×Ķ
Ġ×Ĳ×ķ× ĳ×
Ġ×Ĳ×ķ× ĳ×¨
Ġ×¤ ×Ļ×Ļ×¡
Ġ×Ĵ× ¨×ķ×¢
Ġ×ľ×Ķ× ¦×Ļ×
Ġ×ľ×Ķ× ŀ×ķ×ł×Ļ×Ŀ
Ġ×ľ×Ķ× ¨×ķ×ķ×Ļ×Ĺ
Ġ×ĵ× ľ×§
Ġ×ĵ× ĳ×Ļ×ľ×Ļ
×Ļ×ľ ×ķ×ĳ
Ġ×ĺ ×ķ×Ł
Ġ×ŀ×ķ× ĵ×¨×
.. ..,
Ġ×Ķ×ŀ× ¨×Ĳ×Ķ
Ġ×ľ×Ķ ×ķ×¨×Ļ×Ŀ
Ġ×ĳ×Ļ× ľ
Ġa p
Ġ×ŀ×ª× ł×ĵ×
Ġs i
Ġs ur
Ġs ound
©×Ļ× ¢
×ķ×ķ× ¡×ĺ
ÙĬ Ø§
Ġ×ŀ×Ķ× ¤×Ļ×
Ġ×ŀ×Ķ× §×¨×ķ
Ġ×ŀ×©× §×Ļ×¢
Ġ×¦× ŀ×ķ×ĵ
ŀ×Ļ× Ĵ×Ŀ
Ġ×Ķ×©× ¢×Ķ
Ġ×ŀ×¡× ¤×§
Ġ×ŀ×¡× ĳ×Ļ×¨
Ġ×ŀ×Ĺ× ľ×Ļ×ĺ
Ġ×ŀ×Ĺ× ©×ĳ×Ķ
Ġ×Ķ×Ĳ× ĵ×ķ×Ŀ
Ġ×ľ×ŀ× ĸ×
Ġ×ľ×ŀ× ĵ×ª
Ġ×ľ×ŀ× Ĺ×ķ×§
Ġ×ĺ× ¨×£
Ġ×ĺ× ¨×ŀ×
Ġ×ĺ× ĵ×¨×ķ×¡
Ġ×ĳ×ŀ× ł×ķ×
Ġ×©×ŀ× ª×Ĺ×
Ġ×Ķ×¤× ¨×Ĺ
Ġ×ķ×Ĳ× ©×
ĵ×ķ× ŀ×Ļ×Ŀ
Ġ×ľ×©× §×¨
Ġ×ľ×©× ¤×ķ×ļ
ŀ×Ļ×ĵ ×ķ×ª
Ġb are
¨×Ĵ ×Ļ×Ŀ
an c
ĵ×Ļ× ł×Ļ×Ŀ
Ġl ines
Ġ×Ķ×ª× ¤×
Ġ×Ķ×ª× Ĵ×
Ġ×©×Ķ× Ł
Ġ×©×Ķ× Ĺ×
Ġ×ľ×ĳ× ¢×ķ×ĺ
Ġ×ŀ×¢× Ľ×©×Ļ×ķ
¢×Ļ× §×¨
Ġ×Ķ×Ĺ× ¤×Ļ×¨×Ķ
Ġ×Ķ×Ĺ× ©×ĳ×ķ×Ł
Ġ×Ĺ ×Ļ×§×ķ×Ļ
Ġ×ĵ×ķ× ¤×Ł
Ġ×ĵ×ķ× ŀ×Ŀ
Ġ×Ľ×©× Ľ×ľ
Ġ×Ķ×Ļ× Ĵ×Ļ×ķ×Ł
Ġ×Ķ×Ļ× ¤×Ķ×ķ×¤
Ġ×Ķ×Ĵ× ¨×ķ×Ł
Ġg wan
Ġ×©×Ĳ× ĺ
Ġ×ª×ķ× ŀ×¨
Ġ×ĳ×¨× Ĵ×ľ×Ļ×Ļ×Ŀ
ĠØ§ ØŃ
ĠØ§ Ø®
Ġp er
Ġ×ĳ×©×ĳ×Ļ× ľ×ķ
Ġ×ľ×Ķ×ª× ŀ×
Ùħ ÙĨ
Ġ×¤×Ĳ× Ŀ
Ġ×¤×Ĳ× ¨×§
Ġ×ľ×Ļ× ¦×Ł
Ġ×ĳ×¡× Ĵ×ł×ķ×Ł
Ġ×ŀ×§× ¦×ķ×¢
Ġh on
Ġ×Ĵ×ķ× ¤×ķ×ª
Ġ×Ĵ×ķ× ŀ×Ļ×Ĵ×Ŀ
Ġ×ķ×ľ× Ľ×Ł
Ġ×ŀ×Ľ ×ķ×¨×Ķ
Ġ×ĳ×§× ĳ×¨
×©× §×ľ
Ġ×ŀ×¦× Ĳ×ł×ķ
Ġ×§×Ļ× ĳ×ľ×ķ
ĠØ§ÙĦ Ø®
¢×ª×Ļ ×Ļ×Ŀ
Ġ×ĵ×Ļ× ł×Ķ
Ġ×ĵ×Ļ× Ľ×Ĳ×ķ×Ł
Ġ×¢×¦× Ŀ
Ġ×ĳ×Ĺ× ¦×¨
Ġ×ĳ×Ĺ× ĵ×©×ķ×ª
Ġ×©×ł× ª×
ĸ×Ļ× Ľ×¨×ķ×Ł
Ġ×Ļ×©× ĳ×ł×Ļ×Ŀ
Ġ×Ļ×©× ľ×ŀ×ķ
Ġ×©×ĳ× ¢×ķ×ľ×Ŀ
Ġ×Ĳ×¤× ľ
Ġ×ķ×ª× ¨×©×Ŀ
¡×§ ×Ļ×Ļ
Ġ×ĺ×ķ× ¤
Ġ×ķ×ł× ©×Ļ×Ŀ
¦×Ļ×Ĳ ×ķ
Ġ×Ĳ×¨× ĸ
Ġ×Ĳ×Ľ× ľ×ł×ķ
Ġk ind
Ġ×ł×Ĺ× ł×§
Ġ×Ķ×Ĺ×ķ× ĳ
Ġ×ĳ×ľ× ©×ķ×Ł
ĠN afar
ĠD is
Ġre t
ĠH im
Ġ×©×Ľ× ĵ×Ĳ×Ļ
Ġ×ŀ×©×ķ× Ĵ×¢×ª
Ġbe at
Ġ×©×ľ× ¤×¢×ŀ×Ļ×Ŀ
ĠL ow
×§ ×Ļ×Ļ
ĠÙĦ Ø£
Ġ×ŀ×ª×Ĺ× ĳ×Ĳ
Ĳ×¨× ĺ×Ļ
Ġ×¢×Ļ× ¤×¨×ķ×Ł
Ġ×Ĳ×ľ×ķ× £
ĠG o
×ķ×ķ×Ĳ× Ĵ
un ch
Ġso ld
Ľ×ł× ¡×ª
Ġ×ŀ×Ĺ×ķ× ĳ×¨×Ļ×Ŀ
Ġ×ŀ×ª×§× ¨×ĳ×ª
Ĳ×ł× ĸ
Ġ×©×¢× ĳ×¨×ª×Ļ
ĳ×ĺ ×Ļ×Ķ
×¡ ×ķ×ķ×Ļ×¡×Ķ
ter n
Ġ×ķ×Ĺ× ©×ĳ×ª×Ļ
Ġ×Ĳ×§× ł×Ķ
Ġ×ŀ×§×ķ× ŀ×Ļ
Ġ×ĳ×ĸ× Ľ×ķ×
Ġ×ĳ×¨×Ļ× ¦×Ķ
Ġ×ķ×Ĳ×ķ× ¨×ĺ×Ĵ×Ķ
Ġ×Ĳ×ĳ× ĵ×Ķ
Ġ×Ļ×Ļ× ª×Ł
Ġ×©×¨ ×Ļ×¨×Ļ×Ŀ
Ġ×Ķ×Ĵ×Ļ×¢ ×Ķ
00 0
Ġ×Ķ×¨×Ļ× Ĳ×ķ×ª
Ġ×¨×Ĵ× ©
ĺ×ľ ×Ļ×Ł
Ġ×¡×ķ×ķ×Ļ× ¡
Ġ×ĳ×Ľ×ķ× ª×¨×ķ×ª
ĳ×ľ× ¢
Ġreal ity
Ġ×¢×¦ ×Ļ×¨×Ķ
Ġ×ľ×Ķ×ª×¢× ľ×Ŀ
Ġ×ľ×ŀ×ķ× Ĺ
Ñģ ÑĤ
Ĳ×¤ ×ķ×¨×Ķ
Ġ×©×ŀ×ª× ¢×
×¨×ķ× ¦×Ķ
Ġ×ł×ķ×¤× ľ×ª
Ġ×§×¨×ķ× ĳ×Ķ
Ġ×¡×Ļ×Ļ× ĵ
Ġ×Ĵ×ĵ×ķ× ľ×ķ×ª
Ġ×ª×¨×§× ĵ×ķ
Ġ×Ķ×¡ ×ķ×ķ×Ĳ×Ĵ×Ķ
Ġ×©×ŀ×ķ× ¢×ķ×ª
Ġ×ª×¦×Ĳ ×Ļ
Ġ×Ķ×ĵ×ľ×ª ×ķ×ª
Ġ×ĳ×ª×Ĺ× ª×ķ×ł×Ļ×Ŀ
up t
Ġ×Ķ×Ĳ×ŀ× ¡×Ļ×ĸ
Ġ×¨×Ĺ× ŀ×Ļ×Ŀ
Ġ×Ĺ×ŀ×ķ× ĵ×Ķ
Ġ×ľ×Ķ×Ĳ× ©×Ļ×Ŀ
Ġ×Ļ×ĵ×¢ ×ķ
ĳ×¨×Ļ× Ľ×Ķ
Ġ×ł×ĳ× ¨×Ĺ
ĠØº ÙĬØ±
Ġ×ł×¡×Ļ× ļ
Ġ×Ĺ×ľ×ķ× ł×ķ×ª
Ġ×¢×Ļ×ķ ×ķ×¨×Ļ×Ŀ
Ġsing ing
Ġ×¦×ķ×¨×Ĺ ×ķ×ª
ĠIsrael i
Ġpus hing
Ġ×¤×ķ×ľ×Ļ×ĺ×Ļ×§× Ĳ×Ļ×Ŀ
Ġ×Ķ×¨×ķ×ķ× Ĺ×ª×Ļ
Ġwin ning
Ġ×©×Ļ×ª× ł×Ĵ×Ł
Ġinter r
Ġ×ŀ×©×¢× ŀ×Ŀ
ĠâĢı (
Ġ×Ķ×ŀ×¨×Ľ×ĸ ×Ļ×ª
¡×¤×ķ× ŀ×ĺ
Ġ×¡×ł×ĵ ×ķ×ķ×Ļ×¥
Ġ×§×ķ×ŀ×¤× ľ×ĺ
ŀ×ķ×¤ ×ķ×ĳ
Ġbeaut iful
Ġ×Ĳ×¤×ķ× §×ľ×Ļ×
c ome
e ver
n ess
r i
y ing
¤ ×Ļ×Ļ×ļ
Å Ł
× §×ķ×Ŀ
× Ĵ×Ļ×
× ľ×ķ×ª
× ¤×ķ
Ù Ĵ
Ġ {
Ġ Ċ
Ġ áĭ
Ĵ ×Ļ×ľ
Ľ ×Ļ×¨×ķ×ª
ŀ ×Ļ×¨
ŀ ×Ļ×§
ŀ ×ķ×¨×Ļ×Ŀ
ł ×Ļ×ĵ
Ġ× ¨×Ķ
×ķ× Ķ
×Ķ ×Ļ×ķ×Ŀ
Ĳ× ¥
ľ× ª×Ķ
ŀ× ĳ×Ļ×ł×Ķ
ĳ× ĵ×ł×ķ
Ġ×Ĳ× ľ×Ĳ×
Ġ×Ĳ× ¨×Ĳ×Ķ
Ġ×Ĳ× ¨×ķ×Ł
Ġ×Ĳ× ¤×ķ×¨
Ġ×ľ× ¦×ķ×
Ġ×Ķ× ŀ×Ķ
Ġ×Ķ× ĳ×ľ×Ļ×Ŀ
Ľ× Ĳ×ľ
Ľ× ľ×ª×Ļ
ª× Ľ×Ŀ
Ġ×ŀ× ĵ×Ļ×Ŀ
Ġ×ŀ× ĸ×Ļ×§
Ġ×ŀ× ¡×Ļ×ĳ×ª
Ġ×©× ¡×ķ×
Ġ×©× ©×Ļ×
Ġ×©× ©×ķ×ĳ
Ġ×©× ¢×¨
ł× §×¡
¤× ¤×ª
¤× ¢×Ļ×Ŀ
¤× ĺ×Ł
¤× ¨×ĵ
¤× ¦×ķ
Ġ×Ľ× Ľ×ľ
×ķ×ª ×Ķ
Ġ×ŀ ×Ļ×¨×ķ
Ġ×ķ× ľ×Ļ×
Ġ×ª× Ĺ×Ļ×
Ġ×ª× ª×Ļ×Ļ×
Ġ×ł× §
Ġ×ł× Ĵ×¢
Ġ×ł× Ĳ×Ļ
Ġ×Ĳ×Ļ× §×¡
Ġ×§× ¢×¨×ª
Ġ×§× ĵ×ķ×©
Ġ×§× ł×ĵ×¨×Ļ×§
Ġ×Ĺ× ¥
Ĺ×ķ× ł×Ļ×Ŀ
Ĺ×ķ× §×Ķ
Ġ×Ĳ×ķ× ľ×Ļ×
Ġ×Ĵ× ľ×Ĵ×
Ġ×Ĵ× Ĳ×ł×Ĵ×
§×ķ× ĵ×Ļ×Ŀ
Ġt re
Ġt er
Ġt en
Ġ×¨×ķ× ¢×ĵ
Ġ×ľ×Ķ× Ľ×
Ġ×ĵ× ¤
Ġ×ĵ× Ł
Ġ×ĺ ×Ļ×Ŀ
ł×ķ× ¢×Ķ
Ġ×Ķ×ŀ× ł×Ļ×Ļ×Ĳ×§
Ġ×ĳ×ķ× Ĺ×Ł
Ġ×ĳ×ķ× ¨×Ĺ×ª
Ġ×ĳ×Ļ× §×Ļ×ł×Ļ
¡×Ļ× ł×ķ
Ġ×¨×§ ×ķ×ĳ
in s
Ġ×ŀ×ª× Ĳ×Ļ×
ľ×Ļ× ¤
Ġ×Ĺ×ķ× ¡×¨
Ġ×Ĺ×ķ× ľ×£
ª×ķ× ľ×ķ×ª
Ġ×©×ķ× ĳ×¨×ª
Ġ×©×ķ× ĵ×ĵ
Ġ×©×ķ× ¤×ĺ
Ġs u
×ķ×ķ× Ľ×Ĺ
ÙĬ Ø¨
Ġ×ŀ×Ķ× ¦×
Ġ×ŀ×©× ĳ×¨
Ġ×§×ķ× ¨×Ĳ×ķ×ª
ŀ×Ļ× ŀ×ķ×ª
Ġ×ĸ× §×ķ×£
Ġ×Ķ×©× ¨
Ġ×Ķ×©× ľ×ĳ
Ġ×Ķ×©× §×ľ×Ļ×Ŀ
Ġ×ĳ×Ĳ× ŀ×Ĳ
Ġ×ĳ×Ĳ× ĵ×ķ×Ŀ
Ġ×Ķ×ķ× ŀ×ķ
Ġ×ŀ×¡× ŀ×Ł
Ġ×ŀ×¡× ¤×¨×ª
Ġ×ŀ×¡× Ĵ×¨×ª
Ġ×Ķ×Ĳ× ŀ×ķ×ł×Ķ
Ġ×ľ×ŀ× ĺ×¨×Ķ
Ġ×ľ×ŀ× ¡×Ļ×ĳ×ª
Ġ×ĳ×ŀ× §×ķ×ŀ×ķ×ª
Ġ×©×Ļ× ĵ×
Ġ×ľ×©× ł×Ļ
Ġ×ľ×©× ŀ×Ķ
Ġ×ľ×©× ŀ×©
Ġ×ķ×Ķ× ŀ×Ļ×ľ×Ļ×Ŀ
