{"<s>": 0, "<pad>": 1, "</s>": 2, "<unk>": 3, "<mask>": 4, "!": 5, "\"": 6, "#": 7, "$": 8, "%": 9, "&": 10, "'": 11, "(": 12, ")": 13, "*": 14, "+": 15, ",": 16, "-": 17, ".": 18, "/": 19, "0": 20, "1": 21, "2": 22, "3": 23, "4": 24, "5": 25, "6": 26, "7": 27, "8": 28, "9": 29, ":": 30, ";": 31, "<": 32, "=": 33, ">": 34, "?": 35, "@": 36, "A": 37, "B": 38, "C": 39, "D": 40, "E": 41, "F": 42, "G": 43, "H": 44, "I": 45, "J": 46, "K": 47, "L": 48, "M": 49, "N": 50, "O": 51, "P": 52, "Q": 53, "R": 54, "S": 55, "T": 56, "U": 57, "V": 58, "W": 59, "X": 60, "Y": 61, "Z": 62, "[": 63, "\\": 64, "]": 65, "^": 66, "_": 67, "`": 68, "a": 69, "b": 70, "c": 71, "d": 72, "e": 73, "f": 74, "g": 75, "h": 76, "i": 77, "j": 78, "k": 79, "l": 80, "m": 81, "n": 82, "o": 83, "p": 84, "q": 85, "r": 86, "s": 87, "t": 88, "u": 89, "v": 90, "w": 91, "x": 92, "y": 93, "z": 94, "{": 95, "|": 96, "}": 97, "~": 98, "¡": 99, "¢": 100, "£": 101, "¤": 102, "¥": 103, "¦": 104, "§": 105, "¨": 106, "©": 107, "ª": 108, "«": 109, "¬": 110, "®": 111, "¯": 112, "°": 113, "±": 114, "²": 115, "³": 116, "´": 117, "µ": 118, "¶": 119, "·": 120, "¸": 121, "¹": 122, "º": 123, "»": 124, "¼": 125, "½": 126, "¾": 127, "¿": 128, "À": 129, "Á": 130, "Â": 131, "Ã": 132, "Ä": 133, "Å": 134, "Æ": 135, "Ç": 136, "È": 137, "É": 138, "Ê": 139, "Ë": 140, "Ì": 141, "Í": 142, "Î": 143, "Ï": 144, "Ð": 145, "Ñ": 146, "Ò": 147, "Ó": 148, "Ô": 149, "Õ": 150, "Ö": 151, "×": 152, "Ø": 153, "Ù": 154, "Ú": 155, "Û": 156, "Ü": 157, "Ý": 158, "Þ": 159, "ß": 160, "à": 161, "á": 162, "â": 163, "ã": 164, "ä": 165, "å": 166, "æ": 167, "ç": 168, "è": 169, "é": 170, "ê": 171, "ë": 172, "ì": 173, "í": 174, "î": 175, "ï": 176, "ð": 177, "ñ": 178, "ò": 179, "ó": 180, "ô": 181, "õ": 182, "ö": 183, "÷": 184, "ø": 185, "ù": 186, "ú": 187, "û": 188, "ü": 189, "ý": 190, "þ": 191, "ÿ": 192, "Ā": 193, "ā": 194, "Ă": 195, "ă": 196, "Ą": 197, "ą": 198, "Ć": 199, "ć": 200, "Ĉ": 201, "ĉ": 202, "Ċ": 203, "ċ": 204, "Č": 205, "č": 206, "Ď": 207, "ď": 208, "Đ": 209, "đ": 210, "Ē": 211, "ē": 212, "Ĕ": 213, "ĕ": 214, "Ė": 215, "ė": 216, "Ę": 217, "ę": 218, "Ě": 219, "ě": 220, "Ĝ": 221, "ĝ": 222, "Ğ": 223, "ğ": 224, "Ġ": 225, "ġ": 226, "Ģ": 227, "ģ": 228, "Ĥ": 229, "ĥ": 230, "Ħ": 231, "ħ": 232, "Ĩ": 233, "ĩ": 234, "Ī": 235, "ī": 236, "Ĭ": 237, "ĭ": 238, "Į": 239, "į": 240, "İ": 241, "ı": 242, "Ĳ": 243, "ĳ": 244, "Ĵ": 245, "ĵ": 246, "Ķ": 247, "ķ": 248, "ĸ": 249, "Ĺ": 250, "ĺ": 251, "Ļ": 252, "ļ": 253, "Ľ": 254, "ľ": 255, "Ŀ": 256, "ŀ": 257, "Ł": 258, "ł": 259, "Ń": 260, "Ġ×": 261, "×Ļ": 262, "×ķ": 263, "×ķ×": 264, "×Ļ×": 265, "×Ķ": 266, "Ĳ×": 267, "ľ×": 268, "ŀ×": 269, "ĳ×": 270, "Ġ×Ĳ×": 271, "Ġ×Ķ": 272, "©×": 273, "Ġ×ľ×": 274, "Ġ×Ķ×": 275, "Ľ×": 276, "¨×": 277, "¢×": 278, "ª×": 279, "Ġ×ŀ×": 280, "×Ļ×Ŀ": 281, "Ġ×ĳ×": 282, "Ġ×©×": 283, "ł×": 284, "Ĺ×": 285, "¤×": 286, "Ġ×Ľ×": 287, "§×": 288, "Ġ×Ĳ": 289, "×ķ×ª": 290, "Ġ×¢×": 291, "Ġ×ľ": 292, "Ġ×ķ": 293, "ł×Ļ": 294, "Ġ×Ļ": 295, "¡×": 296, "ĵ×": 297, "Ġ×ľ×Ĳ": 298, "Ĵ×": 299, "Ġ×ŀ": 300, "Ġ×ķ×": 301, "Ġ×Ĳ×ª": 302, "ĸ×Ķ": 303, "Ġ×ª×": 304, "¦×": 305, "×Ķ×": 306, "Ġ×Ļ×": 307, "Ġ,": 308, "Ġ×Ĳ×ł×Ļ": 309, "Ġ×©": 310, "ĳ×Ļ×": 311, "Ġ×ľ×Ļ": 312, "ľ×Ļ": 313, "¨×ķ×": 314, "ª×Ļ": 315, "Ġ×ł×": 316, "¢×ķ×": 317, "ĺ×": 318, "Ġ×ĸ×Ķ": 319, "×ķ×¨": 320, "ĸ×": 321, "ĳ×¨": 322, "Ġ×Ĳ×Ļ×": 323, "×ķ×Ŀ": 324, "Ġ×ª": 325, "Ġ×¨×": 326, "×Ļ×Ļ×": 327, "Ġ×¢×ľ": 328, "Ľ×ķ×": 329, "ĳ×ķ×": 330, "Ġ×¢×ķ×": 331, "Ġ×¤×": 332, "ľ×Ķ": 333, "Ġ×§×": 334, "Ġ×Ľ×ŀ": 335, "ł×Ķ": 336, "Ġ×Ĺ×": 337, "Ĺ×ķ×": 338, "Ġ×Ĳ×ķ×": 339, "×Ļ×ĵ": 340, "Ġ(": 341, "Ġ×¤": 342, "×Ļ×¨": 343, "Ľ×ľ": 344, "Ġ×©×ľ": 345, "ł×ķ": 346, "Ġ×Ľ×ľ": 347, "Ġ×Ĵ×": 348, "Ġ×Ľ×ŀ×ķ": 349, "Ġ×ŀ×Ķ": 350, "×ķ×ĳ": 351, "ŀ×Ķ": 352, "ľ×Ĳ": 353, "Ġ×¡×": 354, "×ķ×Ł": 355, "×Ļ×Ķ": 356, "§×ķ×": 357, "ĳ×ľ": 358, "×Ļ×§": 359, "Ġ×¢×Ŀ": 360, "Ġ×Ļ×ķ×": 361, "Ľ×Ļ": 362, "Ġt": 363, "Ġ×¨×ķ×": 364, "Ġ×ľ×Ķ×": 365, "¨×Ļ×": 366, "Ġ×ĵ×": 367, "Ø§": 368, "×ķ×Ĳ": 369, "©×Ķ": 370, "×Ļ×ľ": 371, "Ġ×Ĳ×Ĺ×": 372, "ľ×Ŀ": 373, "Ġ×ĺ": 374, "),": 375, "Ġ×ŀ×ķ×": 376, "Ġ×Ĳ×ķ×ª": 377, "ł×ķ×": 378, "×Ļ×Ł": 379, "ł×Ļ×Ŀ": 380, "Ĺ×Ļ": 381, "Ġ×Ľ×ķ×": 382, "Ġ×Ĳ×ĸ": 383, "ŀ×ķ×": 384, "Ġ×©×ľ×Ļ": 385, "¡×ķ×": 386, "..": 387, "¨×Ļ×Ŀ": 388, "Ġ×Ļ×©": 389, "Ġ×ĳ": 390, "¨×Ĳ": 391, "Ġ×ĵ": 392, "Ġ×Ķ×ŀ×": 393, "Ġ×ľ×Ķ": 394, "Ġ×Ĳ×ľ": 395, "Ġ×ĳ×ķ×": 396, "Ġ×ĳ×Ļ×": 397, "¡×Ļ×": 398, "Ġ×¨×§": 399, "×Ļ×Ĳ": 400, "ł×Ļ×": 401, "Ġ×Ľ×Ļ": 402, "×Ļ×©": 403, "Ġ×Ĳ×ª×Ķ": 404, "Ġa": 405, "âĢ": 406, "in": 407, "Ĳ×ª": 408, "Ġ×ĳ×Ĳ": 409, "ĳ×Ķ": 410, "Ġ×ŀ×ª×": 411, "ŀ×Ł": 412, "he": 413, "Ġ×¢×ķ×ĵ": 414, "ĠØ": 415, "¨×Ĳ×": 416, "¤×Ķ": 417, "ľ×Ļ×": 418, "ľ×ļ": 419, "Ġ×Ĺ×ķ×": 420, "ŀ×Ļ": 421, "ĠÙ": 422, "Ġ×¤×Ķ": 423, "Ĳ×Ł": 424, "ª×ķ×": 425, "Ġ×Ĳ×Ŀ": 426, "Ġ×©×ķ×": 427, "×Ļ×Ļ": 428, "Ġ×Ĳ×Ļ×Ł": 429, "ŀ×¨": 430, "Ĳ×ł×Ļ": 431, "Ġs": 432, "©×Ļ×": 433, "\"\"": 434, "×ķ×ķ×": 435, "¤×ķ×": 436, "¦×Ķ": 437, "Ġ×ŀ×Ļ": 438, "Ġ×Ĵ": 439, "©×Ļ×Ŀ": 440, "ÙĬ": 441, "Ġ×Ĳ×ķ×ª×Ļ": 442, "Ġ×ľ×ļ": 443, "Ġ×ŀ×Ķ×": 444, "Ġm": 445, "ÙĦ": 446, "Ġ×Ĳ×ķ": 447, "Ġ×ĸ": 448, "¨×ª": 449, "ou": 450, "Ġ×ŀ×©×": 451, "ĵ×Ļ": 452, "Ġ×¦×": 453, "ª×Ŀ": 454, "×Ļ×ķ×ª": 455, "Ġ×Ĳ×ĳ×ľ": 456, "Ġ×¢×ĵ": 457, "Ġ×ł×ķ×": 458, "Ġ-": 459, "Ġ×§×ķ×": 460, "¨×Ķ": 461, "©×ķ×": 462, "ŀ×Ļ×": 463, "ł×Ĵ": 464, "ª×¨": 465, "Ġw": 466, "ľ×ķ×": 467, "Ġ×ĸ×": 468, "Ġ×Ķ×©×": 469, "Ľ×Ķ": 470, "×Ļ×ķ": 471, "Ġ×ĳ×Ĳ×": 472, "ł×¡": 473, "§×Ļ×": 474, "Ġ×Ķ×ķ×": 475, "Ġ×ŀ×¡×": 476, "ł×ķ×ª": 477, "Ġ×ŀ×Ĺ×": 478, "Ġ×Ķ×Ľ×ľ": 479, "Ġ×Ĳ×Ĺ×ĵ": 480, "Ġ×Ķ×Ĳ×": 481, "Ġ×ľ×ŀ×": 482, "on": 483, "Ġ×ĺ×": 484, "Ġd": 485, "Ġ×ĳ×©×": 486, "Ġ×Ķ×ĳ×": 487, "Ġ×ĳ×ŀ×": 488, "Ĳ×ķ×": 489, "Ġ×Ľ×ĳ×¨": 490, "Ġ×Ĵ×Ŀ": 491, "Ġ×©×ŀ×": 492, "×Ĳ×": 493, "Ġ×Ķ×ķ×Ĳ": 494, "Ġ×©×Ļ×": 495, "ŀ×Ļ×Ŀ": 496, "Ġ×Ķ×¤×": 497, "Ġ×ķ×Ĳ×": 498, "ĵ×ķ×": 499, "Ġ×ľ×©×": 500, "ÙĨ": 501, "Ġ×ĺ×ķ×ĳ": 502, "Ġ×ł×©×": 503, "re": 504, "ĵ×Ķ": 505, "ŀ×Ļ×ĵ": 506, "×ķ×ķ": 507, "Ġ×¦": 508, "Ġ×¨×ķ×¦×Ķ": 509, "Ġb": 510, "Ġ×ŀ×Ĳ×": 511, "¨×Ĵ": 512, "¢×Ŀ": 513, "an": 514, "ĠI": 515, "Ġ×Ĳ×Ļ×ļ": 516, "×Ļ×ª": 517, "Ġ×Ķ×Ŀ": 518, "ĺ×ķ×": 519, "it": 520, "ª×ļ": 521, "Ġ×ķ×Ķ×": 522, "Ġ×Ķ×Ļ×Ĳ": 523, "ľ×Ļ×Ŀ": 524, "¤×¡": 525, "¤×¨": 526, "Ġthe": 527, "©×¨": 528, "©×ĳ": 529, "ĺ×Ķ": 530, "Ġ×¡×ķ×": 531, "Ġ×ľ×¤×": 532, "Ġ×Ĳ×ł×": 533, "Ġy": 534, "Ġ×Ķ×¨×": 535, "ĵ×Ļ×": 536, "Ġ?": 537, "Ġl": 538, "Ġ×Ľ×ķ×ľ×Ŀ": 539, "Ġ×ĳ×ķ×Ĳ": 540, "×ķ×¨×Ķ": 541, "Ĵ×Ļ×ĵ": 542, "Ġ×Ķ×ª×": 543, "×Ĳ": 544, "Ġf": 545, "ĵ×¢": 546, "Ġ×ŀ×Ļ×": 547, "Ġ×ľ×¢×": 548, "Ġ×©×Ķ×": 549, "Ġ×ľ×ĳ×": 550, "Ġc": 551, "Ġ×ŀ×ŀ×": 552, "...": 553, "Ĺ×ª": 554, "Ġ×ª×ŀ×Ļ×ĵ": 555, "er": 556, "×Ļ×ķ×Ŀ": 557, "Ġ×ĸ×ķ×": 558, "Ġ×ŀ×¢×": 559, "¦×Ĳ": 560, "Ĵ×¢": 561, "ĵ×Ļ×Ŀ": 562, "Ġ×ľ×Ĳ×": 563, "Ġ×Ļ×ķ×ª×¨": 564, "Ľ×©": 565, "¢×Ļ×": 566, "Ġ×¢×ľ×Ļ": 567, "ĸ×ŀ×Ł": 568, "Ġ×Ķ×Ĺ×": 569, "¨×§": 570, "ŀ×ķ×ª": 571, "ŀ×ª": 572, "ĵ×ĳ×¨": 573, "Ġ×¤×ķ×": 574, "âĢħ": 575, "§×Ķ": 576, "Ġ×Ĺ": 577, "ll": 578, "Ġ×¨×Ĳ×": 579, "§×ķ×Ŀ": 580, "×Ļ×Ļ×Ł": 581, "×ľ×Ĳ": 582, "ĳ×¢": 583, "¡×ĺ": 584, "Ġ×ķ×ŀ×": 585, "ľ×ĳ": 586, "¨×Ļ": 587, "Ĵ×ķ×": 588, "Ġ×Ľ×Ł": 589, "Ľ×Ļ×": 590, "Ľ×©×Ļ×ķ": 591, "×ŀ×": 592, "Ġ×ĵ×ķ×": 593, "ing": 594, "ª×Ł": 595, "ĵ×¨": 596, "Ġ×Ľ×©×": 597, "Ĵ×Ļ×": 598, "ľ×Ĳ×": 599, "nd": 600, "§×¨": 601, "Ġ×ķ×ķ×": 602, "Ĺ×Ļ×Ļ×Ŀ": 603, "¨×Ĳ×©": 604, "Ġ×Ľ×Ĳ×Ł": 605, "Ġ×Ļ×Ķ": 606, "Ø±": 607, "Ġ×Ķ×Ļ×": 608, "ĳ×ª": 609, "Ġyou": 610, "¨×ļ": 611, "ĳ×Ļ": 612, "at": 613, "Ġ×Ķ×Ĵ×": 614, "ª×Ĺ": 615, "Ġ×¢×ķ×©×Ķ": 616, "Ġg": 617, "?,": 618, "Ġ\"\"": 619, "Ġ×©×Ĳ×": 620, "Ġ×ª×ķ×": 621, "Ġ×§": 622, "¨×Ĳ×Ķ": 623, "Ġ×ľ×Ķ×Ļ×ķ×ª": 624, "Ġn": 625, "ĺ×Ļ×": 626, "Ġ×Ĳ×ŀ×": 627, "Ġ×¢×Ľ×©×Ļ×ķ": 628, "Ġ×©×ľ×ļ": 629, "Ġ×¡×Ļ×": 630, "×³": 631, "¢×ª": 632, "ĺ×Ļ×Ŀ": 633, "Ġ×ľ×ķ×": 634, "Ġ×Ķ×§×": 635, "§×Ļ×Ŀ": 636, "ĳ×Ļ×Ŀ": 637, "Ġ×ķ×ľ×Ĳ": 638, "ŀ×¢": 639, "Ġ×ľ×Ľ×": 640, "Ġ×©×ľ×Ĳ": 641, "Ġ×ľ×Ĺ×": 642, "ĳ×Ļ×Ĳ": 643, "Ġ×ĳ×¨×": 644, "Ġ×ľ×§×": 645, "Ĳ×¨": 646, "¨×ª×Ļ": 647, "Ġ×Ķ×¡×": 648, "Ġ×©×Ĳ×ł×Ļ": 649, "is": 650, "¤×Ļ×": 651, "ª×Ķ": 652, "ľ×ľ": 653, "ľ×ĵ": 654, "ow": 655, "Ġ×©×Ŀ": 656, "¡×£": 657, "Ġ×¤×¢×Ŀ": 658, "Ġ×Ľ×ŀ×Ķ": 659, "Ġ×Ļ×ķ": 660, "ª×ķ×ļ": 661, "¨×Ĵ×Ļ×©": 662, "ĠØ§": 663, "ĺ×Ļ": 664, "ĳ×Ļ×Ł": 665, "Ġp": 666, "Ġ×Ķ×Ļ×Ļ×": 667, "ĵ×Ŀ": 668, "Ġ×Ĳ×ķ×ª×ļ": 669, "ÙĪ": 670, "Ľ×ķ×ľ": 671, "Ġ×ĳ×ľ×Ļ": 672, "¤×©": 673, "Ķ×": 674, "ĳ×Ĳ": 675, "¤×Ļ×Ŀ": 676, "¤×ª": 677, "¨×Ĺ": 678, "¦×ª": 679, "Ġ×ĳ×©×ĳ×Ļ×": 680, "Ġ×Ķ×Ļ×ķ×Ŀ": 681, "¡×Ļ": 682, "¦×ĳ": 683, "Ġ×¦×¨×Ļ×": 684, "¦×Ļ×Ŀ": 685, "Ĳ×ľ×": 686, "Ġ×ľ×ķ": 687, "Ĺ×ĵ": 688, "Ġ×ľ×Ķ×ª×": 689, "Ĳ×Ķ": 690, "Ġ×©×ķ×ĳ": 691, "Ġ×Ļ×ķ×ĵ×¢": 692, "Ġ×Ĳ×£": 693, "Ġ×ĵ×ĳ×¨": 694, "Ĺ×Ķ": 695, "Ĺ×§": 696, "Ùħ": 697, "Ľ×Ļ×Ŀ": 698, "ĳ×ķ×ª": 699, "Øª": 700, "§×¡": 701, "ĸ×ķ×": 702, "Ġ×¤×Ĳ×": 703, "Ġ×ľ×Ļ×": 704, "¤×Ļ": 705, "Ġ×ĳ×¡×": 706, "Ġ×ŀ×§×": 707, "Ġ×Ĺ×Ļ": 708, "ľ×Ĺ×": 709, "ľ×ª": 710, "Ø¨": 711, "Ġ×ª×©×": 712, "ĺ×¨": 713, "es": 714, "Ĺ×ķ×¨": 715, "Ġh": 716, "¢×ķ×ľ×Ŀ": 717, "ĳ×ķ×¨": 718, "Ĵ×Ł": 719, "×ķ×Ļ": 720, "Ġ×Ķ×Ľ×": 721, "Ġto": 722, "Ġ×ľ×ŀ×Ķ": 723, "or": 724, "Ġ×Ķ×ĸ×ŀ×Ł": 725, "Ġ×©×Ķ": 726, "Ġ×Ķ×ĸ×Ķ": 727, "Ġ×ŀ×ĳ×": 728, "Ġ×ł×Ļ×": 729, "×Ļ×§×Ķ": 730, "©×Ķ×ķ": 731, "Ĺ×ķ×ª": 732, "Ľ×Ł": 733, "©×Ł": 734, "Ġ×ª×Ĵ×Ļ×ĵ": 735, "Ġ×Ĵ×ķ×": 736, "om": 737, "Ġ×ª×Ł": 738, "×Ļ×¨×Ķ": 739, "Ġ×Ķ×ĳ×Ļ×": 740, "Ġme": 741, "ł×Ļ×Ļ×Ŀ": 742, "Ĺ×ł×ķ": 743, "ĠS": 744, "Ġ×ĳ×¢×": 745, "¤×§": 746, "¦×Ļ×": 747, "al": 748, "Ġ×ķ×ľ×": 749, "Ĳ×Ļ×": 750, "Ġ×ª×§×": 751, "Ġ×¦×¨×Ļ×ļ": 752, "ŀ×ķ": 753, "×ķ×ķ×Ķ": 754, "ĠA": 755, "ĸ×¨": 756, "©×ķ×ª": 757, "Ĵ×Ļ×¢": 758, "Ġ×ŀ×Ľ": 759, "×Ļ×ľ×Ļ×Ŀ": 760, "Ĵ×ľ": 761, "!,": 762, "Ġ×©×ª×": 763, "et": 764, "ľ×Ľ×": 765, "¨×ķ×Ł": 766, "¦×ķ×": 767, "×Ļ×ľ×ķ": 768, "Ġ×§×¦×ª": 769, "Ġ×Ľ×ļ": 770, "Ġ×ŀ×¤×": 771, "ĠÙħ": 772, "Ġ×Ĳ×Ļ×ĸ×Ķ": 773, "Ġ×Ĳ×ķ×ŀ×": 774, "ĳ×ĵ": 775, "Ġ×Ķ×ĵ×": 776, "Ġ×Ĳ×ķ×ª×ķ": 777, "Ĳ×ª×Ķ": 778, "Ġ×ĳ×§×": 779, "Ġ×ŀ×¨×Ĵ×Ļ×©": 780, "Ġ×Ļ×ķ×Ŀ": 781, "Ľ×¨": 782, "×©×": 783, "Ġ'": 784, "Ľ×ķ×Ł": 785, "¤×ķ×Ł": 786, "©×ķ×ĳ": 787, "×Ļ×ķ×": 788, "Ġ×¢×ľ×Ļ×Ļ": 789, "ł×ª×Ļ": 790, "Ġ×ŀ×¦×": 791, "Ġ×ł×Ķ": 792, "ke": 793, "Ġ×ĳ×Ľ×": 794, "ĠØ¨": 795, "Ġ×¤×Ļ×": 796, "ĠT": 797, "¡×ķ×£": 798, "Ġ×Ļ×Ľ×ķ×ľ": 799, "Ġ×ŀ×Ľ×": 800, "Ĵ×Ķ": 801, "§×ĺ": 802, "¡×Ļ×Ŀ": 803, "ľ×ķ": 804, "Ġ×ķ×ĳ×": 805, "ar": 806, "Ġth": 807, "ł×§": 808, "Ġit": 809, "×Ļ×ļ": 810, "Ġ×Ĳ×ķ×ľ×Ļ": 811, "Ġ×Ĳ×Ĺ×Ļ": 812, "Ġ×Ķ×¢×": 813, "ĳ×ķ×Ĳ": 814, "Ġ×ª×Ļ×": 815, "×ŀ×Ķ": 816, "Ġ×Ĳ×Ķ": 817, "×ĳ×": 818, "Ġ×ĳ×©×ĳ×Ļ×ľ": 819, "¡×Ķ": 820, "Ġ×¢×ĵ×Ļ×Ļ×Ł": 821, "Ġ×§×Ļ×": 822, "ª×Ĳ": 823, "ľ×ķ×ª": 824, "Ġ×Ĳ×Ļ×ª×Ļ": 825, "ve": 826, "Ġ×Ķ×Ĳ": 827, "ĠØ§ÙĦ": 828, "Ġ×Ĳ×ł": 829, "Ġ×Ĳ×¦×": 830, "Ĳ×Ļ×Ł": 831, "¢×ª×Ļ": 832, "Ġ×ķ×Ĳ×ł×Ļ": 833, "Ġ×ķ×ĸ×Ķ": 834, "ŀ×ĵ": 835, "Ġ×Ķ×Ļ×Ķ": 836, "¨×ĺ": 837, "ck": 838, "©×Ļ×¨": 839, "Ĵ×Ŀ": 840, "Ĳ×ľ×Ķ": 841, "Ġ×ĵ×Ļ×": 842, "¢×ĵ": 843, "Ġin": 844, "Ġ×¢×¦×": 845, "ľ×ĺ": 846, "Ľ×ł×¡": 847, "Ġand": 848, "Ġ×ĳ×Ĺ×": 849, "Ġ×ĳ×¤×": 850, "Ġ×ĳ×Ĵ×": 851, "Ġ×Ĳ×ķ×Ķ×": 852, "Ġ×¦×ķ×": 853, "Ġu": 854, "Ùĩ": 855, "Ġ×©×ł×": 856, "Ĳ×ľ": 857, "§×Ĺ": 858, "Ġ×ł×ŀ×": 859, "Ġ×ŀ×¨×": 860, "Ġ×ĺ×Ļ×": 861, "ĺ×ķ": 862, "Ġ×ľ×ª×": 863, "ĸ×Ļ×": 864, "Ġ×ľ×¡×": 865, "Ġ×Ļ×©×": 866, "ł×Ļ×ª": 867, "Ġ×©×ĸ×Ķ": 868, "ľ×ł×ķ": 869, "Ġ×©×ķ×Ŀ": 870, "Ĳ×Ļ×Ŀ": 871, "Ø¯": 872, "Ġ×ĳ×ª×ķ×ļ": 873, "ot": 874, "Ġ!": 875, "Ġ×ŀ×ĵ×ĳ×¨": 876, "¢×Ļ×Ŀ": 877, "Ġ×Ĵ×ĳ×¨": 878, "Ġ×ĸ×ŀ×Ł": 879, "le": 880, "Ġ×ł×Ĵ×": 881, "ĠĠ": 882, "§×Ļ×ł×Ĵ": 883, "Ø¹": 884, "ĠâĢ": 885, "Ĳ×ľ×ľ×Ķ": 886, "Ġ×Ĳ×Ĺ": 887, "×Ļ×Ļ×Ŀ": 888, "ľ×ª×Ļ": 889, "ł×ª": 890, "Ġ×©×ĳ×": 891, "Ùĥ": 892, "Ġ×Ĳ×¤×": 893, "Ġ×Ķ×ł×": 894, "Ġ×Ĺ×ĳ×¨": 895, "Ġ×Ĳ×ľ×": 896, "¨×ĳ": 897, "Ġ×Ĳ×ľ×Ļ": 898, "Ġ×ķ×Ķ": 899, "Ġ×Ļ×Ĳ": 900, "Ġ×ķ×ª×": 901, "¡×§": 902, "Ġ×©×Ļ×¨": 903, "Ġ×ĳ×Ľ×ľ": 904, "Ġ×ª×¢×": 905, "ĵ×©": 906, "Ġ×Ķ×Ļ×Ļ": 907, "§×¨×ķ×": 908, "Ġ×Ĳ×ł×Ĺ×ł×ķ": 909, "×ķ×¨×Ļ×Ŀ": 910, "Ġ×ľ×ł×": 911, "Ġ×Ĳ×ķ×ª×Ķ": 912, "ĠB": 913, "ŀ×ķ×Ł": 914, "Ĵ×¨": 915, "¢×Ķ": 916, "Ġ×Ľ×¡×£": 917, "ĺ×Ł": 918, "Ġ×ĺ×ķ×": 919, "©×ª": 920, "×ª×": 921, "Ġ×ķ×ł×": 922, "×Ļ×Ļ×§": 923, "Ĳ×Ļ": 924, "Ġo": 925, "Ġ×ŀ×ľ×": 926, "ĵ×ª": 927, "¢×ķ×ĵ": 928, "ı,": 929, "ŀ×Ļ×Ł": 930, "ĳ×ķ×ĵ": 931, "Ġ×¡×ª×Ŀ": 932, "¦×Ļ×Ĳ": 933, "Ġ×ľ×¨×": 934, "Ġ×Ķ×ķ×ľ×ļ": 935, "Ġ×Ķ×Ľ×Ļ": 936, "×ķ×Ĳ×ķ": 937, "¤×ľ": 938, "¦×¨": 939, "Ġ×Ĳ×¨×": 940, "¢×ķ×ª": 941, "¤×ķ×ª": 942, "ĸ×Ļ": 943, "ĳ×ķ": 944, "as": 945, "¤×¡×Ļ×§": 946, "Ġ×©×Ļ×©": 947, "ľ×ķ×Ŀ": 948, "ł×Ļ×Ļ×Ł": 949, "Ġ×Ľ×Ļ×": 950, "Ø³": 951, "ig": 952, "ª×Ĺ×": 953, "¢×Ļ×ł×Ļ×Ļ×Ŀ": 954, "×¢×": 955, "Ġ×¡": 956, "Ġ×ľ×ł×ķ": 957, "¨×ĵ": 958, "Ġ×ķ×Ĳ×Ŀ": 959, "ĠW": 960, "¨×¡": 961, "âĢı,": 962, "Ġ×Ĳ×Ľ×": 963, "us": 964, "Ġ×Ĳ×ª×Ŀ": 965, "ª×Ļ×": 966, "×Ļ×Ļ×ĳ": 967, "Ġ×Ĳ×ķ×ŀ×¨": 968, "×Ľ×": 969, "ľ×Ļ×ľ×Ķ": 970, "Ġ×Ľ×Ľ×Ķ": 971, "¦×Ĺ": 972, "Ġ×Ķ×Ĺ×Ļ×Ļ×Ŀ": 973, "Ġ×ł×¨×Ĳ×Ķ": 974, "am": 975, "Ľ×ķ×ª": 976, "¨×¨": 977, "×ķ×¨×Ļ×ĵ": 978, "Ġ×Ĳ×ķ×ŀ×¨×Ļ×Ŀ": 979, "Ġ×Ĺ×ĸ×": 980, "Ġ×ĳ×ĵ×": 981, "©×ķ×ĺ": 982, "¢×Ļ×¨": 983, "Ġ×Ķ×Ķ": 984, "Ġ×Ļ×ľ×ĵ": 985, "Ġ×ĳ×Ļ×Ł": 986, "ĠÙĪ": 987, "Ġ×ĳ×Ļ": 988, "ª×Ĳ×ķ×Ŀ": 989, "ł×¡×Ķ": 990, "Ġ×ľ×Ľ×ľ": 991, "Ġ×ĵ×Ļ": 992, "¤×Ļ×§": 993, "Ġ×ª×Ĺ×": 994, "Ġ×Ļ×Ķ×Ļ×Ķ": 995, "ľ×§": 996, "Ġ×Ķ×¨×Ĳ×©": 997, "Ġ×ľ×Ľ×Ŀ": 998, "Ġ×Ĳ×ŀ×¨": 999, "ay": 1000, "ed": 1001, "Ġ×ľ×¦×": 1002, "Ġ×ŀ×ł×": 1003, "Ġ×¨×Ĳ×©": 1004, "Ġ×Ķ×¨×ĳ×Ķ": 1005, "\"\",": 1006, "§×ľ": 1007, "Ľ×ķ×ľ×Ŀ": 1008, "§×¨×ķ×¤×ķ×Ł": 1009, "ĳ×§": 1010, "Ġ×Ĳ×Ĺ×¨×Ļ": 1011, "§×ª": 1012, "×ķ×ķ×Ļ×": 1013, "Ġ×ľ×Ĵ×": 1014, "ver": 1015, "Ġwe": 1016, "im": 1017, "ut": 1018, "ĸ×Ļ×Ŀ": 1019, "¨×Ĳ×ķ×ª": 1020, "Ġe": 1021, "Ġ×Ķ×¦×": 1022, "Ġ×Ķ×ĸ×": 1023, "Ġmy": 1024, "ĵ×ķ×ľ": 1025, "Ġst": 1026, "×¤×": 1027, "Ĺ×¨": 1028, "ĳ×Ļ×ª": 1029, "Ġ×ŀ×ª": 1030, "ĳ×Ļ×ĳ": 1031, "Ø´": 1032, "Ġ×ľ×ĳ×ĵ": 1033, "Ġon": 1034, "Ġ×Ķ×ŀ×ķ×": 1035, "ØŃ": 1036, "¢×ľ×Ķ": 1037, "Ġ×Ĳ×Ĺ×ª": 1038, "ĠM": 1039, "Ġ×ª×ª×": 1040, "Ġ×Ļ×Ĳ×ľ×ľ×Ķ": 1041, "Ġk": 1042, "Ġ×ĳ×ĳ×": 1043, "Ġ×ķ×Ĵ×Ŀ": 1044, "Ġ×ŀ×©×Ķ×ķ": 1045, "Ġ×Ķ×Ļ×Ļ×ª×Ļ": 1046, "Ġ×ŀ×Ĵ×": 1047, "Ġ×ł×Ĺ×": 1048, "âĢĻ": 1049, "Ġ×Ķ×Ĺ×ķ×": 1050, "¨×£": 1051, "Ġ×ł": 1052, "Ġ×Ķ×¢×ķ×ľ×Ŀ": 1053, "Ġ×ł×Ľ×ķ×Ł": 1054, "Ġ×¨×Ļ×": 1055, "Ĳ×ĳ": 1056, "Ġli": 1057, "¨×ķ×ĳ": 1058, "¨×Ŀ": 1059, "Ġ×ľ×Ķ×Ļ×": 1060, "Ġ×Ĳ×ł×©×Ļ×Ŀ": 1061, "©×Ŀ": 1062, "Ġ×ĳ×ł×": 1063, "Ġ×Ĺ×ķ×©×ĳ": 1064, "ĳ×Ļ×¨": 1065, "Ġ×¨×ķ×Ĳ×Ķ": 1066, "ŀ×ķ×¨": 1067, "Ġ×ŀ×Ĳ×ķ×": 1068, "Ġ×ĳ×ķ": 1069, "Ġdi": 1070, "Ġ×ľ×ĵ×": 1071, "Ġ×Ĳ×¤×©×¨": 1072, "ĵ×ľ": 1073, "ÙĨØ§": 1074, "¢×ŀ×Ļ×Ŀ": 1075, "Ġ×¤×©×ķ×ĺ": 1076, "×ľ×": 1077, "Ġ×ĳ×Ł": 1078, "×Ķ×ĳ×Ķ": 1079, "¦×Ļ": 1080, "ĸ×ķ×¨": 1081, "Ĳ×ª×Ļ": 1082, "Ġ×Ļ×ķ×©×ĳ": 1083, "×ķ×Ĳ×Ļ": 1084, "Ġ×ŀ×ĳ×Ļ×Ł": 1085, "Ġ...": 1086, "Ġ×ª×Ķ": 1087, "ad": 1088, "Ġ×ĸ×Ĳ×ª": 1089, "×Ĳ×ł×Ļ": 1090, "Ġ×¤×¨×": 1091, "Ġ×ł×©×Ĳ×¨": 1092, "ŀ×©": 1093, "¡×ĺ×": 1094, "ĠY": 1095, "Ùģ": 1096, "×Ļ×Ļ×ľ": 1097, "Ġ×¢×ķ×ľ×Ķ": 1098, "¤×ķ×¨": 1099, "¡×¨": 1100, "Ġ×Ĳ×ķ×ª×Ŀ": 1101, "Ġ×ķ×Ļ×": 1102, "Ġ×ķ×Ľ×": 1103, "Ġde": 1104, "Ġ×Ĳ×ķ×Ķ×ĳ": 1105, "ĳ×ĳ": 1106, "Ľ×ķ": 1107, "Ġ×¤×ª×Ĳ×ķ×Ŀ": 1108, "ĳ×Ł": 1109, "Ġ×¨×ķ×¦×Ļ×Ŀ": 1110, "Ġup": 1111, "§×Ļ": 1112, "Ġ×ł×¢×": 1113, "ĳ×ª×Ļ": 1114, "en": 1115, "Ġ×ł×ķ×ª×Ł": 1116, "Ľ×ĳ": 1117, "Ġ×Ķ×ķ×¤": 1118, "Ġr": 1119, "ª×§": 1120, "Ġ×ĳ×¦×": 1121, "ŀ×Ļ×Ļ×Ŀ": 1122, "Ġ×ĳ×ľ×": 1123, ",âĢı,": 1124, "Ġ×Ľ×ľ×ķ×Ŀ": 1125, "na": 1126, "Ġ×ľ×Ķ×Ŀ": 1127, "Ø©": 1128, "Ġ×ŀ×§×ķ×Ŀ": 1129, "©×Ļ×ļ": 1130, "Ľ×Ŀ": 1131, "Ġ×ł×ª×": 1132, "Ġ×Ľ×©": 1133, "Ġ×ŀ×¡×ª×": 1134, "Ġ×ĳ×ĺ×": 1135, "Ġ×©×ł×Ļ": 1136, "Ġ×ľ×¤×ł×Ļ": 1137, "ĠÐ": 1138, "el": 1139, "'s": 1140, "ĸ×ľ": 1141, "Ġ×ĳ×Ĳ×ķ×": 1142, "Ĳ×§": 1143, "¢×¨": 1144, "ł×ĺ": 1145, "...,": 1146, "Ġ×Ķ×ŀ": 1147, "ĠN": 1148, "¤×¨×Ļ×Ŀ": 1149, "Ġ×Ĳ×¤": 1150, "Ġ×ł×Ľ×ł×¡": 1151, "Ĺ×Ļ×": 1152, "Ġ×Ĳ×Ĺ×¨": 1153, "Ġ×ľ×¢×©×ķ×ª": 1154, "Ġ×Ķ×ĸ": 1155, "ic": 1156, "ĺ×ķ×ĳ": 1157, "Ġ×Ĺ×Ŀ": 1158, "Ġ×ĳ×ķ×Ŀ": 1159, "¡×ª": 1160, "¤×Ł": 1161, "Ġ×Ļ×ķ×¦×Ĳ": 1162, "Ġ×ŀ×Ľ×Ļ×¨": 1163, "©×Ļ": 1164, "ĠD": 1165, "¨×Ĵ×": 1166, "×Ļ×Ļ×Ķ": 1167, "Ġ×ķ×©×": 1168, "Ġ×ķ×¢×": 1169, "Ġ×Ĺ×Ļ×": 1170, "Ġre": 1171, "Ġ×Ļ×ľ×": 1172, "Ġ×Ķ×ĺ×": 1173, "Ġ×ĳ×ķ×Ĳ×Ļ": 1174, "Ġ×ĳ×ª×": 1175, "'t": 1176, "Ġhe": 1177, "Ġ×©×Ĳ×ª×Ķ": 1178, "Ĺ×ķ×§": 1179, "Ġ×Ķ×ĳ×Ļ×ĺ": 1180, "ĠH": 1181, "Ġ×©×ª×Ļ": 1182, "Ġ×§×ķ×¨×Ĳ": 1183, "×§×": 1184, "Ĳ×¡": 1185, "Ġ×Ķ×ŀ×Ļ×": 1186, "Ġ×Ĺ×©×": 1187, "Ġ×¢×ķ×©×Ļ×Ŀ": 1188, "ĵ×Ļ×ķ×": 1189, "Ġ×ķ×ķ×Ĳ×ľ×Ķ": 1190, "Ġ×©×ł×Ļ×Ŀ": 1191, "Ĺ×ķ×¥": 1192, "Ġ×ĳ×Ķ×": 1193, "ÙĤ": 1194, "Ġ×©×Ľ×": 1195, "ĳ×¨×Ļ×Ŀ": 1196, "Ĺ×Ļ×ķ×ª": 1197, "ill": 1198, "Ġ×ŀ×ľ×Ĳ": 1199, "ĵ×ª×Ļ": 1200, "Ġ×Ķ×ľ×ĳ": 1201, "¦×ķ×¨": 1202, "Ĳ×Ļ×ľ×ķ": 1203, "¡×ª×": 1204, "Ġse": 1205, "ĳ×©": 1206, "od": 1207, "Ġ×ŀ×ĺ×": 1208, "ŀ×Ĳ": 1209, "Ġ×ª×ŀ×": 1210, "©×Ļ×ĺ": 1211, "Ġ×ķ×Ĳ×ĸ": 1212, "ľ×Ľ×ª": 1213, "Ġ×ĳ×Ķ": 1214, "Ġ×ŀ×©×ķ×": 1215, "Ġ×ķ×Ĳ×ª": 1216, "Ġbe": 1217, "ĠC": 1218, "×ķ×Ļ×": 1219, "Ġ×ª×¤×": 1220, "Ĳ×Ļ×¨": 1221, "Ġ×Ľ": 1222, "¦×ķ×ª": 1223, "Ġis": 1224, "ł×Ļ×Ķ": 1225, "Ġ×ł×¤×": 1226, "Ġ×©×ľ×": 1227, "ĠØ¹": 1228, "Ġof": 1229, "Ġ×ª×¨×": 1230, "Ġ×Ĳ×Ľ×¤×ª": 1231, "ĠL": 1232, "ł×ĵ": 1233, "Ġ×Ĳ×Ļ×ª×ļ": 1234, "Ġ×Ľ×Ĳ×Ļ×ľ×ķ": 1235, "Ġ×ŀ×ĵ×Ļ": 1236, "Ġ×Ĳ×Ļ×Ļ": 1237, "Ĺ×Ļ×Ŀ": 1238, "Ġ×ĳ×¨×ķ×": 1239, "Ġ×©×Ĳ×ª": 1240, "§×ķ×ķ×Ķ": 1241, "Ġ×ľ×¨×Ĳ×ķ×ª": 1242, "¡×Ļ×ĳ×Ķ": 1243, "Ġ×ŀ×¡×ķ×": 1244, "Ġ×Ķ×Ķ×": 1245, "ł×Ł": 1246, "igh": 1247, "Ġ×ŀ×©×ł×Ķ": 1248, "×§": 1249, "ľ×ķ×Ł": 1250, "Ġ×¨×Ĵ×¢": 1251, "Ø§ÙĦ": 1252, "ŀ×ķ×ł×Ķ": 1253, "Ġ×ŀ×ĳ×Ļ×Ĳ": 1254, "©×ķ×Ŀ": 1255, "Ġ×Ļ×¢×": 1256, "¨×ķ×Ŀ": 1257, "Ġ×©×ľ×ķ×": 1258, "id": 1259, "Ġwh": 1260, "Ġ×ĳ×Ľ×ľ×ľ": 1261, "×ķ×¨×Ļ": 1262, "Ġ×Ľ×©×Ķ×": 1263, "Ġ×ľ×ĳ": 1264, "Ĳ×ł×Ĵ": 1265, "ŀ×ª×Ļ": 1266, "×Ĺ×": 1267, "Ġ×ŀ×ĵ×": 1268, "Ġ×Ľ×ĵ×Ļ": 1269, "ª×ł×ķ": 1270, "Ġ×ŀ×Ļ×ľ×Ļ×Ŀ": 1271, "Ġ×§×Ĳ×": 1272, "×Ļ×Ļ×ĺ": 1273, "Ġ×ł×Ĵ×ŀ×¨": 1274, "×ĳ": 1275, "ĳ×ĳ×Ķ": 1276, "Ġ×Ķ×ł×Ķ": 1277, "Ġ×¢×©×Ļ×": 1278, "×ķ×¨×ķ×ª": 1279, "ion": 1280, "Ġ×Ķ×Ĳ×ķ×": 1281, "Ġ×ĳ×¡×ķ×£": 1282, "Ķ×Ļ×Ŀ": 1283, "×ĸ×Ķ": 1284, "ĸ×Ļ×§×Ķ": 1285, "Ġ×ķ×Ľ×ľ": 1286, "ĠØ£": 1287, "×¡×": 1288, "×ª×Ķ": 1289, "Ġ×Ķ×ľ×Ļ×ľ×Ķ": 1290, "×ł×": 1291, "ĳ×¨×ª": 1292, "ome": 1293, "',": 1294, "Ĵ×ķ": 1295, "Ġ×¨": 1296, "Ġ×Ĳ×ĵ×Ŀ": 1297, "¨×ķ×§": 1298, "ĠÙĦ": 1299, "op": 1300, "ĺ×¢": 1301, "Ġ×ŀ×ķ×Ľ×Ł": 1302, "¤×ļ": 1303, "ĵ×§": 1304, "ĠAnd": 1305, "âģ": 1306, "Ġ×Ķ×ŀ×©×": 1307, "Ġ×ĸ×ķ": 1308, "Ġ×ŀ×Ĳ×ŀ×Ļ": 1309, "âģŁ": 1310, "Ġ×ĳ×¨×Ĳ×©": 1311, "Ġ×Ĳ×ķ×Ľ×ľ": 1312, "Ġ×ķ×Ĳ×Ļ×Ł": 1313, "Ġ×ŀ×ķ×ľ": 1314, "Ġ×Ķ×Ļ×¤": 1315, "Ġ×¤×Ĳ×§": 1316, "ł×ĺ×": 1317, "ľ×Ļ×ĺ": 1318, "ah": 1319, "ľ×Ļ×Ļ×Ŀ": 1320, "Ġ×ŀ×ª×Ĺ×": 1321, "ac": 1322, "¤×¨×": 1323, "ł×Ļ×Ļ×": 1324, "¤×ķ×ľ": 1325, "Ġ×ŀ×ł×¡×Ķ": 1326, "ĵ×Ĳ×": 1327, "Ġ×§×©×Ķ": 1328, "Ġ×ĳ×Ĳ×ª×Ļ": 1329, "§×Ł": 1330, "§×©": 1331, "Ġ×§×ľ": 1332, "Ġ×¢×ĳ×¨": 1333, "Ĺ×ķ×ĳ": 1334, "Ġno": 1335, "ld": 1336, "Ĺ×Ļ×ľ": 1337, "Ġ×§×ķ×¨×Ķ": 1338, "Ġ×Ĳ×ŀ×¨×ª×Ļ": 1339, "ĵ×¢×ª": 1340, "¨×ķ×¥": 1341, "¤×Ļ×ľ": 1342, "Ġ×ł×ķ": 1343, "Ġ×ľ×Ĺ×Ļ×ķ×ª": 1344, "out": 1345, "Ġ×ŀ×ª×ķ×": 1346, "§×ª×Ļ": 1347, "Ġ×ĳ×Ļ×ª": 1348, "Ġ×ĵ×ķ×¤×§": 1349, "Ġ×Ĳ×¦×ľ×Ļ": 1350, "¤×ķ": 1351, "Ġthat": 1352, "'m": 1353, "Ġ×Ĵ×Ļ×": 1354, "Ġ×Ĺ×ĸ×§": 1355, "Ĳ×¨×": 1356, "©×ª×Ļ": 1357, "Ġ×¡×ĺ×": 1358, "×Ļ×©×ķ×Ł": 1359, "Ġ×ª×ĳ×Ļ×Ĳ": 1360, "Ġ×ŀ×Ļ×ľ×Ķ": 1361, "Ġ×Ĺ×Ļ×Ļ×Ŀ": 1362, "Ġ×©×¨×": 1363, "Ġ×Ĳ×ķ×ķ": 1364, "Ġ×Ļ×ķ×ĵ×¢×Ļ×Ŀ": 1365, "Ĳ×ķ×ª": 1366, "Ġ×ŀ×¡×¤×Ļ×§": 1367, "Ġ×ŀ×ª×Ļ": 1368, "ight": 1369, "Ĺ×ķ": 1370, "ľ×Ķ×": 1371, "ĳ×Ļ×ĺ": 1372, "×ŀ": 1373, "Ġ×©×ķ×ŀ×¢": 1374, "Ĺ×ª×Ļ": 1375, "Ġ×©×Ļ×ĺ": 1376, "¨×Ĳ×¤": 1377, "Ġsh": 1378, "Ġ×¡×ķ×£": 1379, "ł×ª×Ļ×Ļ×Ŀ": 1380, "Ġ×ŀ×Ĵ×Ļ×¢": 1381, "×ķ×ķ×Ļ×¨": 1382, "Ġ×©×Ķ×ķ×Ĳ": 1383, "Ġ×©×§×": 1384, "Ġ×Ľ×ĸ×Ķ": 1385, "Ġ×ŀ×Ĺ×¤×©": 1386, "Ġ×¢×¦×ŀ×Ļ": 1387, "¤×ķ×¡": 1388, "ĵ×ķ×¨": 1389, "ĠÙĥ": 1390, "Ġ×ľ×ŀ×¢×ľ×Ķ": 1391, "Ľ×ķ×ł×Ķ": 1392, "ĠĠĠĠ": 1393, "Ġ×¢": 1394, "×Ļ×ĵ×Ļ": 1395, "ĠâĢİ": 1396, "Ġ×¢×Ļ×": 1397, "Ġ×Ķ×Ĵ": 1398, "ª×ĳ": 1399, "Ġ×Ļ×¤×Ķ": 1400, "¨×ķ×Ĺ": 1401, "Ġ×Ĳ×ľ×ķ×": 1402, "ĠO": 1403, "Ġ×Ľ×©×Ĳ×ł×Ļ": 1404, "Ġ×Ĵ×ĳ×ķ×": 1405, "Ġ×Ĳ×ĳ×Ļ×ĳ": 1406, "Ġ×ľ×ĸ×Ķ": 1407, "¢×ľ": 1408, "Ġ×©×Ĺ×": 1409, "Ġ×ŀ×ĸ×": 1410, "©×Ļ×ĳ": 1411, "Ġ×Ĳ×©": 1412, "§×ķ": 1413, "ĠG": 1414, "ÙĬÙĨ": 1415, "Ġ×¢×ķ×ĳ×¨": 1416, "Ġ×ŀ×©×Ĺ×§": 1417, "Ġ×ľ×Ļ×©×ķ×Ł": 1418, "Ġcan": 1419, "Ġ2": 1420, "ĸ×Ļ×§": 1421, "Ġ×ŀ×ķ×©×": 1422, "Ġ×©×Ĳ×Ļ×Ł": 1423, "Ġ×Ķ×Ĵ×ķ×": 1424, "Ġ×Ĳ×Ļ": 1425, "Ġ×Ļ×ĵ": 1426, "Ġ×Ĳ×ª×": 1427, "¨×ķ×£": 1428, "ith": 1429, "Ġ×ľ×¤×¢×ŀ×Ļ×Ŀ": 1430, "§×Ļ×Ļ": 1431, "Ġ×©×ľ×ķ×Ŀ": 1432, "§×ķ×ĵ": 1433, "Ġ×ĳ×Ļ×Ļ×": 1434, "Ġ×Ľ×Ļ×£": 1435, "Ġ×Ĺ×Ļ×Ļ×ĳ": 1436, "Ġ×Ľ×ķ×¡": 1437, "×Ļ×ª×Ķ": 1438, "Ġ×Ľ×ŀ×ķ×": 1439, "Ġ×ĵ×¨×ļ": 1440, "ir": 1441, "ĸ×ķ": 1442, "Ľ×ª": 1443, "×Ļ×¨×ķ×ª": 1444, "Ġgo": 1445, "Ġ×ĳ×ª": 1446, "ĵ×Ĳ×Ļ": 1447, "Ġ×§×¨×Ķ": 1448, "ĸ×ķ×ĳ": 1449, "Ġ×Ĺ×ķ×ĸ×¨": 1450, "Ġ×ł×©×ŀ×¢": 1451, "Ġ×ĳ×¡×ĵ×¨": 1452, "Ġ×ŀ×Ľ×ľ": 1453, "Ġ×ķ×Ļ×©": 1454, "ĠP": 1455, "Ĳ×§×Ļ×ł×Ĵ": 1456, "ĵ×Ļ×ŀ×Ķ": 1457, "×ķ×ķ×Ĳ×": 1458, "Ġkn": 1459, "ĵ×Ļ×ķ×§": 1460, "×Ļ×ĵ×Ķ": 1461, "Ġ×ľ×Ķ×©×": 1462, "ł×Ķ×": 1463, "Ġ×Ĳ×¤×¡": 1464, "Ġ×ľ×ª×ª": 1465, "Ġ×Ĳ×Ļ×¤×Ķ": 1466, "Ġ×©×ľ×ķ": 1467, "ł×Ļ×¡": 1468, "Ġyour": 1469, "Ġ×ĳ×Ĺ×ķ×¨": 1470, "Ġ×ŀ×Ļ×Ļ×": 1471, "Ġ×Ķ×©×ķ×": 1472, "Ġ×¤×Ĳ×§×Ļ×ł×Ĵ": 1473, "Ġ×ŀ×ŀ×©": 1474, "×Ĳ×ķ×": 1475, "Ġ×ľ×Ĳ×ĺ": 1476, "§×¢": 1477, "Ġ×ł×¡×": 1478, "ĳ×ķ×¢": 1479, "Ġ×ŀ×ĵ×ĳ×¨×Ļ×Ŀ": 1480, "ŀ×ķ×ĵ": 1481, "ÙĦÙĬ": 1482, "Ġ×ĳ×Ĳ×ŀ×ª": 1483, "©×ķ": 1484, "Ġ×Ĳ×©×": 1485, "Ġ×Ķ×Ļ×ĵ": 1486, "Ġ×¡×ĳ×ĳ×Ķ": 1487, "un": 1488, "ĵ×ĵ": 1489, "Ġ×ł×¨×": 1490, "Ġ×ĳ×ĵ×¨×ļ": 1491, "all": 1492, "ur": 1493, "Ġ×ĳ×¢": 1494, "Ġ×©×¢×ķ×": 1495, "¤×ķ×§": 1496, "Ġ×ĳ×ŀ×§×ķ×Ŀ": 1497, "Ġj": 1498, "ĠÙģ": 1499, "Ġlike": 1500, "Ġ×ŀ×Ĳ×Ł": 1501, "ĵ×Ļ×ł×Ķ": 1502, "own": 1503, "ŀ×ł×Ļ×Ŀ": 1504, "§×¡×ĺ": 1505, "§×ķ×ľ": 1506, "Ġ×ĵ×Ĳ×": 1507, "Ġ×ª×ľ": 1508, "Ġ×ª×ł×ķ": 1509, "×Ļ×ľ×ķ×ª": 1510, "Ġ×ĸ×ķ×Ľ×¨": 1511, "Ĵ×Ļ": 1512, "Ġ×Ķ×ĳ×ķ×": 1513, "Ġ×ĳ×ĵ×Ļ×ķ×§": 1514, "Ġ×ľ×Ļ×ľ×Ķ": 1515, "ĠF": 1516, "Ġso": 1517, "ľ×ķ×Ĳ×ķ": 1518, "Ľ×ł×": 1519, "ĠÙĬ": 1520, "Ġfor": 1521, "ª×ķ×ĳ": 1522, "Ø¬": 1523, "Ġ×Ķ×¦": 1524, "§×ķ×ª": 1525, "ĠJ": 1526, "Ľ×ķ×¨": 1527, "Ġ×ŀ×ĳ×Ļ×": 1528, "Ġ×§×ĵ×Ļ×ŀ×Ķ": 1529, "Ġ×Ĳ×¤×Ļ×ľ×ķ": 1530, "ack": 1531, "Ġ×Ļ×©×¨×Ĳ×": 1532, "Ġ×ĸ×Ļ×Ł": 1533, "ly": 1534, "os": 1535, "ĠR": 1536, "ŀ×ļ": 1537, "Ġ×ŀ×Ĺ×ķ×": 1538, "¤×ª×Ļ": 1539, "Ġ×Ĵ×ĵ×ķ×ľ": 1540, "Ġ×ŀ×ª×§×": 1541, "Ĳ×ł×": 1542, "Ġ×ĳ×Ļ×ĺ": 1543, "ant": 1544, "¨×ķ×ª": 1545, "×ļ": 1546, "¨×Ĳ×§": 1547, "¦×Ļ×ª×Ļ": 1548, "Ġ×©×©×": 1549, "Ġ×Ķ×Ĺ×ĳ×¨": 1550, "Ġ×ĵ×ĳ×¨×Ļ×Ŀ": 1551, "¦×Ļ×Ĳ×ķ×ª": 1552, "Ĳ×ŀ×": 1553, "Ġ×ª×ķ×ĵ×Ķ": 1554, "ĠØª": 1555, "Ġwith": 1556, "×Ļ×¤": 1557, "Ġ×ŀ×¤×ķ×": 1558, "Ġ×Ĺ×ĵ×©": 1559, "Ġ×Ĳ×ľ×Ļ×Ļ": 1560, "ĺ×¨×Ķ": 1561, "her": 1562, "×Ĳ×Ķ": 1563, "Ĵ×ķ×ľ": 1564, "ľ×£": 1565, "Ġ×ŀ×Ĺ×¨": 1566, "Ġ×ĳ×¤×ł×Ļ×Ŀ": 1567, "×ķ×ķ×Ł": 1568, "¨×¥": 1569, "¦×ŀ×Ļ": 1570, "Ġ×ł×Ķ×Ļ×Ķ": 1571, "©×ķ×Ł": 1572, "Ġ×©×Ĺ×ķ×¨": 1573, "¡×¢": 1574, "Ġ×¡×ķ×¤×¨": 1575, "¢×ĺ": 1576, "Ġ×ŀ×©×ª×": 1577, "Ġ×ª×Ĵ×Ļ×ĵ×ķ": 1578, "Ġ×ľ×ĸ×": 1579, "Ġ×ŀ×¦×ĳ": 1580, "Ġ×Ĳ×ŀ×Ļ×": 1581, "Ġ×¢×ķ×ĳ×ĵ": 1582, "Ġ×ĳ×Ĳ×ķ×ķ×Ļ×¨": 1583, "ake": 1584, "ĵ×ŀ×Ķ": 1585, "Ġ×¢×ķ×ŀ×ĵ": 1586, "Ġ×Ĳ×¡": 1587, "Ġ×ª×Ĳ×": 1588, "¦×¥": 1589, "ĵ×Ļ×Ļ×Ŀ": 1590, "Ĺ×ķ×¨×Ķ": 1591, "Ġ×ŀ×ĺ×ķ×": 1592, "Ġ×Ķ×ª×Ĺ×": 1593, "Ġ×ĸ×ķ×ł×Ķ": 1594, "Ð°": 1595, "Ġ×ķ×¢×ķ×ĵ": 1596, "×´": 1597, "ĺ×Ĳ": 1598, "ľ×ķ×ŀ×ķ×ª": 1599, "Ġ×©×ĳ×Ĳ": 1600, "Ġ×¨×Ĳ×¤": 1601, "ª×Ĺ×Ļ×ľ": 1602, "Ġ×§×ķ×¨×Ĳ×Ļ×Ŀ": 1603, "Ġ×ŀ×ª×Ĺ×Ļ×ľ": 1604, "ch": 1605, "ŀ×ľ": 1606, "Ġ×©×ľ×Ķ": 1607, "×Ļ×Ļ×ļ": 1608, "ĠYou": 1609, "Ġ×ŀ×ľ×ŀ×": 1610, "Ġ×Ĳ×Ĺ×ķ×": 1611, "Ġ×Ķ×ľ×": 1612, "Ġ×©×¢×": 1613, "Ġ×Ľ×ĳ×ķ×ĵ": 1614, "Ġlo": 1615, "Ġ×Ķ×ĵ×¨×ļ": 1616, "Ġ×¦×ķ×¢×": 1617, "Ġknow": 1618, "¨×©": 1619, "Ġ×ĺ×Ļ×¤×Ķ": 1620, "ĳ×ĺ": 1621, "ł×Ļ×ķ×ª": 1622, "Ġ×Ļ×Ľ×ķ×": 1623, "Ġ×¨×ķ×§×": 1624, "Ġall": 1625, "×¡": 1626, "×ľ": 1627, "Ġ×ŀ×Ķ×ŀ×": 1628, "Ġ×§×ľ×Ĳ×": 1629, "Ĵ×Ļ×Ŀ": 1630, "Ġ×Ķ×Ľ×ķ×": 1631, "Ġget": 1632, "Ø·": 1633, "Ġ×Ĳ×Ķ×ĳ×Ķ": 1634, "¤×Ļ×Ļ×Ŀ": 1635, "Ġ×Ľ×ĵ×Ĳ×Ļ": 1636, "Ġ×Ļ×ķ×ĵ×¢×ª": 1637, "Ġ×¢×©×": 1638, "ĵ×¨×": 1639, "Ġ×ŀ×ª×¤×": 1640, "Ġ×ŀ×Ĺ×Ľ×Ķ": 1641, "Ġ×§×ĺ×Ł": 1642, "ter": 1643, "ł×ķ×Ł": 1644, "Ġ×Ķ×©×Ļ×¨": 1645, "Ġ×©×ł×Ķ": 1646, "Ġtr": 1647, "Ġ×Ĳ×ŀ×Ĳ": 1648, "ĵ×ķ": 1649, "Ġ×ľ×Ĳ×Ł": 1650, "Ġ×ŀ×Ľ×ķ×": 1651, "Ġ×ĳ×ĺ×ķ×": 1652, "Ġ×ľ×ķ×§×Ĺ": 1653, "©×Ĳ×¨": 1654, "×Ļ×ł×ķ": 1655, "Ġ×ŀ×ĸ×Ķ": 1656, "Ġ×ŀ×¨×Ļ×": 1657, "Ġ×ķ×Ĺ×": 1658, "Ġ×ĵ×Ŀ": 1659, "Ġ×Ľ×ķ×ľ×Ļ": 1660, "ŀ×ķ×§": 1661, "¨×ŀ×": 1662, "Ġ×Ĳ×Ĺ×¨×ª": 1663, "Ġ×ŀ×¡×¤×¨": 1664, "Ġfr": 1665, "Ġdem": 1666, "Ġ×©×Ľ×ľ": 1667, "¡×Ļ×ĸ": 1668, "ĠThe": 1669, "Ġ×ĳ×ŀ×Ļ×": 1670, "Ġ×ĳ×Ľ×Ļ×": 1671, "Ġ×©×Ļ×Ŀ": 1672, "Ġ1": 1673, "Ġ×ĳ×Ĵ": 1674, "Ġ×¢×ķ×ľ×Ŀ": 1675, "×ķ×¡": 1676, "Ġ×¨×¢": 1677, "Ġman": 1678, "Ġ×Ķ×Ľ×¡×£": 1679, "ŀ×Ŀ": 1680, "Ġ(!": 1681, "Ġ×ĳ×Ļ×Ĺ×ĵ": 1682, "ĠE": 1683, "Ĳ×ķ": 1684, "Ġ×Ĳ×§×": 1685, "ĠÙħÙĨ": 1686, "Ġ×Ĵ×ĳ×ķ×Ķ": 1687, "ľ×Ĵ×ľ": 1688, "Ġ×Ĺ×¨×ķ×": 1689, "×ķ×ķ×ª×¨": 1690, "Ġ×ł×Ļ": 1691, "Ġ×ľ×ĺ×": 1692, "Ġ×ķ×§×": 1693, "Ġ×Ĳ×Ļ×©": 1694, "¨×Ĵ×Ļ×": 1695, "Ġ×Ķ×¤×ķ×": 1696, "Ġ×ĳ×ĳ×Ļ×ª": 1697, "Ġ×Ļ×©×¨": 1698, "Ġ×ŀ×Ļ×ķ×": 1699, "×Ļ×£": 1700, "Ġ×Ķ×Ļ×ķ": 1701, "¦×ľ": 1702, "Ð¾": 1703, "Ġ×Ĳ×ĳ×Ĳ": 1704, "Ġ×Ķ×ĵ×Ļ×": 1705, "Ľ×Ĺ": 1706, "ł×©×Ļ×Ŀ": 1707, "Ġ×¡×ĺ": 1708, "Ġ×Ķ×¨×Ĵ×": 1709, "Ġ×ŀ×ŀ×ł×Ļ": 1710, "Ġ×ľ×ľ×Ĳ": 1711, "Ġ×Ķ×§": 1712, "ł×¨": 1713, "Ġ×§×¨": 1714, "Ġ×Ĳ×ľ×£": 1715, "Ġ×©×Ķ×Ļ×Ĳ": 1716, "×ŀ×ķ×": 1717, "Ġ×ª×¨×Ļ×": 1718, "×Ļ×Ļ×¤": 1719, "¨×Ĳ×Ļ": 1720, "Ġne": 1721, "ab": 1722, "×ķ×ľ": 1723, "ľ×Ł": 1724, "ŀ×ł×Ļ": 1725, "Ġ×ª×ĳ×Ļ×Ł": 1726, "ĠØŃ": 1727, "Ġ×ķ×ķ×Ĳ×Ļ": 1728, "Ġ×ķ×¤×": 1729, "Ġ×ĳ×Ļ×ĵ": 1730, "Ġ×Ķ×ķ×ľ×": 1731, "Ġ×ŀ×¢×ķ×": 1732, "Ġ×ª×ĳ×": 1733, "Ġ×©×ķ×ª": 1734, "Ġ×ķ×Ķ×Ļ×Ĳ": 1735, "ust": 1736, "Ġ×Ķ×¡×ķ×£": 1737, "Ġ×ķ×ŀ×Ķ": 1738, "Ġ×Ļ×Ŀ": 1739, "Ĳ×ľ×§": 1740, "ľ×ĺ×": 1741, "§×¨×Ķ": 1742, "Ġ×Ĳ×ķ×Ļ": 1743, "Ġ×ŀ×Ļ×©×Ķ×ķ": 1744, "Ġ×ŀ×Ľ×Ĳ×Ł": 1745, "Ġ×¨×Ĳ×©×ķ×Ł": 1746, "Ġ×ŀ×ķ×¦×Ĳ": 1747, "Ġ×ĳ×ĺ×Ĺ": 1748, "ce": 1749, "Ġ×ĳ×¨": 1750, "¤×¨×Ķ": 1751, "ª×ķ×Ŀ": 1752, "ľ×¡": 1753, "ł×Ĵ×": 1754, "¡×ª×Ļ": 1755, "ĳ×ķ×ĵ×Ķ": 1756, "Ġ×ĳ×Ļ×Ļ": 1757, "ª×ķ×§": 1758, "Ġ×¤×ķ×ª×Ĺ": 1759, "ÑĤ": 1760, "¡×ĺ×¨": 1761, "ľ×Ĺ": 1762, "¨×Ĳ×ķ": 1763, "ľ×ķ×ĺ": 1764, "ave": 1765, "×ŀ×Ļ": 1766, "Ġ×ł×ķ×ª×": 1767, "Ġdo": 1768, "Ġ×©×Ļ×¨×Ļ×Ŀ": 1769, "Ġ×Ķ×ĸ×Ĳ×ª": 1770, "Ġ×Ķ×©×Ļ×ĺ": 1771, "ł×ľ": 1772, "Ġ×ª×ĸ×": 1773, "Ġ×ł×ķ×¤×ľ": 1774, "Ġdon": 1775, "Ġ×©×Ķ×Ŀ": 1776, "×Ķ×Ķ": 1777, "Ġ×ĳ×ľ×Ĳ×": 1778, "¦×¢": 1779, "×Ļ×§×Ļ×Ŀ": 1780, "Ġthis": 1781, "ĠâĢĵ": 1782, "Ġ×ŀ×§×ķ×": 1783, "Ġ×ĳ×ĸ×": 1784, "Ġ×ķ×¢×ĵ": 1785, "×Ĳ×ĸ": 1786, "×Ĳ×Ļ×": 1787, "Ĳ×ĵ": 1788, "Ġ×Ĳ×ķ×¨": 1789, "Ġ×ª×ł×Ļ": 1790, "Ġ×ĳ×Ĳ×Ļ×": 1791, "Ġfi": 1792, "Ľ×Ļ×¨": 1793, "Ġ×Ĳ×Ļ×ł×": 1794, "Ĺ×ķ×Ł": 1795, "ľ×Ļ×ª": 1796, "Ġ×§×ķ×¤×": 1797, "§×¨×ķ": 1798, "¦×ķ": 1799, "Ġ×Ķ×§×ķ×": 1800, "Ġ×ŀ×ĸ×Ļ×": 1801, "ĳ×ķ×Ł": 1802, "Ġ×Ķ×ĳ×Ĳ": 1803, "Ġ×ª×ķ×¤×¡": 1804, "Ġ×Ĳ×ķ×ŀ×¨×ª": 1805, "Ġ×ĳ×¨×Ļ×": 1806, "Ġ×Ľ×ł×": 1807, "Ġ×Ĳ×ŀ×Ļ×ª×Ļ": 1808, "×Ĵ": 1809, "Ġ×ķ×Ĳ×Ļ×": 1810, "Ġ×ª×Ĵ×": 1811, "Ø§ÙĨ": 1812, "Ġ×Ľ×ķ×ľ×ł×ķ": 1813, "ľ×Ļ×ķ×Ł": 1814, "Ġ×Ķ×©×Ŀ": 1815, "Ġ×ł×ŀ×Ĳ×¡": 1816, "Ġ×ª×ĳ×ķ×Ĳ": 1817, "Ġ×ĳ×ĵ×ķ×": 1818, "¡×¤×": 1819, "Ġ×ŀ×ķ×Ľ×": 1820, "ĵ×Ļ×ķ": 1821, "Ġ×ľ×§×Ĺ×ª": 1822, "Ġ×ª×©×ŀ×¢": 1823, "Ġ×ª×¨×Ĳ×Ķ": 1824, "ĳ×ķ×ľ": 1825, "Ø§Ø±": 1826, "Ġ×ŀ×Ĺ×¤×": 1827, "Ġ×ł×©×Ĳ×": 1828, "Ġ×Ĳ×ľ×ķ×Ķ×Ļ×Ŀ": 1829, "ĵ×ķ×ª": 1830, "©×ŀ×Ķ": 1831, "Ġ×ĳ×Ĳ×Ļ×Ŀ": 1832, "Ġ×¢×©×Ļ×ª×Ļ": 1833, "Ġ×Ķ×¡×Ļ×": 1834, "Ġ×ŀ×ª×¢×": 1835, "ĸ×Ļ×¨": 1836, "Ġ×§×¨×": 1837, "Ġ×¢×ľ×Ļ×Ļ×ļ": 1838, "Ġ×Ķ×Ĵ×ķ×£": 1839, "×©": 1840, "×Ľ×Ł": 1841, "Ġ×¢×Ļ×ł×Ļ×Ļ×Ŀ": 1842, "×ķ×ļ": 1843, "Ġ×ŀ×ķ×¨×Ļ×ĵ": 1844, "×ĺ×Ļ": 1845, "Ġ×ŀ×ł×ķ×": 1846, "Ġ×ķ×Ĳ×ķ×": 1847, "×Ķ×ľ": 1848, "×¨×": 1849, "Ĳ×ľ×Ļ": 1850, "Ġ×Ĳ×ĳ×": 1851, "Ġ×Ĳ×ŀ×ª": 1852, "Ġ×¨×Ĺ×ķ×§": 1853, "Ġ×ĵ×¨×": 1854, "ŀ×ķ×ļ": 1855, "Ġ×¢×ĸ×": 1856, "Ġ×ķ×ķ": 1857, "Ġ×Ĳ×Ĺ×ľ×Ķ": 1858, "ľ×Ļ×Ĺ": 1859, "Ġ×¨×Ĳ×¤×¨": 1860, "Ġ×Ļ×Ļ×": 1861, "ľ×Ļ×Ļ": 1862, "Ġ×Ĺ×ľ×§": 1863, "uck": 1864, "Ġi": 1865, "ŀ×ķ×Ŀ": 1866, "ľ×¤×Ł": 1867, "Ġ×ľ×ĵ×ĳ×¨": 1868, "Ġ×ĳ×ĵ×Ļ×": 1869, "¡×ĺ×Ķ": 1870, "×Ļ×Ļ×¨": 1871, "Ġ×§×¨×ķ×ĳ": 1872, "Ġ×Ĺ×¦×Ļ": 1873, "Ġ×Ľ×ķ×ª×ĳ": 1874, "ª×ķ×ĳ×ĳ": 1875, "¦×Ļ×Ķ": 1876, "Øµ": 1877, "Ġ×ŀ×ĸ×ķ×": 1878, "one": 1879, "Ġ×ª×¦×": 1880, "Ġ×ľ×Ķ×ķ×": 1881, "ł×¡×Ļ×Ŀ": 1882, "ong": 1883, "Ġ×Ķ×ŀ×Ļ×§×¨×ķ×¤×ķ×Ł": 1884, "Ġ×ĳ×Ĺ×ķ×¥": 1885, "Ġ×¢×ľ×Ļ×Ķ": 1886, "Ġ×¨×ķ×Ĳ×Ļ×Ŀ": 1887, "ŀ×ķ×ľ": 1888, "Ġ×ĺ×ķ×ĳ×Ķ": 1889, "Ġ×ł×Ķ×": 1890, "Ġ×ĳ×¦×ĵ": 1891, "Ġ×ľ×ľ×Ľ×ª": 1892, "Ġ×ĳ×ł×Ļ": 1893, "Ġ×¢×ŀ×ķ×§": 1894, "ĳ×ķ×ĳ": 1895, "Ġ×ª×Ķ×Ļ×Ķ": 1896, "Ġ×Ļ×Ĺ×": 1897, "Ġ×ĺ×Ļ×Ļ×ĺ": 1898, "Ġ×Ķ×Ĳ×ŀ×ª": 1899, "Ġ×Ĺ×ĳ×¨×Ļ×Ŀ": 1900, "Ġ×ĳ×Ļ×Ļ×ĳ×Ļ": 1901, "×¨": 1902, "ľ×¨": 1903, "Ġ×ł×ĵ×": 1904, "ŀ×ķ×¡": 1905, "ª×ķ×Ĺ": 1906, "Ġ×§×ķ×ł×Ķ": 1907, "and": 1908, "Ġsee": 1909, "Ġ×©×¨": 1910, "ĳ×¨×Ķ": 1911, "×Ĵ×": 1912, "×¨×Ĳ×©": 1913, "Ġ×ŀ×Ļ×§×¨×ķ×¤×ķ×Ł": 1914, "Ġ×ķ×ķ×Ĳ×ľ×§": 1915, "Ġ×Ķ×Ĵ×Ļ×¢": 1916, "Ġ×©×¤×": 1917, "ĸ×ŀ×ķ×Ł": 1918, "Ġ×Ĺ×ľ×": 1919, "Ġ×¡×Ĳ×": 1920, "ł×Ļ×ł×ķ": 1921, "Ġ×Ķ×ķ": 1922, "Ġ×ŀ×¤×¡×Ļ×§": 1923, "Ġ×ĳ×ĸ×ŀ×Ł": 1924, "Ġ×§×ĺ×": 1925, "Ġ×ŀ×ķ×ª×§": 1926, "ľ×Ĺ×Ł": 1927, "Ġ×§×Ļ×ĳ×": 1928, "×ĺ×": 1929, "Ġ×ŀ×ª×ķ×ļ": 1930, "ĵ×Ł": 1931, "Ġ×Ĺ×Ļ×Ļ×": 1932, "Ġ×Ĳ×¨×ĳ×¢": 1933, "ĳ×ķ×§×¨": 1934, "ĠTh": 1935, "Ġ×Ļ×ľ×ĵ×Ļ×Ŀ": 1936, "Ðµ": 1937, "×Ļ×¡": 1938, "Ġ×Ķ×¢×Ļ×¨": 1939, "Ġ×ĳ×Ŀ": 1940, "ĺ×£": 1941, "Ġ×Ĺ×ĳ×ľ": 1942, "ĠWe": 1943, "Ġ×Ĳ×ĵ": 1944, "Ġ×ľ×ª×ķ×ļ": 1945, "Ĺ×ĺ": 1946, "Ġ×Ľ×ŀ×": 1947, "Ġ×¨×¦×Ļ×ª×Ļ": 1948, "¡×Ļ×ª": 1949, "Ġ×Ķ×Ĳ×Ĺ×": 1950, "×Ĳ×ķ": 1951, "Ġ×ľ×¦×Ĳ×ª": 1952, "Ġ×Ľ×¤×¨×Ķ": 1953, "Ġ×¨×¢×": 1954, "ĠÙĨ": 1955, "00": 1956, "Ġ×¤×ľ×": 1957, "ÙĦØ§": 1958, "Ġ×ŀ×©×Ĺ×": 1959, "Ġ×Ĳ×ŀ×¨×ķ": 1960, "ap": 1961, "Ġ×ª×ĸ×ķ×": 1962, "ľ×Ĺ×Ŀ": 1963, "¢×Ł": 1964, "Ġ×ĳ×Ĺ×Ļ×Ļ×Ŀ": 1965, "ł×Ĳ": 1966, "Ĵ×ĳ": 1967, "Ġ×Ļ×¦×": 1968, "Ġ×Ĳ×ķ×ª×ł×ķ": 1969, "'-": 1970, "×ķ×ĳ×Ķ": 1971, "¢×ķ": 1972, "×ķ×¤": 1973, "Ġ×ĳ×¢×ķ×ľ×Ŀ": 1974, "Ġ×ŀ×Ļ×Ŀ": 1975, "ĳ×ľ×Ļ×": 1976, "¤×©×Ļ": 1977, "il": 1978, "Ġ×¤×¨×ķ×": 1979, "Ġ×¤×Ļ": 1980, "Ġ×ĵ×Ķ": 1981, "ĠÙĩ": 1982, "Ġ×©×ķ×ŀ×¨": 1983, "Ġ×ĳ×ŀ×©×": 1984, "em": 1985, "ep": 1986, "×ĺ": 1987, "×Ķ×Ŀ": 1988, "Ġ×Ķ×ŀ×§×ķ×Ŀ": 1989, "©×Ļ×ª": 1990, "×¤×Ķ": 1991, "¨×ł×ķ": 1992, "Ġ×ĳ×ŀ×ķ×": 1993, "Ġ×ł×§×": 1994, "Ġ×Ĺ×ľ×ķ×Ŀ": 1995, "×ķ×ĳ×Ļ": 1996, "¤×ł×Ļ×Ŀ": 1997, "Ġ×©×ķ×ķ×Ķ": 1998, "Ġ×¢×ķ×ł×Ķ": 1999, "ľ×Ļ×£": 2000, "Ġ×ŀ×©×Ĳ×Ļ×¨": 2001, "Ġ×©×ª×Ļ×Ļ×Ŀ": 2002, "×¡×Ļ": 2003, "Ġ×ľ×ĳ×ķ×Ĳ": 2004, "Ġ×Ķ×Ł": 2005, "Ĺ×ķ×ľ": 2006, "Ġla": 2007, "Ġ×ľ×ĳ×Ł": 2008, "ľ×Ľ×Ŀ": 2009, "Ĳ×ĺ": 2010, "Ġ×Ľ×©×Ķ": 2011, "¡×¡": 2012, "Ġ×¨×¥": 2013, "ŀ×¨×ķ×ª": 2014, "Ġ×¦×Ļ×": 2015, "ŀ×¢×ķ×ª": 2016, "Ġ×ª×Ĵ×Ļ×ĵ×Ļ": 2017, "Ġ×Ļ×©×¨×Ĳ×ľ": 2018, "×ŀ×Ļ×": 2019, "ĳ×¨×ª×Ļ": 2020, "Ġ×©×ł×ķ×": 2021, "Ġ×ķ×¨×": 2022, "Ġ×¤×Ĺ×ķ×ª": 2023, "Ġ×Ķ×¤×¡×": 2024, "Ġ×ľ×ľ×": 2025, "Ġ×©×ľ×ł×ķ": 2026, "Ġ×¢×ĸ×ķ×ĳ": 2027, "Ġ×ĳ×Ļ×¦": 2028, "Ġnow": 2029, "Ġ×ĳ×Ĵ×ľ×ľ": 2030, "st": 2031, "×ĳ×Ļ×": 2032, "Ġ×Ķ×¨×Ļ×": 2033, "Ġ×ķ×Ĳ×ª×Ķ": 2034, "Ġ×Ļ×ĵ×": 2035, "ł×Ĵ×Ļ×": 2036, "×Ĳ×§": 2037, "Ġ×Ķ×ŀ×Ļ×ľ×Ļ×Ŀ": 2038, "×Ľ×ľ": 2039, "Ġ×Ĳ×¨×ķ×": 2040, "Ġ×¢×£": 2041, "ĸ×¨×Ĺ": 2042, "Ġ×¨×Ĵ×": 2043, "Ġ×ĳ×Ļ×ł×ª×Ļ×Ļ×Ŀ": 2044, "×Ļ×©×Ļ": 2045, "ľ×ķ×ľ": 2046, "Ġ×ŀ×Ĳ×ŀ×Ļ×Ł": 2047, "Ġ×ķ×Ķ×ķ×Ĳ": 2048, "Ġfrom": 2049, "Ġ×¡×Ļ": 2050, "Ġ×©×§×ľ": 2051, "Ġ×Ļ×ĵ×Ļ×Ļ×Ŀ": 2052, "Ġ×ĵ×§×Ķ": 2053, "Ġ×ŀ×©×¤×": 2054, "©×ĳ×ķ×ª": 2055, "ore": 2056, "Ġ×ķ×©×ķ×ĳ": 2057, "Ġ×ł×ĸ×": 2058, "Ġ×Ĺ×¡×¨": 2059, "est": 2060, "ł×Ĺ×ł×ķ": 2061, "ÙĨÙĬ": 2062, "Ġ×ĸ×ķ×¨×§": 2063, "Ġ×Ľ×©×Ĳ×ª": 2064, "Ġ×©×ľ×ķ×©": 2065, "Ġ×©×ķ×ª×Ķ": 2066, "×ĵ×": 2067, "Ġ×Ķ×ľ×ķ": 2068, "Ġ×ĳ×ł×ķ×ª": 2069, "ĳ×Ļ×ľ": 2070, "Ġ×Ĵ×¨×": 2071, "Ġ×ŀ×ª×Ĳ×Ļ×Ŀ": 2072, "Ġ×©×Ķ×Ľ×ľ": 2073, "ľ×Ĺ×ŀ×Ķ": 2074, "Ġ×©×ł×Ļ×Ļ×Ķ": 2075, "ŀ×¨×Ļ×Ŀ": 2076, "Ľ×ª×Ļ": 2077, "Ġ×©×¨×§": 2078, "Ġ×ª×Ľ×": 2079, "×Ļ×Ķ×Ļ×Ķ": 2080, "Ġ×ľ×©×Ļ×¨": 2081, "Ġ×Ķ×Ľ×Ļ×": 2082, "Ø®": 2083, "Ġ×Ķ×¨×Ĳ×¤": 2084, "Ġ×Ķ×ŀ×Ĺ×": 2085, "¢×ª×Ļ×ĵ": 2086, "×Ŀ": 2087, "©×¢": 2088, "Ġ×ª×§×ķ×ķ×Ķ": 2089, "Ġ×¡×¤×¨": 2090, "ĳ×ľ×Ļ×Ŀ": 2091, "Ġas": 2092, "very": 2093, "Ġ×ŀ×¡×ª×Ľ×ľ": 2094, "Ġ×ĳ×ĺ×ķ×Ĺ": 2095, "Ġout": 2096, "ŀ×ĺ×": 2097, "Ġ×Ĳ×ŀ": 2098, "Ġ×ľ×Ľ×ķ×ľ×Ŀ": 2099, "¨×ĺ×": 2100, "Ġ×ŀ×Ĺ": 2101, "Ġ×©×ķ×¨×£": 2102, "Ĵ×ķ×¢": 2103, "Ġ×Ķ×ĸ×Ļ×Ł": 2104, "Ġ×ŀ×ĳ×Ļ×ł×Ļ×Ŀ": 2105, "Ĺ×Ļ×ĵ": 2106, "Ġ×Ķ×¢×Ļ×ł×Ļ×Ļ×Ŀ": 2107, "Ġ×ŀ×Ĵ": 2108, "Ġ×ª×§×ķ×": 2109, "Ġ×ŀ×Ķ×¨": 2110, "Ġcome": 2111, "Ġ×Ľ×Ķ×": 2112, "Ġ×Ķ×ķ×ľ×Ľ×Ļ×Ŀ": 2113, "Ġ×¢×ľ×Ļ×ķ": 2114, "Ĵ×ķ×ª": 2115, "×Ļ×Ĵ×Ķ": 2116, "Ġ×©×¨×ķ×": 2117, "Ġ×Ĳ×Ļ×Ļ×": 2118, "¦×Ŀ": 2119, "ĳ×ķ×§": 2120, "¨×Ļ×ļ": 2121, "×Ļ×ľ×ķ×": 2122, "Ġdown": 2123, "Ġ×¨×Ĳ×¤×¨×Ļ×Ŀ": 2124, "¨×Ĺ×Ļ×Ŀ": 2125, "Ĳ×Ļ×ª×Ļ": 2126, "ol": 2127, "Ġ×Ĺ×ķ×ľ×": 2128, "ĺ×ķ×¤": 2129, "Ġ×Ķ×§×¦×ĳ": 2130, "Ġ×Ķ×¢×ķ×": 2131, "Ġ×ľ×Ĳ×ķ×": 2132, "Ĺ×ķ×ĳ×ķ×ª": 2133, "ind": 2134, "Ġ×Ĳ×ķ×Ķ×ĳ×ª": 2135, "Ø¶": 2136, "ŀ×¨×ª": 2137, "Ġ×Ķ×ŀ×ķ×Ł": 2138, "Ġ×ł×ŀ×¦×Ĳ": 2139, "¡×ľ": 2140, "Ġ×ª×¤×¡×Ļ×§": 2141, "Ġ×ŀ×ķ×¦×Ļ×Ĳ": 2142, "Ĵ×Ļ×ĵ×Ļ": 2143, "¢×ķ×Ł": 2144, "Ġ×ĺ×ķ": 2145, "Ġ×Ľ×ķ×Ĺ": 2146, "×Ĳ×Ŀ": 2147, "Ġ×Ķ×Ĵ×¢×ª×Ļ": 2148, "Ġ×Ķ×Ļ×Ļ×ª": 2149, "ain": 2150, "¦×ķ×Ĳ": 2151, "¨×ł×": 2152, "ĸ×Ł": 2153, "Ġ×ľ×ŀ×ĺ×Ķ": 2154, "Ġya": 2155, "Ġ×ľ×Ľ×ª×ķ×ĳ": 2156, "ĵ×ľ×Ļ×§": 2157, "©×ļ": 2158, "Ġ×ŀ×ĸ": 2159, "ĵ×£": 2160, "Ġle": 2161, "ell": 2162, "×ĵ": 2163, "×Ĺ×ķ×": 2164, "Ġ×ŀ×Ĳ×Ķ": 2165, "Ġ×Ĳ×ķ×§×Ļ×Ļ": 2166, "Ġwhat": 2167, "×Ĳ×ª×Ķ": 2168, "Ø²": 2169, "ľ×ĳ×Ķ": 2170, "Ġ×ŀ×Ĳ×Ļ×": 2171, "Ġ×§×Ĺ": 2172, "Ġ×ľ×Ķ×Ĵ×Ļ×ĵ": 2173, "ł×Ļ×ª×Ļ": 2174, "Ġwant": 2175, "×Ĳ×Ļ×Ł": 2176, "Ġ×Ķ×Ļ×Ļ×ª×Ķ": 2177, "¦×ķ×£": 2178, "ľ×ĵ×Ļ×Ŀ": 2179, "©×ľ": 2180, "©×ĳ×ª": 2181, "Ġ×Ķ×ĵ×ĳ×¨": 2182, "Ġ×ŀ×Ł": 2183, "Ġ×§×¨×Ĳ": 2184, "Ġ×ŀ×ķ×§×": 2185, "Ġare": 2186, "ĸ×ķ×ĸ": 2187, "¡×ª×Ľ×ľ": 2188, "Ġ×Ĺ×©×ķ×ĳ": 2189, "Ġ×ŀ×Ķ×¤×": 2190, "Ġ×ŀ×¢×ľ": 2191, "Ġ×ª×ŀ×¦×Ĳ": 2192, "Ĳ×ĸ": 2193, "Ġ×ŀ×ĸ×ŀ×Ł": 2194, "Ġ×ĳ×¦": 2195, "Ġ×Ļ×ĳ×ķ×Ĳ": 2196, "ame": 2197, "ĺ×ľ": 2198, "×Ļ×Ļ×¡": 2199, "Ġ×ľ×©×ŀ×ķ×": 2200, "Ġ×Ĳ×ŀ×¨×Ķ": 2201, "ime": 2202, "Ð¸": 2203, "Ĵ×ķ×¨": 2204, "Ġ×©×ŀ×Ķ": 2205, "Ġ×¢×¨×": 2206, "Ġ×§×ľ×": 2207, "Ġ×¡×Ļ×ĳ×Ķ": 2208, "Ġ×ĳ×¨×Ĺ×ķ×ĳ": 2209, "Ġ×Ķ×Ĳ×ķ×¨": 2210, "Ġ×¡×ķ×ķ×Ļ×": 2211, "Ø£": 2212, "Ġ×ĳ×ļ": 2213, "Ġ×ĳ×ľ": 2214, "Ġ×ĳ×ľ×ķ×": 2215, "Ġ×Ĺ×ĵ×": 2216, "Ġ×Ĵ×ľ": 2217, "×Ļ×ľ×Ļ×": 2218, "ĠSo": 2219, "Ġ×Ķ×Ļ×ĵ×Ļ×Ļ×Ŀ": 2220, "¨×¢": 2221, "Ġ×ł×Ĳ×": 2222, "¡×ĺ×Ļ×Ļ×ľ": 2223, "Ġ*": 2224, "Ġ×ŀ×¨×ķ×": 2225, "Ġ×¢×ľ×Ļ×ļ": 2226, "ĠIt": 2227, "Ġthey": 2228, "×Ĳ×Ļ×Ļ": 2229, "Ĳ×©": 2230, "Ġ×ŀ×ķ×ĸ×¨": 2231, "Ġ×ľ×ŀ×¦×ķ×Ĳ": 2232, "ĺ×ķ×¡": 2233, "Ġ×ľ×¨×§×ķ×ĵ": 2234, "gh": 2235, "ª×ķ": 2236, "Ġ×ł×¦": 2237, "Ġ×ĳ×Ļ×ķ×Ŀ": 2238, "¤×ķ×ļ": 2239, "×Ľ×ŀ×Ķ": 2240, "Ø§Ùħ": 2241, "ĺ×ķ×ª": 2242, "Ġ×ŀ×ľ×ķ×": 2243, "Ġ×¢×©×Ł": 2244, "Ġ×ĳ×ķ×ľ": 2245, "Ġ×Ĳ×ł×ľ×Ĳ": 2246, "Ġ×ľ×¢×¦×ŀ×Ļ": 2247, "Ġ×ŀ×ŀ×©×Ļ×ļ": 2248, "Ġ×ŀ×Ĳ×ķ×ĵ": 2249, "ak": 2250, "Ľ×ĳ×Ļ×Ŀ": 2251, "ł×ĺ×Ļ": 2252, "Ĵ×©": 2253, "ĸ×¨×Ļ×Ŀ": 2254, "Ġ×©×ķ×ĳ×¨": 2255, "Ġ×§×ķ×ľ": 2256, "ĠÙĥÙĦ": 2257, "ĠĠĠĠĠĠĠĠ": 2258, "Ġ×ŀ×¨×Ļ×Ŀ": 2259, "Ġ×ĳ×Ľ×ķ×": 2260, "Ġ×Ľ×ª×": 2261, "Ġ×Ķ×¤×¨×": 2262, "Ġ×Ľ×Ķ": 2263, "ĳ×ľ×": 2264, "ĸ×Ĳ×ª": 2265, "our": 2266, "Ġ×ĳ×©×ĳ×Ļ×ľ×Ļ": 2267, "Ġ×Ľ×ŀ×¢×ĺ": 2268, "Ġ×ŀ×ľ×ļ": 2269, "Ġ×ĳ×ľ×Ļ×ľ×Ķ": 2270, "Ġ×©×Ļ×ķ×": 2271, "¢×ķ×¨×¨": 2272, "Ġ×¢×ĵ×Ļ×£": 2273, "Ġ×Ķ×©×ª×": 2274, "Ġ×ľ×Ľ×Ĳ×Ł": 2275, "Ġ×ľ×Ĺ×©×ķ×ĳ": 2276, "Ġ×ĳ×¨×ķ×¨": 2277, "um": 2278, "ŀ×¡": 2279, "Ġ×Ķ×¡×ķ×": 2280, "ł×ĵ×": 2281, "§×ķ×¡": 2282, "Ġ×Ĺ×ķ×ľ×Ŀ": 2283, "ag": 2284, "Ġ×ĳ×¢×Ļ×ł×Ļ×Ļ×Ŀ": 2285, "Ġ×©×Ĳ×ķ×": 2286, "ł×ł×ķ": 2287, "Ġ×ŀ×ķ×ĸ×Ļ×§×Ķ": 2288, "Ġ×ŀ×ŀ×ļ": 2289, "Ġ×Ĳ×ŀ×¡×Ļ×ĸ": 2290, "ĺ×ķ×Ļ×ķ×ª": 2291, "Ġ×Ļ×ľ×ĵ×Ķ": 2292, "Ġ×ŀ×Ĺ×¤×©×Ļ×Ŀ": 2293, "Ġ×Ļ×ĵ×¢×ª×Ļ": 2294, "Ġ3": 2295, "Ĳ×Ŀ": 2296, "Ġ×Ķ×Ĳ×Ļ×": 2297, "Ġ×Ļ×ŀ×Ļ×Ŀ": 2298, "Ġ×Ķ×ķ×¤×ļ": 2299, "Ġ×ľ×Ķ×©×ª×": 2300, "Ĳ×£": 2301, "ŀ×©×Ļ×ļ": 2302, "Ġ×ª×ľ×": 2303, "Ġ×ª×ĵ×¢": 2304, "¦×Ĳ×ª": 2305, "Ġ×Ľ×ķ×Ľ×ĳ": 2306, "Ġ×ĸ×ķ×ł×ķ×ª": 2307, "¦×ķ×¥": 2308, "use": 2309, "Ġ×ŀ×©×ķ×Ĵ×¢": 2310, "?),": 2311, "ľ×Ĵ×": 2312, "Ĺ×£": 2313, "Ġ×¡×¨×ĺ": 2314, "Ġ×ĺ×ŀ×": 2315, "Ġ×ª×©×Ĳ×ľ": 2316, "Ġ×ĳ×Ĺ×ĵ×¨": 2317, "Ġ×ŀ×ĵ×ķ×": 2318, "Ġ×ĳ×ľ×ĳ": 2319, "Ġ×©×§": 2320, "Ġ×¢×ľ×Ļ×ł×ķ": 2321, "Ġ×ŀ×ķ×ľ×Ļ": 2322, "Ġ×ŀ×ķ×Ľ×¨": 2323, "Ġwor": 2324, "Ġ×ĺ×ķ×ĳ×Ļ×Ŀ": 2325, "×Ĳ×Ļ×ļ": 2326, "Ġ×ķ×ķ×Ĳ×Ł": 2327, "ł×Ļ×Ļ×ł×Ļ×Ŀ": 2328, "Ġ×ĳ×Ĺ×ķ×¨×ķ×ª": 2329, "Ġv": 2330, "ŀ×§": 2331, "©×ł×Ļ×Ŀ": 2332, "Ġ×ľ×¢×ķ×": 2333, "Ġ×ŀ×ĳ×ķ×": 2334, "Ġ×ª×¡×": 2335, "ĳ×ķ×©": 2336, "Ġ×Ķ×Ĵ×ĳ": 2337, "Ġ×Ķ×ĳ×Ļ×ª": 2338, "×§×ķ×": 2339, "Ùĳ": 2340, "Ĳ×ł×Ķ": 2341, "Ġ×ľ×©×Ļ×Ŀ": 2342, "Ġ×©×ĳ×¢": 2343, "¨×ķ×©×": 2344, "Ġ×¨×Ĳ×Ļ×ª×Ļ": 2345, "Ġ×§×Ŀ": 2346, "×Ļ×§×Ļ": 2347, "Ġ×ĳ×Ļ×¥": 2348, "ĠØ®": 2349, "ĠØ´": 2350, "×Ĳ×ľ": 2351, "ľ×ĳ×ķ×Ŀ": 2352, "Ġ×ľ×ķ×Ĺ×": 2353, "ast": 2354, "Ġreal": 2355, "Ġ×ª×ĸ×ķ×ĸ×Ļ": 2356, "se": 2357, "Ġ×Ķ×©": 2358, "¨×Ł": 2359, "Ġ×ĳ×Ĺ×ķ×": 2360, "Ġ×¢×ª": 2361, "Ġ×Ķ×Ĳ×Ĺ×¨×ķ×Ł": 2362, "¦×Ļ×ª": 2363, "Ġ×¢×¦": 2364, "Ġ×ĵ×ķ×¨": 2365, "Ġ×ĸ×Ļ×": 2366, "Ġ×ŀ×¡×ª×ķ×ĳ×ĳ": 2367, "Ġ×ŀ×Ĳ×Ĺ×ķ×¨": 2368, "Ġ×ĸ×ķ×¨×Ŀ": 2369, "¢×Ļ×£": 2370, "Ĳ×§×Ķ": 2371, "Ġ×Ĳ×Ļ×¦": 2372, "Ġ×Ĺ×ŀ×©": 2373, "Ġ×ĵ×ľ×Ķ": 2374, "Ġ×Ķ×ª×§×": 2375, "Ġch": 2376, "Ġ×ŀ×¢×ł×Ļ×Ļ×Ł": 2377, "Ġ×ľ×Ķ×ª×¢×": 2378, "Ġ×Ķ×ĸ×ķ×Ļ": 2379, "Ġ×Ĳ×ļ": 2380, "Ġ×Ķ×¤×Ļ×": 2381, "Ġ×¡×ª×ķ×Ŀ": 2382, "hen": 2383, "©×Ļ×ŀ×Ķ": 2384, "Ġ×ŀ×Ĳ×ĸ": 2385, "Ġ×ľ×Ĳ×£": 2386, "Ġ×ª×§×©×Ļ×ĳ": 2387, "*,": 2388, "ip": 2389, "qu": 2390, "ry": 2391, "Ľ×Ļ×Ł": 2392, "Ġ×ŀ×ł×¡×Ļ×Ŀ": 2393, "Ġ×©×©": 2394, "Ġ×©×ĳ×ķ×¢": 2395, "Ġ×Ĳ×Ķ×": 2396, "Ġ×ľ×Ĳ×Ķ": 2397, "Ġ×Ķ×ĳ×ŀ×Ķ": 2398, "Ġbl": 2399, "Ġ×¡×Ļ×¤×ķ×¨": 2400, "ÙĩØ§": 2401, "Ġ×ŀ×ľ×ŀ×ĺ×Ķ": 2402, "Ġ×ĳ×ľ×Ĳ×Ĵ×Ł": 2403, "Ĵ×ł×ķ×Ł": 2404, "×ķ×¨×Ļ×¡": 2405, "Ġ×Ĳ×Ļ×ª×Ķ": 2406, "Ġ×ĺ×Ļ": 2407, "Ġlove": 2408, "Ġ×Ĳ×Ĵ×ķ": 2409, "Ġ×ŀ×§": 2410, "ĸ×¨×ª": 2411, "Ġ×¢×ķ×§×": 2412, "ĠÙĤ": 2413, "Ġback": 2414, "Ġ×Ķ×Ĺ×ľ×ķ×Ŀ": 2415, "Ø¨ÙĬ": 2416, "ĳ×ķ×¨×Ļ×Ŀ": 2417, "ide": 2418, "ĸ×ķ×ª": 2419, "Ġ×ľ×ŀ×Ļ": 2420, "Ġ×Ķ×ĳ×¨": 2421, "¨×ĺ×Ļ×Ŀ": 2422, "Ĵ×ĵ": 2423, "Ġ×Ĳ×ľ×Ļ×": 2424, "Ġ×§×ķ×ľ×ĺ": 2425, "Ġpe": 2426, "ĠSh": 2427, "ĠÙħØ§": 2428, "Ð°Ð": 2429, "oy": 2430, "ŀ×ł×ķ": 2431, "ĳ×ļ": 2432, "ĳ×ĵ×Ļ×Ŀ": 2433, "¨×©×Ļ×Ŀ": 2434, "Ġ×ĳ×§×ķ×": 2435, "Ġ×¤×ľ×ķ×Ĳ×ķ": 2436, "Ġ×§×ĳ×ľ": 2437, "Ġ(?": 2438, "Ġ×Ĵ×ĳ": 2439, "Ġ×ĵ×§×ķ×ª": 2440, "Ġ×Ķ×ŀ×¦×ĳ": 2441, "Ġ×ł×©×ĳ×¢": 2442, "Ĵ×Ļ×ĵ×ķ": 2443, "ľ×Ĳ×¡": 2444, "th": 2445, "×ľ×Ķ": 2446, "Ġ×Ķ×¤×Ķ": 2447, "Ġ×ŀ×¤×Ķ": 2448, "Ġ×©×§×ķ×": 2449, "¤×Ĳ": 2450, "Ġ×ŀ×Ļ×ĵ×Ļ": 2451, "¨×ķ×ĵ": 2452, "Ġ×ŀ×ª×ŀ×": 2453, "Ġ×ķ×Ĳ×ľ": 2454, "Ġ×ľ×¤×ł×Ļ×Ŀ": 2455, "Ġ×ľ×¢×©×Ł": 2456, "Ġ×ĳ×§×ĺ×¢": 2457, "Ġ×Ĺ×¨×ķ×ĸ×Ļ×Ŀ": 2458, "Ġ×ľ×©×ŀ×ķ×¢": 2459, "ŀ×ĳ×Ķ": 2460, "Ġ×ľ×¤×Ķ": 2461, "Ġ×ľ×¤×Ļ": 2462, "¨×ľ": 2463, "Ġ×ķ×¨×§": 2464, "Ġ×¤×ª×Ĺ": 2465, "Ġ×ł×ķ×ľ×": 2466, "ł×¡×ķ×ª": 2467, "Ġ×©×ŀ×¢×ª×Ļ": 2468, "Ġfe": 2469, "ers": 2470, "Ġ×ľ×Ķ×ª×Ĺ×": 2471, "×Ľ×ķ×": 2472, "ĠK": 2473, "Ġ×ĳ×ľ×Ļ×": 2474, "×Ļ×Ļ×ª×Ļ": 2475, "Ġ×§×¨×Ļ×": 2476, "Ġ×Ĺ×ľ×ķ×ŀ×ķ×ª": 2477, "ĠØ³": 2478, "ist": 2479, "Ġ×ª×§×¨×Ĳ": 2480, "ace": 2481, "Ġjust": 2482, "ive": 2483, "©×ĺ": 2484, "Ġ×Ķ×¨": 2485, "Ġ×Ļ×ķ×¨×§": 2486, "Ġ×©×ķ×Ĳ×ľ": 2487, "Ġ×ľ×ĳ×¨×ķ×Ĺ": 2488, "Ġ×ľ×ķ×ŀ×¨": 2489, "eah": 2490, "Ġ×¢×©×¨": 2491, "Ġ×¡×ľ×": 2492, "Ġ×ķ×Ķ×Ŀ": 2493, "Ġ×Ĺ×ĳ×¨×Ķ": 2494, "Ġ×¡×ĺ×Ļ×Ļ×ľ": 2495, "Ùī": 2496, "×Ļ×ľ×Ķ": 2497, "©×¨×Ļ×Ŀ": 2498, "Ġ×ŀ×ĸ×ľ": 2499, "Ġ×ĳ×ª×ķ×": 2500, "Ġ×ĳ×ĳ×ķ×§×¨": 2501, "Ĵ×ŀ×¨": 2502, "¦×ľ×": 2503, "..,": 2504, "Ġ×Ķ×ŀ×ľ×ļ": 2505, "Ġ×Ķ×ĳ×ł×ª×Ļ": 2506, "Ġ×ķ×ŀ×ª×": 2507, "Ġ×ĳ×¨×ŀ×ķ×ª": 2508, "Ġ×Ķ×¨×Ĳ×": 2509, "×Ķ×Ĳ": 2510, "Ġ×ĵ×¤×ķ×§": 2511, "Ġ×ľ×ł×¦×Ĺ": 2512, "Ġ×ľ×ŀ×ķ×": 2513, "Ġ×ľ×ŀ×¨×ķ×ª": 2514, "Ġ×¤×¨×Ļ×": 2515, "Ġ×ľ×Ķ×ĳ×Ļ×Ĳ": 2516, "Ġ×ŀ×ĳ×ĺ": 2517, "ie": 2518, "Ñģ": 2519, "Ġ×ľ×§×ķ×Ŀ": 2520, "Ġ×Ļ×¦×Ĳ": 2521, "Ġan": 2522, "Ġ×ľ×Ĺ×ĸ×ķ×¨": 2523, "Ġ×Ĵ×ķ×ŀ×¨": 2524, "Ġ×Ķ×Ķ×Ļ×Ļ×¤": 2525, "Ĳ×ķ×Ł": 2526, "Ĺ×Ļ×§": 2527, "Ġ×ĳ×ĳ×Ļ×": 2528, "Ġ×ŀ×ª×Ĺ×ª": 2529, "Ġ×Ķ×ķ×¤×": 2530, "Ø±Ø§": 2531, "Ġ×ŀ×Ľ×ķ×ª": 2532, "Ġ×Ĳ×ķ×ķ×Ļ×¨": 2533, "Ġ×Ĳ×ª×ŀ×ķ×ľ": 2534, "ĳ×Ĳ×": 2535, "Ġ×Ĳ×¡×": 2536, "Ġ×¢×ł×Ļ×Ļ×Ł": 2537, "Ġ×Ĺ×¨×Ĳ": 2538, "Ġ×ľ×ķ×§×": 2539, "Ġ×ŀ×¤×Ĺ×ĵ": 2540, "¢×ĵ×ķ×Ł": 2541, "Ġ×Ĳ×Ĺ×ķ×¨×Ķ": 2542, "Ġ×ķ×Ľ×©×": 2543, "ody": 2544, "Ġ×Ľ×ł×¨×Ĳ×Ķ": 2545, "ra": 2546, "Ĳ×¤": 2547, "Ġ×ĳ×¡×Ļ×": 2548, "Ġ×Ļ×ķ×¨×ĵ": 2549, "Ġ×©×ŀ×ª×": 2550, "Ġ×ŀ×¢×©×Ł": 2551, "Ġ×Ĺ×Ļ×Ļ": 2552, "Ø¯ÙĬ": 2553, "Ġ×Ķ×ŀ×ķ×ĸ×Ļ×§×Ķ": 2554, "ł×Ĵ×Ļ×ł×Ķ": 2555, "ł×Ļ×§": 2556, "Ġ×ľ×Ĵ": 2557, "Ġ×¢×ķ×¦×¨": 2558, "Ġ×Ĵ×Ĳ×ĵ": 2559, "Ġ×ľ×Ķ×Ĺ×": 2560, "Ġ×ĵ×¤×": 2561, "Ġ×ŀ×ª×ł×": 2562, "Ġ×ľ×©×ĳ×ķ×¨": 2563, "§×¨×ķ×ª": 2564, "Ġ×Ķ×¨×Ĳ×©×ķ×Ł": 2565, "!),": 2566, "×ľ×Ļ": 2567, "×¨×ķ×": 2568, "Ġ×ķ×ľ×Ķ×": 2569, "Ġ×¨×ķ×Ĺ": 2570, "Ġ×Ķ×ŀ×¡×": 2571, "Ġ×Ķ×Ĳ×©": 2572, "ĺ×ķ×ľ": 2573, "Ġ×ľ×ł×©×ķ×Ŀ": 2574, "Ġ×ľ×§": 2575, "Ġ×ľ×¢×ķ×ľ×Ŀ": 2576, "Ġ×ŀ×¨": 2577, "ine": 2578, "Ġ×ŀ×§×ĳ×ľ": 2579, "ĠBut": 2580, "Ġ×ĳ×ĵ×ķ×§": 2581, ":,": 2582, "Ġ×ľ×ĸ×ķ×ĸ": 2583, "¢×¡": 2584, "Ġ×©×©×ķ×": 2585, "Ġ×©×Ľ×ķ×ľ×Ŀ": 2586, "Ġ×Ľ×ľ×Ļ": 2587, "Ġ×ł×¨×Ĳ": 2588, "Ġtime": 2589, "Ġ×ŀ×ª×Ĵ×": 2590, "Ġpl": 2591, "ÑĢ": 2592, "¢×ł×ķ": 2593, "Ġ×Ķ×ĳ×ł×ķ×ª": 2594, "ĳ×ľ×Ļ×ŀ×Ļ×": 2595, "ause": 2596, "ŀ×Ķ×": 2597, "ł×ķ×ĳ": 2598, "Ĳ×ł×ķ": 2599, "ŀ×ĺ": 2600, "Ġ×Ĳ×Ĵ×": 2601, "Ġ×Ĳ×ĳ×Ļ×": 2602, "Ġ×Ķ×©×Ļ×": 2603, "ł×Ŀ": 2604, "¤×ª×Ĺ": 2605, "Ġ×¢×ĳ×ķ×ĵ×Ķ": 2606, "Ġ×Ķ×Ļ×Ļ×ĵ×Ķ": 2607, "other": 2608, "Ġ×ŀ×Ĳ×ķ×Ĺ×¨": 2609, "Ġ×Ľ×Ķ×Ł": 2610, "¡×Ļ×§×Ķ": 2611, "Ġ×©×ĳ": 2612, "¡×Ŀ": 2613, "Ġ×¤×ľ×ķ×": 2614, "Ġ×Ķ×Ĳ×ľ×Ķ": 2615, "Ġ×Ķ×Ĵ×Ĳ×ł×Ĵ": 2616, "¤×Ļ×¥": 2617, "¡×§×Ļ": 2618, "Ġ×Ĺ×ķ×©×ĳ×Ļ×Ŀ": 2619, "ĠÙģÙĬ": 2620, "Ġ..": 2621, "Ġ×Ķ×ł×ķ×": 2622, "Ġ×Ķ×¢×Ļ×": 2623, "Ľ×ĸ": 2624, "Ľ×ĺ×Ķ": 2625, "Ġ×Ľ×Ĳ×": 2626, "¨×ķ×©": 2627, "Ġ×©×ķ×Ĺ×ĺ": 2628, "ľ×ķ×Ķ×Ļ×Ŀ": 2629, "Ġ×ĳ×©×§×ĺ": 2630, "ĺ×¨×ķ×ª": 2631, "Ġ×Ļ×ķ×©×ĳ×Ļ×Ŀ": 2632, "Ġ×Ĳ×ª×Ľ×Ŀ": 2633, "ŀ×Ļ×Ļ×": 2634, "×Ļ×ĺ": 2635, "ĳ×Ļ×©": 2636, "Ġal": 2637, "ĠØ¬": 2638, "Ġ×ľ×¤×Ĺ×ķ×ª": 2639, "Ġgot": 2640, "Ġna": 2641, "Ġ×Ķ×ŀ×©×Ĺ×§": 2642, "Ġ×Ľ×ŀ×ķ×ł×Ļ": 2643, "×Ĳ×ª": 2644, "Ĺ×Ļ×ª": 2645, "Ġ×´": 2646, "Ĳ×Ĵ": 2647, "ľ×¤×Ļ×Ŀ": 2648, "Ġ×ľ×Ĺ×ķ×": 2649, "Ġ×Ķ×ľ": 2650, "Ľ×ĳ×ª": 2651, "¢×¨×ª": 2652, "¤×Ĺ×Ķ": 2653, "Ġ×ŀ×Ļ×ĵ": 2654, "Ġ×¤×¡×Ļ×": 2655, "Ġ×Ķ×ŀ×ĵ×Ļ×ł×Ķ": 2656, "ough": 2657, "Ġ×ĳ×ķ×Ĳ×ķ": 2658, "Ġ×ł×ķ×¨×Ļ×¡": 2659, "ok": 2660, "ľ×Ĺ×ª": 2661, "©×§": 2662, "Ġ×Ķ×ľ×Ĳ": 2663, "¨×ĸ": 2664, "¨×ĺ×Ļ×": 2665, "Ġ×ĳ×©": 2666, "Ġ×ĳ×Ĺ×ķ×¨×Ķ": 2667, "Ġ×©×ł×Ļ×Ķ": 2668, "Ġ×Ļ×ª×": 2669, "ĸ×ĳ": 2670, "Ġ×§×©": 2671, "Ġ×ĳ×Ĳ×Ķ": 2672, "×ķ×ķ×¨×¡": 2673, "Ġ×ł×ķ×¤×": 2674, "Ġ×Ķ×ŀ×Ļ×Ļ×§": 2675, "ĠOn": 2676, "nt": 2677, "×Ķ×ķ×¤": 2678, "ª×Ĺ×ª": 2679, "Ġ×ĳ×ĺ×ķ×ĳ": 2680, "¤×¢×ŀ×Ļ×Ŀ": 2681, "Ġ×ķ×¡×": 2682, "¦×Ĵ": 2683, "¦×¤×Ķ": 2684, "Ġ×¨×ł×ł×ķ": 2685, "Ġ×§×¨×ķ×": 2686, "×Ļ×¨×Ļ×Ŀ": 2687, "Ġ×ĳ×Ļ×Ĵ": 2688, "¤×ķ×¦×¥": 2689, "ÙĬØ±": 2690, "Ġ×ĳ×ŀ×Ĺ×": 2691, "Ġ×ŀ×Ľ×ķ×ķ×Ł": 2692, "×¢×ľ": 2693, "Ġ×Ķ×©×ķ×ľ×Ĺ×Ł": 2694, "ª×Ļ×§": 2695, "ĸ×ķ×Ł": 2696, "Ĺ×ķ×Ŀ": 2697, "Ġ×¢×ł×": 2698, "Ġ×ķ×ķ×Ļ×": 2699, "×Ļ×Ļ×ª": 2700, "Ġ×¢×ľ×Ķ": 2701, "×ķ×Ĳ×Ķ": 2702, "Ġ×Ĺ×ķ×ľ×Ķ": 2703, "Ġ×©×ķ×ľ×ĺ": 2704, "Ġ×ŀ×Ĺ×ĸ×Ļ×§": 2705, "Ġ×ł×©×ĳ×¨": 2706, "¤×Ļ×ł×Ķ": 2707, "Ġ×Ķ×¦×ľ": 2708, "Ġ×Ĳ×Ĺ×ķ×ĸ": 2709, "Ġ×Ļ×Ľ×ķ×ľ×Ķ": 2710, "Ľ×ķ×ķ×": 2711, "ľ×Ļ×§": 2712, "Ġ×Ķ×¤": 2713, "Ġ×ĳ×¢×Ļ×": 2714, "Ġ×©×§×ĺ": 2715, "§×¨×Ļ×Ŀ": 2716, "Ġ×§×¨×Ĺ": 2717, "Ġ×ĳ×Ĳ×ł×ķ": 2718, "Ġ×ľ×¢×¦×ķ×¨": 2719, "Ġnot": 2720, "Ġ×©×Ķ×Ļ×Ķ": 2721, "ĠØ¨Ø§ÙĦ": 2722, "¨×Ĵ×©": 2723, "ct": 2724, "×ª×Ļ": 2725, "ŀ×¤×": 2726, "ŀ×ĵ×Ļ×Ŀ": 2727, "©×¨×Ĳ×": 2728, "Ġ×ľ×§×ķ×": 2729, "Ġ×Ķ×ĳ×Ļ×Ĳ": 2730, "Ġ×Ķ×§×¨×ķ": 2731, "ł×¦": 2732, "Ġ×Ļ×©×Ł": 2733, "ĺ×¨×Ļ×Ŀ": 2734, "Ġ×¦×ĵ": 2735, "Ġ×©×ŀ×©×": 2736, "×Ĳ×ķ×ķ": 2737, "ation": 2738, "Ľ×ķ×Ļ": 2739, "Ĳ×ĵ×Ŀ": 2740, "Ġ×Ļ×ķ×¨×Ķ": 2741, "Ġ×ķ×Ĺ×ķ×": 2742, "Ġ×¤×¢×": 2743, "Ġ×ŀ×¢×ĺ": 2744, "Ð¾Ð": 2745, "ick": 2746, "Øº": 2747, "×Ķ×Ļ×Ļ": 2748, "¨×Ĵ×¢": 2749, "¤×£": 2750, "Ġ×ķ×©×ķ×": 2751, "Ġ×Ļ×§×¨×Ķ": 2752, "ĺ×Ĺ": 2753, "¡×Ļ×ŀ×ķ×Ŀ": 2754, "Ġ×ĳ×Ĳ×ķ×ª": 2755, "Ġ×Ķ×¨×Ĵ×¢": 2756, "urn": 2757, "Ġ×ª×Ĺ×ª": 2758, "¦×¨×Ļ×Ŀ": 2759, "Ġ×Ĺ×ª×ķ×": 2760, "Ġ×¡×Ĵ×ķ×ľ": 2761, "Ġ×ĳ×Ĳ×ŀ×": 2762, "Ġ×Ķ×Ĳ×¨×": 2763, "Ġ×Ķ×¤×ł×Ļ×Ŀ": 2764, "Ġhave": 2765, "Ġ×Ĳ×ľ×Ļ×Ļ×ļ": 2766, "¦×¨×ķ×ª": 2767, "Ġ×ķ×¢×Ľ×©×Ļ×ķ": 2768, "¨×ķ×©×ľ×Ļ×Ŀ": 2769, "Ġ×Ķ×Ľ×ķ×ľ": 2770, "Ġ×ŀ×¦": 2771, "¤×¥": 2772, "¨×Ļ×Ĺ": 2773, "Ġ×Ľ×ķ×ľ×Ķ": 2774, "ĠØ±": 2775, "Ġsay": 2776, "ound": 2777, "Ġ×ľ×©×ĳ×ª": 2778, "Ġho": 2779, "Ġone": 2780, "Ġ×Ĺ×©×ĳ×ª×Ļ": 2781, "Ġ×Ľ×Ļ×ª×Ķ": 2782, "Ġ×ĳ×ª×ķ×¨": 2783, "×´,": 2784, "Ġ×¢×©×¨×Ļ×Ŀ": 2785, "×Ľ×Ļ": 2786, "Ġ6": 2787, "×ķ×ł×Ļ×Ŀ": 2788, "×Ļ×ĳ×": 2789, "Ĺ×ĵ×Ļ×Ŀ": 2790, "Ġ×ľ×Ļ×ĵ": 2791, "Ġ×Ĵ×ł×": 2792, "Ġ×ľ×Ķ×ĳ×Ļ×Ł": 2793, "Ø§Ø¨": 2794, "Ġcl": 2795, "ess": 2796, "ock": 2797, "ĳ×ķ×Ŀ": 2798, "ľ×ĵ×Ķ": 2799, "ª×¨×ª": 2800, "Ġ×ŀ×©": 2801, "Ġ×ŀ×ŀ×ķ×": 2802, "ł×Ĳ×Ļ×Ŀ": 2803, "Ġ×ł×Ľ×": 2804, "Ġ×Ĳ×Ļ×©×Ķ": 2805, "Ġ×ĳ×Ļ×ĺ×Ļ×Ŀ": 2806, "Ġ×ŀ×Ķ×©×": 2807, "Ġ×ĺ×¢×Ŀ": 2808, "Ġ×Ķ×ª×Ĺ×ª": 2809, "Ġ×§×Ļ×ĳ×ľ×ª×Ļ": 2810, "ty": 2811, "×ķ×ķ×ª": 2812, "Ġ×ŀ×ł×Ļ×": 2813, "Ġ×ª×¨×Ĳ×Ļ": 2814, "Ġ×Ļ×Ĺ×ĵ": 2815, "Ġ×Ĳ×Ļ×ª×Ŀ": 2816, "ł×ķ×¡": 2817, "¨×Ĳ×¡": 2818, "Ġ×ĸ×Ļ": 2819, "ª×Ļ×Ľ×ķ×Ł": 2820, "ĠNo": 2821, "¤×Ļ×ķ×ª": 2822, "ĺ×ķ×Ł": 2823, "¨×ĳ×ĳ": 2824, "Ġ×©×ĺ×ķ×Ļ×ķ×ª": 2825, "¨×Ļ×¥": 2826, "Ø§Øª": 2827, "Ġ×Ĺ×ķ×¤×©×Ļ": 2828, "Ġpr": 2829, "Ġ×Ĺ×Ļ×ķ×ļ": 2830, "Ġ×ª×Ļ×§×Ĺ": 2831, "×Ľ×¡×£": 2832, "Ġ×¨×Ļ×§": 2833, "Ġ×¦×ķ×¢×§": 2834, "ub": 2835, "Ġ5": 2836, "©×Ĳ": 2837, "¡×Ĳ": 2838, "¦×ł×Ķ": 2839, "ĳ×Ļ×ĳ×Ļ": 2840, "Ġ×Ĳ×Ļ×ª×ķ": 2841, "ŀ×Ļ×ª": 2842, "Ġ×Ķ×©×ŀ×©": 2843, "Ĵ×ķ×£": 2844, "Ġ×Ĳ×ŀ×¨×ª": 2845, "Ġ×ĳ×¡×¨×ĺ": 2846, "Ġ×ł×Ĵ×ĵ": 2847, "Ġ×ª×¨×Ļ×ŀ×ķ": 2848, "ľ×ľ×Ķ": 2849, "Ġ×ľ×ł×¡×ķ×ª": 2850, "Ġ×Ķ×ª×ķ×": 2851, "Ġ×©×¦×": 2852, "Ġ×ķ×Ľ×ķ×": 2853, "Ġ×ķ×ŀ×Ļ": 2854, "Ġ×ª×ª×Ł": 2855, "Ġ×©×Ļ×Ķ×Ļ×Ķ": 2856, "Ġ×ł×Ľ×ł×": 2857, "Ġ×Ľ×ķ×Ĳ×ĳ": 2858, "ŀ×ķ×ĺ×Ķ": 2859, "Ġ×ķ×ķ×Ĳ×": 2860, "Ġ×ĳ×§×ľ×ķ×ª": 2861, "ĠWh": 2862, "Ĳ×Ķ×": 2863, "Ġ×Ĳ×ľ×Ķ": 2864, "Ġ×Ķ×Ĵ×Ļ×": 2865, "Ġ×©×ĳ×ķ": 2866, "Ĺ×Ł": 2867, "Ġ×ľ×Ļ×Ļ×§": 2868, "×Ļ×ĵ×Ļ×Ŀ": 2869, "ľ×Ļ×Ĺ×Ķ": 2870, "Ġ×¦×¨×Ļ×Ľ×Ķ": 2871, "Ġ×§×Ĳ×©": 2872, "Ġ×Ķ×ĵ×Ŀ": 2873, "Ġ×Ķ×ľ×Ľ×": 2874, "ĵ×ł×ķ": 2875, "Ġ×ľ×Ĳ×Ļ×": 2876, "ľ×Ļ×ķ×Ŀ": 2877, "ĠØ¯": 2878, "Ġ×Ķ×¤×ľ×ķ×Ĳ×ķ": 2879, "Ġ×ŀ×§×©×Ļ×ĳ": 2880, "Ġ×ĳ×Ĳ×ķ×ľ×¤×Ł": 2881, "¤×Ļ×ª": 2882, "ª×ķ×ª": 2883, "ĳ×Ļ×Ļ×": 2884, "Ġ×ľ×§×¨×ķ×ª": 2885, "Ġ×Ķ×¨×ķ×": 2886, "ł×ĺ×Ļ×": 2887, "¤×Ĳ×§": 2888, "Ġ×¤×¦×": 2889, "Ġ×Ĺ×¨×": 2890, "¡×Ļ×ĳ×ª": 2891, "ĠØ·": 2892, "Ġ×Ķ×¤×Ĳ×§×Ļ×ł×Ĵ": 2893, "Ġ×¤×ķ×ľ": 2894, "Ġ×ķ×ŀ×©×": 2895, "Ġ×ª×ķ×ļ": 2896, "Ġ×Ķ×ĳ×Ļ×ª×Ķ": 2897, "×ľ×ŀ×Ķ": 2898, "Ġ×ķ×¢×ľ": 2899, "Ġ×©×ķ×ŀ×¢×Ļ×Ŀ": 2900, "Ġ×Ĳ×¡×ķ×¨": 2901, "fe": 2902, "×ĸ": 2903, "×ĵ×Ļ": 2904, "×ĳ×ķ×Ĳ": 2905, "Ġ×ĳ×©×ķ×": 2906, "ł×Ļ×Ļ×Ķ": 2907, "Ġ×ķ×ŀ×ķ×": 2908, "¨×ķ×ł×ķ×ª": 2909, "Ġ×ł×¢×Ļ×Ŀ": 2910, "Ġ×ĸ×Ķ×ĳ": 2911, "Ġ×¢×ķ×ľ×Ļ×Ŀ": 2912, "Ġ×ł×ķ×¡×¢": 2913, "Ġ×ŀ×Ļ×ł×Ļ": 2914, "Ġ×Ļ×Ķ×ķ×": 2915, "Ġ×ľ×ª×¤×ķ×¡": 2916, "Ġ×¡×Ļ×Ļ×": 2917, "Ġ×Ķ×ŀ×ķ×Ĺ": 2918, "Ľ×ķ×ķ×Ł": 2919, "Ġ×Ķ×ĵ×Ļ×ĳ×ķ×¨": 2920, "Ġ×ŀ×ĸ×Ļ×ĸ": 2921, "Ġ×ł×Ļ×Ļ×": 2922, "¨×Ľ×Ļ": 2923, "Ġ×ŀ×Ľ×Ķ": 2924, "Ġ×©×ľ×Ŀ": 2925, "ĸ×¨×Ķ": 2926, "Ġ×©×ľ×Ļ×": 2927, "Ġ×Ĵ×ĵ×ķ×": 2928, "ŀ×ķ×ł×Ļ×Ŀ": 2929, "Ġ×ĳ×Ĳ×ł×Ĵ": 2930, "Ġ×ĺ×¡": 2931, "Ġ×©×ŀ×Ĺ×": 2932, "Ġ×ĳ×©×ĳ×Ļ×ľ×ļ": 2933, "ľ×Ĺ×¥": 2934, "ĠÙħØ´": 2935, "Ľ×ł×Ļ×ª": 2936, "¨×¡×Ļ×Ŀ": 2937, "Ġ×ŀ×¡×Ļ×ĳ×Ķ": 2938, "Ġ×¢×©×Ķ": 2939, "¦×ĳ×¢": 2940, "Ġ×ª×ķ×¨×Ļ×ĵ": 2941, "Ġ×Ĵ×ĵ×": 2942, "Ġ×¡×¤×§": 2943, "Ġ×ŀ×ª×Ĳ×": 2944, "anna": 2945, "Ġ×ľ×Ķ×ª×§×": 2946, "ĵ×ķ×Ŀ": 2947, "Ġ×©×ª×Ļ×": 2948, "Ĵ×Ĵ": 2949, "Ĵ×¢×ª": 2950, "Ġ×¤×ľ×ĵ": 2951, "Ġ×ĳ×ķ×Ļ": 2952, "¤×ķ×¥": 2953, "Ġ×ľ×ŀ×©×": 2954, "Ġ×ł×©×ŀ×Ķ": 2955, "Ġ×©×Ķ×©×": 2956, "ĺ×Ļ×Ĺ": 2957, "Ġ×ľ×§×¨×ķ×": 2958, "Ġ×ľ×§×ĳ×ľ": 2959, "Ġ×ŀ×Ľ×ķ×¨": 2960, "Ġ×ŀ×¦×Ĺ×Ļ×§": 2961, "Ġ×ŀ×Ľ×ł×Ļ×¡": 2962, "×©×ķ×": 2963, "Ġ×ĳ×ŀ×Ķ": 2964, "Ĺ×ł×Ķ": 2965, "¤×¨×ª": 2966, "Ġ×Ľ×Ĳ×ľ×Ķ": 2967, "ĳ×¨×Ļ×ª": 2968, "Ġ×§×¤×Ķ": 2969, "Ġ×§×ľ×ķ×ĺ": 2970, "×Ļ×§×ķ": 2971, "Ġ×ĳ×ķ×Ľ×Ķ": 2972, "Ġ×ŀ×ª×¨×": 2973, "Ġ×Ķ×ª×§×ķ×ķ×Ķ": 2974, "Ġ×Ķ×Ĺ×ĳ×¨×Ļ×Ŀ": 2975, "Ġ×Ķ×Ĵ×ĵ×ķ×ľ": 2976, "Ġ×Ĺ×ĸ×¨×Ķ": 2977, "ĠOh": 2978, "are": 2979, "×ª": 2980, "¢×§": 2981, "¢×©×Ķ": 2982, "Ġ×ŀ×§×ķ×ķ×Ķ": 2983, "Ġ×©×Ĺ×ķ×": 2984, "Ġ×Ľ×ĳ×ĵ": 2985, "ĵ×¡": 2986, "ould": 2987, "Ġ×ĳ×©×ŀ×Ļ×Ļ×Ŀ": 2988, "ÙĨØª": 2989, "×ķ×ķ×Ļ×Ŀ": 2990, "ľ×Ĳ×§": 2991, "ate": 2992, "§×¡×Ļ×Ŀ": 2993, "Ġinna": 2994, "Ġ×Ĳ×ľ×ľ×Ķ": 2995, "ŀ×ĺ×Ŀ": 2996, "Ġ×¡×ķ×ķ×Ļ×¡×Ķ": 2997, "áĪ": 2998, "Ġ×ľ×ŀ×Ļ×": 2999, "Ġ×Ķ×ĵ×ķ×": 3000, "Ĺ×Ŀ": 3001, "Ġ×Ľ×ľ×ĳ×Ķ": 3002, "Ġ×ķ×ķ×Ĳ×ķ": 3003, "Ġ×ķ×¢×ķ×": 3004, "ľ×Ļ×ķ×ª": 3005, "×ķ×¨×Ļ×Ķ": 3006, "Ġmi": 3007, "Ġ×ł×ķ×¨×ŀ×": 3008, "Ġbut": 3009, "ang": 3010, "Ġ×ľ×§×ł×ķ×ª": 3011, "Ġ×Ķ×Ķ×Ļ×¤": 3012, "Ġ×ª×¨×§×": 3013, "Ġwho": 3014, "Ġ×ĳ×¢×Ļ×Ķ": 3015, "hing": 3016, "Ġke": 3017, "Ġ×Ĳ×¨": 3018, "Ġ×Ķ×¡": 3019, "Ġ×Ķ×ĺ×ķ×ĳ": 3020, "¨×ŀ×Ķ": 3021, "§×ĵ": 3022, "Ġ×ŀ×ķ×ķ×ª×¨": 3023, "Ġ×ª×¤×ķ×¡": 3024, "Ġ×§×©×Ļ×Ŀ": 3025, "Ġ×Ĵ×¨": 3026, "Ġ×ľ×Ķ×¡×": 3027, "Ġat": 3028, "ľ×Ļ×ĺ×Ļ×Ŀ": 3029, "Ġ×ª×Ļ×ª×Ł": 3030, "Ġ×Ĳ×¨×ŀ×ł×Ļ": 3031, "Ġhear": 3032, "Ġ×¢×©×Ļ×ª": 3033, "Ġ×§×ķ×¤×¥": 3034, "Ġ×ķ×Ĳ×Ļ×ļ": 3035, "ĳ×ľ×Ļ×ŀ×Ļ×ł×ľ": 3036, "ĸ×Ļ×Ķ": 3037, "ĳ×ľ×Ķ": 3038, "Ġ×Ĳ×ĵ×ŀ×Ķ": 3039, "Ġ×ľ×Ĺ×Ļ×Ļ×Ŀ": 3040, "Ġ×Ķ×ĵ": 3041, "Ġ×ŀ×ł×Ķ": 3042, "Ġ×ĳ×§": 3043, "Ġ×Ļ×§×¨": 3044, "Ġ×©×Ļ×ŀ×ķ": 3045, "Ġbr": 3046, "Ġfl": 3047, "Ġ×Ĺ×ķ×Ŀ": 3048, "Ġ×ĵ×ķ×¤×": 3049, "Ġ×Ķ×Ļ×ľ×ĵ": 3050, "Ġ×ľ×Ĳ×Ķ×ķ×ĳ": 3051, "Ġ×ĳ×ĵ": 3052, "×ķ×ª×Ļ": 3053, "ª×Ļ×Ļ×": 3054, "×Ļ×¨×Ļ×": 3055, "Ġsp": 3056, "Ġ×ł×ķ×¨×Ĳ": 3057, "Ġ×Ķ×ĳ×Ł": 3058, "Ġ×ľ×©×Ĺ×§": 3059, "Ġ×ķ×Ķ×©×": 3060, "Ġ×ľ×§×Ĺ×ª×Ļ": 3061, "Ġ×¢×¦×ŀ×ļ": 3062, "ĸ×Ļ×ĸ": 3063, "Ġ×Ķ×Ĺ×ķ×£": 3064, "Ġshit": 3065, "ff": 3066, "ĳ×ł×ķ": 3067, "Ġ×ĳ×¢×Ļ×¨": 3068, "ł×ĵ×¨": 3069, "¤×ĺ": 3070, "¤×ł×Ļ": 3071, "Ġ×Ĺ×©×ķ×": 3072, "×Ļ×ĵ×ķ×ª": 3073, "Ġ×Ļ×ķ×Ĳ×ķ": 3074, "¡×Ļ×ª×Ļ": 3075, "ĠØµ": 3076, "Ġ×ł×ķ×ľ×ĵ": 3077, "Ġ×ĺ×¢×ķ×ª": 3078, "Ġ×¡×ķ×Ĵ×¨": 3079, "Ġ×ł×ķ×ľ×ĵ×ª×Ļ": 3080, "Ġ×Ĳ×ł×ķ×": 3081, "Ġ×Ķ×¢×ª×Ļ×ĵ": 3082, "Ġ×ŀ×ŀ×Ķ": 3083, "Ġ×ĳ×ĸ×Ķ": 3084, "Ġ×ķ×Ľ×ķ×ľ×Ŀ": 3085, "Ġ×ľ×Ķ×¨×Ĵ×Ļ×©": 3086, "Ġ×Ķ×ŀ×¢×": 3087, "Ġ×ĳ×ŀ×¨×": 3088, "©×ĳ×Ļ×Ŀ": 3089, "Ġ×Ĳ×ł×ĵ": 3090, "Ġ×ŀ×¦×Ĳ×ª×Ļ": 3091, "Ġ×ª×¢×©×Ķ": 3092, "ª×Ĺ×¨×Ļ×Ŀ": 3093, "Ġstop": 3094, "Ġ×ľ×ĵ×¢×ª": 3095, "Ġ×¨×¢×ĳ": 3096, "iz": 3097, "×ª×Ł": 3098, "ĳ×ł×Ķ": 3099, "Ġ×Ķ×ŀ×Ļ×Ŀ": 3100, "Ġ×ŀ×Ĳ×ł×Ļ": 3101, "Ġ×©×ĳ×ª": 3102, "Ġ×¢×¨×ĳ": 3103, "Ġ×ķ×Ĳ": 3104, "Ġ×ķ×ł×ķ×": 3105, "Ġ×ª×ĳ×Ļ×": 3106, "Ġ×Ļ×ŀ×Ļ×Ł": 3107, "Ġ×©×Ļ×Ļ×": 3108, "ĸ×ł×Ļ×Ļ×Ŀ": 3109, "Ġ×¨×ĳ×¢": 3110, "Ġ×Ķ×ŀ×Ĳ×": 3111, "Ġ×ĳ×ķ×ľ×": 3112, "Ġ×ĳ×ķ×ł×Ķ": 3113, "Ġ×Ķ×©×ŀ×Ļ×Ļ×Ŀ": 3114, "Ġ×ĳ×¢×¦×Ŀ": 3115, "ĠÙħØ¹": 3116, "Ġ×Ĳ×Ĺ×Ļ×Ŀ": 3117, "Ġ×Ĺ×©×ĳ×ķ×Ł": 3118, "Ġ×ĺ×ŀ×ĳ×ľ": 3119, "¨×ķ×ļ": 3120, "Ġ×ł×ŀ×ķ×ļ": 3121, "Ġ×§×ĺ×¢": 3122, "ĳ×ľ×ķ×": 3123, "Ġdr": 3124, "Ġ×ķ×Ķ×ŀ×": 3125, "Ġ×ĸ×ķ×¨×": 3126, "alk": 3127, "ent": 3128, "ĵ×§×ķ×¨": 3129, "Ġ×ŀ×ľ×ŀ×¢×ľ×Ķ": 3130, "×¤": 3131, "×¦": 3132, "×©×Ļ×": 3133, "Ġ4": 3134, "©×¨×ķ×Ł": 3135, "Ľ×¨×ķ×Ł": 3136, "Ġ×ĳ×©×Ļ×": 3137, "Ġ×©×¢×ķ×ª": 3138, "Ĺ×¨×¨": 3139, "Ġ×ŀ×Ļ×Ļ×§": 3140, "Ġ×Ļ×Ĵ×Ļ×¢": 3141, "¨×ķ×¤×Ķ": 3142, "ª×Ļ×Ļ×Ŀ": 3143, "ĺ×¡": 3144, "Ġ×¤×ĸ×ŀ×ķ×Ł": 3145, "§×Ļ×¥": 3146, "Ġ×ľ×©×Ŀ": 3147, "Ġ×ľ×Ĺ×Ľ×ķ×ª": 3148, "Ġpon": 3149, "ľ×ĺ×ª": 3150, "Ġ×ĳ×ľ×Ļ×ľ×ķ×ª": 3151, "Ġ×¢×ª×Ļ×ĵ": 3152, "×Ļ×ĳ×Ĳ×Ł": 3153, "Ġqu": 3154, "Ġ×ŀ×ľ×Ĺ×": 3155, "Ĵ×¨×Ļ×Ŀ": 3156, "Ġ×¢×ľ×Ļ×": 3157, "Ġ×¡×¢": 3158, "Ġ×¡×§×": 3159, "Ġag": 3160, "Ġ×©×ķ×ł×Ĳ": 3161, "Ġ×ķ×Ķ×Ľ×ľ": 3162, "Ġ×¡×ķ×Ĺ×": 3163, "Ġ×ĸ×ķ×ĸ": 3164, "×ŀ×¡×Ļ×ĳ×Ķ": 3165, "Ġhim": 3166, "§×ĺ×ķ×¨": 3167, "ama": 3168, "Ġ×ľ×ĵ×¤×ķ×§": 3169, "Ġ×ŀ×ª×ķ×§": 3170, "Ġ×¢×©×¨×Ķ": 3171, "Ġ×ŀ×¨×Ļ×Ĺ": 3172, "Ġ×ł×ķ×ª×ł×Ļ×Ŀ": 3173, "Ĳ×ľ×Ļ×Ŀ": 3174, "ŀ×Ĺ×Ķ": 3175, "Ġ×ŀ×Ĳ": 3176, "Ġ×©×ŀ×ķ×": 3177, "Ġ×Ĳ×ķ×¨×Ļ": 3178, "Ĵ×ª": 3179, "Ġ×ª×ł×": 3180, "ĳ×Ļ×§": 3181, "¨×ķ×ĸ×Ļ×Ŀ": 3182, "Ġ×Ĳ×Ļ×ĺ": 3183, "×Ļ×Ļ×£": 3184, "¨×Ļ×ĸ×Ķ": 3185, "Ġshe": 3186, "Ġ×ľ×ŀ×ĵ×ª×Ļ": 3187, "Ġcall": 3188, "Ķ×¨": 3189, "©×ķ×ĳ×Ķ": 3190, "Ġ×ŀ×Ĳ×Ļ×¤×Ķ": 3191, "-,": 3192, "¡×ķ×ª": 3193, "ĠU": 3194, "Ġ×Ķ×ł×Ļ": 3195, "Ĺ×§×Ļ×Ŀ": 3196, "Ġ×Ľ×ľ×ĳ": 3197, "Ġ×ķ×ĳ×Ļ×": 3198, "ĺ×Ĺ×ķ×Ł": 3199, "Ġ×§×¦×ĳ": 3200, "¨×Ļ×ª": 3201, "ĺ×ķ×£": 3202, "Ġ×Ĳ×ŀ×¡×Ļ": 3203, "Ġ×ŀ×ĳ×§×©": 3204, "Ġ×ł×Ĺ×©": 3205, "Ġ×ŀ×©×Ĺ×§×Ļ×Ŀ": 3206, "ud": 3207, "Ġ×ľ×¨×ķ×¥": 3208, "Ġ×Ķ×ĺ×Ļ×": 3209, "ª×£": 3210, "×Ķ×Ľ×ľ": 3211, "Ġ×Ļ×Ĳ×": 3212, "Ġ×ł×©×Ļ×Ŀ": 3213, "Ġ×ł×§×Ļ": 3214, "ł×Ļ×ĳ": 3215, "Ġ×ŀ×Ķ×Ĺ×": 3216, "Ġ×ľ×Ķ×Ļ×ĺ": 3217, "Ġ×Ķ×ľ×ķ×ķ×Ĳ×Ļ": 3218, "Ġkeep": 3219, "iv": 3220, "×ł": 3221, "Ġ×©×Ĵ×": 3222, "Ġ×©×ŀ×Ļ×": 3223, "Ġ×ŀ×Ļ×Ļ": 3224, "¦×£": 3225, "ĸ×ĳ×": 3226, "Ġ×¤×ł×": 3227, "Ġ×Ĳ×ķ×ª×Ł": 3228, "Ġbet": 3229, "Ġfuck": 3230, "Ġ×¡×Ļ×Ľ×ķ×Ļ": 3231, "Ġ×Ķ×Ļ×Ļ×ł×ķ": 3232, "Ġoh": 3233, "Ġevery": 3234, "Ġ×ķ×Ľ×ŀ×Ķ": 3235, "Ġ×§×ľ×Ĳ×ł×Ĵ": 3236, "¨×ĺ×Ĵ×Ķ": 3237, "Ø°": 3238, "ŀ×Ļ×ľ×Ļ×Ŀ": 3239, "ľ×ŀ×Ķ": 3240, "Ġ×ĳ×¡": 3241, "¦×Ĳ×ª×Ļ": 3242, "Ġ×¡×¤×": 3243, "ł×¡×Ļ": 3244, "Ġ×ŀ×ķ×©×ľ×Ŀ": 3245, "Ġ×ľ×ĸ×¨×ķ×Ŀ": 3246, "Ġ×Ļ×Ľ×ķ×ľ×Ļ×Ŀ": 3247, "×ł×ķ×": 3248, "×ķ×ł×Ļ": 3249, "¨×ĳ×": 3250, "Ġ×ŀ×¡": 3251, "Ġ×Ľ×ĵ×ķ×¨": 3252, "Ġ×Ĳ×Ļ×ª×ł×ķ": 3253, "Ġ×ľ×Ķ×ŀ×©×Ļ×ļ": 3254, "ł×ķ×¢": 3255, "Ġway": 3256, "Ġ×¤×ķ×Ĵ×¢": 3257, "Ġ×ĵ×ķ×ĵ": 3258, "Ø±ÙĬ": 3259, "ÙĪØ§": 3260, "Ġ×ŀ×¦×ĺ×": 3261, "ass": 3262, "×ķ×¨×Ļ×ĵ×Ļ×Ŀ": 3263, "Ġ×ł×¤×ª×Ĺ": 3264, "Ġ×Ķ×Ļ×Ŀ": 3265, "Ġ×ľ×¦": 3266, "Ġ×©×ª×ķ×§": 3267, "Ġ×Ľ×Ĺ×ķ×ľ": 3268, "ł×ķ×Ļ": 3269, "Ġsome": 3270, "Ġ×ŀ×Ĺ×ĵ×©": 3271, "×Ĳ×ĳ×ľ": 3272, "Ġ×Ķ×Ļ×ŀ×Ļ×Ŀ": 3273, "Ġ×ĳ×¨×Ĺ×ķ×ĳ×ķ×ª": 3274, "Ġ×ŀ×Ļ×ķ×Ĺ×ĵ": 3275, "Ġ×Ķ×§×Ķ×ľ": 3276, "ul": 3277, "Ĺ×Ļ×Ļ×": 3278, "Ġ×¢×¨×§": 3279, "ĳ×¨×ķ×ª": 3280, "Ľ×ķ×Ĺ": 3281, "Ġ×¤×ª×ķ×Ĺ": 3282, "Ġ×Ĳ×ķ×ĺ×ķ×": 3283, "Ġ×Ĳ×Ĺ×¨×Ļ×Ŀ": 3284, "Ġ×§×ķ×ľ×": 3285, "Ġ×ľ×ŀ×§×ķ×Ŀ": 3286, "Ġ×ľ×©×ª×ķ×ª": 3287, "¨×Ļ×Ļ×Ŀ": 3288, "Ġ×¤×Ļ×ł×Ķ": 3289, "ÙĩÙħ": 3290, "Ġonly": 3291, "ice": 3292, "irl": 3293, "Ġ×§×ĺ×ł×Ķ": 3294, "Ġ×¢×¦×ķ×ĳ": 3295, "¤×ľ×": 3296, "¡×¤×¡": 3297, "Ġ×ª×ľ×ļ": 3298, "Ġ×ª×ŀ×ķ×ł×Ķ": 3299, "Ġ×§×¨×Ĳ×§": 3300, "Ġ×Ĳ×ķ×¤×": 3301, "Ġ×ĵ×£": 3302, "Ġ×ĳ×Ļ×ķ×": 3303, "¡×Ļ×ĳ×ķ×ª": 3304, "¤×ķ×ĺ": 3305, "ľ×ķ×©": 3306, "Ġ×ĺ×¨×ķ×": 3307, "Ġ×Ķ×ĳ×Ĳ×ª×Ļ": 3308, "Ġ×Ķ×¤×¢×Ŀ": 3309, "Ġ×ľ×©×ŀ×ķ×¨": 3310, "Ġ×Ĺ×Ķ": 3311, "Ġ×¡×Ļ×ĳ×ķ×ĳ": 3312, "ĠØ§ÙĦÙĦÙĬ": 3313, "Ġ×ĺ×ķ×ł×Ķ": 3314, "Ġ×ª×¤×ª×Ĺ": 3315, "Ġ×ŀ×ª×Ĺ×¨×Ļ×Ŀ": 3316, "ĵ×Ĳ×¤×": 3317, "ĠÙĬØ§": 3318, "Ġ×ĳ×¨×Ļ×¨×Ķ": 3319, "Ġ×ª×Ĵ×ĳ×Ļ×¨": 3320, "Ġ×ķ×ķ×Ļ×ĵ": 3321, "ÐµÐ": 3322, "¤×ķ×¨×Ļ×Ŀ": 3323, "§×Ļ×Ļ×": 3324, "Ġ:": 3325, "Ġ×ŀ×¨×Ĵ×Ļ×": 3326, "Ĺ×ĳ×Ķ": 3327, "Ġ×ª×¦×Ĳ": 3328, "×Ķ×¤×": 3329, "Ġ×¡×§×Ļ×Ļ": 3330, "Ġ×Ĺ×ķ×ª×ļ": 3331, "ÙĬÙĦ": 3332, "Ġ×ŀ×Ķ×¡×": 3333, "Ġwas": 3334, "Ġwhen": 3335, "Ġ×ĺ×§×¡×ĺ": 3336, "Ġ×ĳ×©×Ľ×ķ×ł×Ķ": 3337, "Ĳ×ķ×ľ": 3338, "ĠIs": 3339, "Ġlet": 3340, "Ġ×ľ×Ĳ×ł×©×Ļ×Ŀ": 3341, "ise": 3342, "Ġ×Ķ×ł×©×ŀ×Ķ": 3343, "Ġover": 3344, "×ķ×ķ×Ĳ×ŀ×Ļ": 3345, "aby": 3346, "Ġ×ł×ķ×ª×ł×ª": 3347, "'re": 3348, "body": 3349, "oll": 3350, "ĺ×ķ×¨": 3351, "Ġ×ľ×¡×Ļ×": 3352, "Ġ×ĳ×¡×ķ×": 3353, "Ġ×ĳ×¤×ķ×": 3354, "Ġ×©×¢×ķ×ĵ": 3355, "ĸ×Ķ×¨": 3356, "Ġ×ľ×Ļ×Ļ": 3357, "¢×ķ×¨": 3358, "Ġ×¡×Ĳ×ĳ": 3359, "ł×ķ×§": 3360, "Ġ×ŀ×Ķ×¨×": 3361, "Ġ×©×Ļ×©×": 3362, "Ġ×ľ×¢×ŀ×ķ×ĵ": 3363, "Ġ×ŀ×¢×ĳ×¨": 3364, "Ġ×Ķ×ĵ×ľ×ª": 3365, "Ġ×ŀ×ª×Ļ×Ļ×": 3366, "Ġ×Ľ×ŀ×ķ×ļ": 3367, "Ġ×Ķ×¨×Ĵ×ľ×Ļ×Ļ×Ŀ": 3368, "Ġ×ĳ×ŀ×©×Ĺ×§": 3369, "ire": 3370, "Ġ×Ķ×ķ×ķ×": 3371, "¨×Ĵ×Ł": 3372, "Ġ×ŀ×¢×Ļ×£": 3373, "Ġ×©×ŀ×ķ×ł×Ķ": 3374, "ł×ĳ": 3375, "§×ľ×": 3376, "§×ľ×Ļ×Ŀ": 3377, "Ġ×¢×ł×§": 3378, "Ġ×ľ×Ļ×Ŀ": 3379, "¦×ª×Ļ": 3380, "¦×ĳ×Ļ×Ŀ": 3381, "ĺ×¤×ª": 3382, "Ġ×Ĺ×ķ×Ĵ×Ĵ": 3383, "Ġ×©×ķ×¨×": 3384, "ł×Ĵ×ķ×": 3385, "§×Ļ×¢": 3386, "Ġ×Ķ×¤×ļ": 3387, "Ġ×ŀ×Ĳ×ŀ×Ĳ": 3388, "×Ļ×ª×ķ×Ł": 3389, "Ġlong": 3390, "×ŀ×©×": 3391, "Ġ×¡×Ļ×ŀ×Ł": 3392, "ÙĪÙħ": 3393, "Ġ×¤×Ļ×ľ×Ķ": 3394, "Ġ×ľ×¦×ĵ": 3395, "Ġ×ŀ×ª×Ļ×Ŀ": 3396, "ĵ×Ĳ×Ĵ": 3397, "Ġ×¢×Ļ×Ł": 3398, "Ġ×ł×¡×Ĵ×¨": 3399, "Ġ×Ķ×ĵ×ĳ×¨×Ļ×Ŀ": 3400, "ľ×Ĵ": 3401, "Ġ×Ĳ×¤×¡×Ļ×§": 3402, "Ġ×ľ×¡×ķ×": 3403, "¨×ĳ×ķ×ª": 3404, "Ġ×ŀ×ĵ×ľ×Ļ×§": 3405, "Ġ×©×Ľ×ķ×": 3406, "Ġ×¢×ĵ×Ł": 3407, "Ġ×¨×Ĵ": 3408, "Ġtell": 3409, "ľ×ķ×Ĺ": 3410, "Ġ×ŀ×Ĺ×Ľ×Ļ×Ŀ": 3411, "Ġ×©×ŀ×¢×": 3412, "Ġ×©×Ĳ×ľ×Ķ": 3413, "Ġ×ľ×Ĺ×¤×©": 3414, "Ġ×ŀ×ª×ķ×§×Ķ": 3415, "Ĳ×ł×¦": 3416, "Ġ×©×¦×¨×Ļ×ļ": 3417, "Ġ×ľ×§×¨×ķ×Ĳ": 3418, "×ķ×ķ×Ĳ×Ļ": 3419, "×Ļ×ĸ": 3420, "×Ķ×ķ": 3421, "ŀ×Ĺ": 3422, "ĳ×Ĺ": 3423, "ĳ×¨×ł×ķ": 3424, "Ġ×ĳ×Ĳ×ª": 3425, "Ġ×ķ×Ļ×ķ×": 3426, "Ĵ×©×ª×Ļ": 3427, "Ġ×¤×ł×Ļ×Ŀ": 3428, "Ġ×¤×Ļ×©×Ļ": 3429, "Ġ×¡×ľ×Ļ×Ĺ×Ķ": 3430, "Ġ×§×ķ×¨×": 3431, "Ġ×Ķ×Ĳ×Ŀ": 3432, "Ġ×ŀ×Ļ×ľ×Ļ×ķ×Ł": 3433, "Ġ×©×Ĳ×£": 3434, "ÙĪÙĦ": 3435, "ĠSe": 3436, "Ġ×ĳ×ł×Ĳ×ĵ×Ŀ": 3437, "Ġ×¦×ķ×¢×§×Ļ×Ŀ": 3438, "Ġ×Ĺ×¨×ķ×ĸ": 3439, "Ġ×ŀ×ĸ×ķ×ŀ×Ł": 3440, "Ġ×Ļ×¦×Ĳ×ª×Ļ": 3441, "ies": 3442, "×¤×Ļ×": 3443, "Ġ×Ķ×¢": 3444, "¨×ĳ×Ļ×Ŀ": 3445, "§×©×Ķ": 3446, "Ĵ×ĵ×Ļ×Ŀ": 3447, "Ġ×ª×ĵ×ĳ×¨": 3448, "Ġ×¢×ķ×ĸ×ĳ": 3449, "ŀ×ķ×ĵ×ĵ": 3450, "×Ļ×©×Ļ×Ŀ": 3451, "Ġ×ŀ×Ķ×Ŀ": 3452, "Ġwanna": 3453, "Ġ×ľ×©×¨×ķ×£": 3454, "Ġ×ĺ×ķ×ĳ×ķ×ª": 3455, "Ġ×ľ×¢×ĳ×ķ×ĵ": 3456, "ÙĪÙĨ": 3457, "Ġ×ª×§×©×Ļ×": 3458, "ard": 3459, "Ġ×Ĳ×¦×ľ": 3460, "ĠHe": 3461, "ĠLet": 3462, "ŀ×¨×ª×Ļ": 3463, "ĳ×ĵ×ª×Ļ": 3464, "Ġ×Ķ×ķ×ķ": 3465, "Ġ×ŀ×ľ×Ĺ×ŀ×Ķ": 3466, "§×ł×ķ": 3467, "Ġ×ľ×Ļ×Ļ×": 3468, "Ġ×ł×ĳ×Ļ×Ĳ": 3469, "Ġ×¤×ľ×Ļ×": 3470, "Ĺ×ķ×§×Ļ×Ŀ": 3471, "Ġ×¨×ķ×¦×Ĺ": 3472, "Ġ×Ľ×ķ×ľ×ļ": 3473, "Ġ×ŀ×¡×ĳ×Ļ×ĳ": 3474, "Ĳ×ķ×ł×ĵ": 3475, "Ġ×ľ×©×ł×ķ×ª": 3476, "Ġ×Ľ×©×ŀ×": 3477, "Ġ×§×ķ": 3478, "Ġ×Ĳ×ķ×Ķ×ĳ×Ļ×Ŀ": 3479, "×¤×Ŀ": 3480, "Ġ×ª×¨×§×ĵ×Ļ": 3481, "ile": 3482, "×ĳ×ķ×": 3483, "Ġ×ĳ×¢×ķ×ĵ": 3484, "Ġ×¢×¡×ķ×": 3485, "Ġ×ķ×¢×Ŀ": 3486, "¨×ķ×¡": 3487, "Ġ×¡×ŀ×Ļ×Ŀ": 3488, "Ġ×¡×¨×ĺ×Ļ×Ŀ": 3489, "Ġ×ľ×Ķ×¡×ª×": 3490, "Ġ×ĳ×Ļ×Ŀ": 3491, "Ġ×ĵ×ķ": 3492, "Ġ×ŀ×ª×ľ×": 3493, "here": 3494, "Ġmore": 3495, "Ġ×¦×ĳ×¢": 3496, "Ġ×§×ķ×ŀ×": 3497, "Ġ×©×ŀ×¢×ª": 3498, "×ķ×ķ×Ļ×Ķ": 3499, "Ġ×©×Ķ×ŀ×": 3500, "¡×ĺ×Ļ": 3501, "Ġ×ª×ķ×Ľ×ľ": 3502, "Ġ×ĵ×Ļ×¡": 3503, "Ġ×ľ×¨×Ĵ×¢": 3504, "Ġ×ĳ×¢×Ļ×ķ×ª": 3505, "¡×¤×§×ĺ": 3506, "Ġ×Ķ×¢×Ļ×§×¨": 3507, "ne": 3508, "Ñĥ": 3509, "×ľ×ķ×": 3510, "ĺ×Ļ×§": 3511, "Ġ×Ķ×ľ×ļ": 3512, "Ġ×©×ĳ×ķ×": 3513, "ĵ×ŀ×": 3514, "Ġ×Ĺ×ĵ": 3515, "Ġ×Ĳ×ķ×ª×": 3516, "ĳ×ľ×ķ": 3517, "Ġ×©×ķ×ĺ": 3518, "Ġ×ł×ķ×©×Ŀ": 3519, "Ġ×Ķ×©×ł×Ļ": 3520, "Ġ×©×ŀ×ª×Ļ": 3521, "Ġ×ŀ×ŀ×©×Ļ×": 3522, "Ġ×ķ×ŀ×Ĺ×": 3523, "Ġ×©×Ĳ×ª×Ŀ": 3524, "Ġ×ľ×Ĺ×ľ×ķ×Ŀ": 3525, "Ġ×ª×©×¢": 3526, "Ġ×ł×Ļ×ª×Ł": 3527, "ł×§×Ļ×Ļ×§": 3528, "Ġ×ł×ª×ª×Ļ": 3529, "Ĺ×Ļ×ľ×Ķ": 3530, "Ġ×©×§×¨×Ļ×Ŀ": 3531, "Ġ×¤×¢×ŀ×Ļ×Ļ×Ŀ": 3532, "×ľ×ĳ": 3533, "Ġ×Ĳ×ľ×ļ": 3534, "Ġ×Ĳ×ľ×ĳ×ķ×Ŀ": 3535, "©×¨×": 3536, "Ġ×Ķ×¢×Ŀ": 3537, "Ġ×ŀ×ĵ": 3538, "Ġ×ĳ×ª×Ĺ×": 3539, "¤×¡×ª": 3540, "ĵ×Ĺ": 3541, "¦×Ł": 3542, "Ġ×¤×¨": 3543, "Ġ×§×ľ×Ļ×": 3544, "Ĺ×ķ×£": 3545, "Ġ×ĺ×Ķ": 3546, "ł×ķ×Ĺ": 3547, "Ġ×Ľ×ķ×¡×Ļ×ª": 3548, "Ġ×ĳ×Ĳ×¨×¥": 3549, "Ġday": 3550, "Ġ×©×ŀ×Ĳ×ľ": 3551, "ance": 3552, "¡×ĺ×Ļ×": 3553, "¡×ĺ×Ļ×§": 3554, "ľ×Ĳ×Ĵ×Ł": 3555, "Ġ×§×Ļ×¥": 3556, "ople": 3557, "ĠRe": 3558, "Ġ×ł×©×Ĳ×¨×ª×Ļ": 3559, "Ġ×Ľ×ª×ĳ×ª×Ļ": 3560, "Ġ×ľ×¢×ķ×£": 3561, "¨×ĺ×Ļ×¡": 3562, "Ñĭ": 3563, "×ł×Ļ": 3564, "×ĳ×Ĳ": 3565, "©×¨×ª": 3566, "Ġ×ľ×Ĺ": 3567, "Ġ×ľ×©×ķ×": 3568, "Ġ×ľ×ŀ×ķ×ª": 3569, "Ġ×ľ×¨×Ĳ×©": 3570, "Ġ×ĳ×¢×ķ×": 3571, "Ġ×ª×Ĺ×ķ×": 3572, "¦×ĵ": 3573, "Ġ×Ĳ×ľ×Ļ×ļ": 3574, "Ġ×ĳ×ķ×¨×Ĺ": 3575, "×Ļ×Ĳ×ķ": 3576, "Ġmake": 3577, "Ġthem": 3578, "Ġ×ľ×¤×ª×ķ×Ĺ": 3579, "×Ĳ×Ķ×ĳ×Ķ": 3580, "Ġ×ľ×¢×¦×": 3581, "Ġ×ĳ×¨×Ĵ×¢": 3582, "Ġ×ŀ×¦×ĵ": 3583, "ĠÙĪØ§ÙĦ": 3584, "Ġ×ł×¢×©×Ķ": 3585, "Ġ×ĳ×ľ×¢×ĵ": 3586, "Ġ×ŀ×¡×ķ×Ľ×Ł": 3587, "Ġ×©×¢×ķ×©×Ķ": 3588, "Ġ×Ķ×Ĺ×ĳ×¨×Ķ": 3589, "Ġ×Ķ×ľ×Ĳ×Ķ": 3590, "'ll": 3591, "ove": 3592, "up": 3593, "ľ×Ľ×Ķ": 3594, "ĳ×¢×": 3595, "Ġ×Ĳ×ª×Ł": 3596, "Ľ×ľ×ª": 3597, "Ġ×ĳ×¤×Ķ": 3598, "Ĺ×ĳ×§": 3599, "Ġ×Ľ×Ĺ": 3600, "Ġ×¢×ĳ×¨×ª×Ļ": 3601, "Ġ×ķ×ł×Ļ×": 3602, "¦×ĺ×": 3603, "Ġ×Ľ×ķ×ľ×Ľ×Ŀ": 3604, "Ġ×ĵ×ķ×ĳ×Ļ": 3605, "¤×ķ×ł×Ļ×Ŀ": 3606, "Ġwill": 3607, "Ġ×Ķ×Ĳ×ŀ×": 3608, "Ġ×©×Ķ×ª×": 3609, "Ġ×ľ×ĳ×Ľ×ķ×ª": 3610, "Ġcon": 3611, "Ġ×§×Ļ×ľ×ķ": 3612, "Ġ×ľ×Ľ×Ł": 3613, "Ġ×Ķ×¡×¤×": 3614, "Ġ×Ķ×¡×Ĵ×ķ×ľ": 3615, "ĠØ§ÙĨØ§": 3616, "ª×Ĺ×ľ×Ķ": 3617, "Ġ×©×Ľ×ĳ×¨": 3618, "ĠÙĦØ§": 3619, "Ġ20": 3620, "Ġ×¨×ķ×§×ĵ": 3621, "Ġor": 3622, "ĵ×Ļ×Ļ×Ł": 3623, "×Ķ×Ļ×Ĳ": 3624, "Ľ×¨×ª": 3625, "Ġ×ŀ×Ĳ×ķ×ª": 3626, "¤×©×¨": 3627, "Ġ×¤×¡": 3628, "×Ļ×ĵ×ķ": 3629, "Ġ×Ĵ×ĸ": 3630, "Ġ×ĵ×ľ×ª": 3631, "Ġab": 3632, "ª×ķ×ł×Ļ×Ŀ": 3633, "Ġsa": 3634, "Ġ×¦×¢×Ļ×¨": 3635, "Ġ×ľ×ĳ×ł×ķ×ª": 3636, "Ġ×Ĳ×¨×¥": 3637, "Ġstill": 3638, "Ġ×ł×Ĺ×ŀ×ĵ": 3639, "¦×ľ×Ĺ×Ķ": 3640, "Ġ×ł×ķ×¤×ľ×Ļ×Ŀ": 3641, "ue": 3642, "×ķ×ł×": 3643, "×Ļ×Ĵ": 3644, "Ġ×Ķ×Ļ×ķ×": 3645, "¨×Ľ×Ļ×Ŀ": 3646, "ª×ł×Ķ": 3647, "Ġ×ĳ×ĵ×Ŀ": 3648, "Ĺ×¡": 3649, "§×Ĳ": 3650, "Ġ×ª×©×Ļ×Ŀ": 3651, "Ġ×ł×¨×Ļ×Ŀ": 3652, "ĺ×ĳ": 3653, "Ġ×¨×¦×Ļ×": 3654, "Ġ×¨×Ĺ×ķ×ĳ": 3655, "Ġ×¤×ľ×Ĳ×": 3656, "Ġ×Ĺ×ĺ×": 3657, "Ġ×Ķ×ŀ×¦×Ļ×Ĳ×ķ×ª": 3658, "Ġ×ĳ×ķ×ŀ×": 3659, "ł×Ļ×¡×Ķ": 3660, "Ġ×ŀ×©×ľ×Ŀ": 3661, "Ġ-,": 3662, "Ġ×©×ŀ×¢": 3663, "ĵ×ķ×§": 3664, "ľ×ĳ×Ļ": 3665, "Ġ×ľ×Ļ×¤×ķ×ľ": 3666, "Ġ×Ĳ×Ĺ×¨×Ļ×Ļ": 3667, "Ġ×Ķ×ĳ×ķ×§×¨": 3668, "Ġ×¨×ķ×§×ĵ×ª": 3669, "Ġ×ĳ×ŀ×Ļ×ĺ×Ķ": 3670, "Ġ×Ķ×¡×Ļ×¤×ķ×¨": 3671, "Ġ×ŀ×ľ×ķ×Ľ×": 3672, "Ĳ×ŀ×Ļ": 3673, "ľ×ŀ×Ļ×Ŀ": 3674, "Ġ×¢×©×ķ": 3675, "ĵ×¨×ļ": 3676, "Ĵ×¨×ª": 3677, "Ġ×ķ×Ĵ": 3678, "Ġ×ķ×ĳ×ķ×": 3679, "Ġ×Ľ×Ļ×ķ×ķ×Ł": 3680, "Ġar": 3681, "Ġ×Ĺ×ķ×¥": 3682, "Ġ×Ĺ×ķ×ŀ×ķ×¡": 3683, "Ġ×¤×ķ×¡×Ļ": 3684, "Ġ×©×Ĳ×ł×Ĺ×ł×ķ": 3685, "Ġ×ŀ×ĳ×¤×ł×Ļ×Ŀ": 3686, "Ġ×ķ×ľ×¤×¢×ŀ×Ļ×Ŀ": 3687, "ĠTo": 3688, "Ġ×©×ł×©×": 3689, "Ġ×ĳ×Ķ×Ŀ": 3690, "ach": 3691, "Ġ×ķ×¢×ĵ×Ļ×Ļ×Ł": 3692, "Ġif": 3693, "ge": 3694, "gal": 3695, "¦×ķ×Ł": 3696, "ĳ×ĵ×Ķ": 3697, "Ġ×©×ĳ×ķ×¨": 3698, "ł×¡×ĺ×": 3699, "Ġ×ķ×§×ķ×": 3700, "¨×ķ×ĺ×ķ": 3701, "ĺ×ĺ": 3702, "Ġ×Ĵ×Ł": 3703, "Ġ×ľ×Ķ×¨×Ļ×Ŀ": 3704, "ink": 3705, "ÙĬØª": 3706, "ľ×ķ×Ĵ": 3707, "Ġ×ł×©×§": 3708, "Ø±Ø¨": 3709, "×ķ×Ļ×Ļ×Ŀ": 3710, "Ġ×ŀ×Ĵ×ł×Ļ×ĳ": 3711, "Ġ×§×ľ×Ļ×§": 3712, "ose": 3713, "¨×Ĵ×Ļ×ľ×Ķ": 3714, "Ð¸Ð": 3715, "oot": 3716, "×Ł": 3717, "Ġour": 3718, "×ķ×Ļ×Ķ": 3719, "ľ×¤×ķ×Ł": 3720, "Ġ×ĳ×©×Ļ×¨": 3721, "Ĺ×ľ": 3722, "ł×Ļ×Ļ": 3723, "ĺ×Ĳ×": 3724, "Ġ×¨×Ĵ×ķ×¢": 3725, "Ġ×§×©×¨": 3726, "Ġ×ŀ×ķ×ª×": 3727, "Ġ×ŀ×ķ×ĵ×Ķ": 3728, "Ĺ×Ļ×Ļ": 3729, "ŀ×ķ×ł×ķ×ª": 3730, "Ġ×Ķ×ĳ×ĺ×": 3731, "Ġ×©×Ļ×ŀ×Ļ": 3732, "Ġ×ł×Ļ×¦×": 3733, "ĠBe": 3734, "Ġ×ķ×ł×©×": 3735, "Ġ×Ļ×¢×ł×Ļ": 3736, "Ġ×ĳ×Ľ×Ļ×¡": 3737, "Ġpeople": 3738, "Ġ×¢×Ļ×¨": 3739, "ŀ×ĵ×Ķ": 3740, "ĳ×ł×Ļ": 3741, "Ġ×Ķ×Ļ": 3742, "¢×¨×Ķ": 3743, "ª×ª": 3744, "Ġ×©×¢×Ķ": 3745, "Ġ×Ľ×Ĳ×ĳ": 3746, "Ġ×Ľ×ª×ķ×ĳ": 3747, "Ġ×¢×©": 3748, "¡×§×Ļ×Ŀ": 3749, "Ġ×ª×ª×Ĺ×Ļ×ľ": 3750, "Ġ×Ļ×¡×": 3751, "Ġ×¨×Ĳ": 3752, "Ġ×¡×ª×": 3753, "Ġ×¡×§×¡": 3754, "Ġ×Ķ×ŀ×ŀ×": 3755, "Ġ×Ķ×ŀ×¨×": 3756, "âĢ¦": 3757, "×ķ×ķ×Ĳ×¨": 3758, "ous": 3759, "Ġ×¦×ľ": 3760, "Ġ×Ķ×©×Ĳ×": 3761, "Ġ×ķ×Ĳ×£": 3762, "Ġ×ĵ×ķ×ĵ×ķ": 3763, "Ġ×Ķ×Ļ×Ĺ×Ļ×ĵ": 3764, "Ġ×ĳ×Ĺ×ĸ×¨×Ķ": 3765, "ĠDon": 3766, "Ġ×Ĺ×Ļ×¤×": 3767, "Ġ×ľ×ľ×ŀ×ķ×ĵ": 3768, "Ġfeel": 3769, "Ġ×ľ×ķ×§×¥": 3770, "Ġ×ł×ķ×¨×ŀ×ľ×Ļ": 3771, "ning": 3772, "¡×ķ×¨": 3773, "Ġ×§×ķ×Ŀ": 3774, "×ķ×ĺ": 3775, "Ġ×©×¨×Ļ×Ŀ": 3776, "§×ł×Ļ×Ŀ": 3777, "Ġ×¢×ĺ": 3778, "Ġ×ķ×¨×ķ×": 3779, "Ġ×ª×¨×Ļ×Ŀ": 3780, "×ķ×ķ×ł×Ļ×Ŀ": 3781, "×ķ×ķ×Ĳ×ľ×Ķ": 3782, "res": 3783, "ĵ×Ļ×£": 3784, "Ġ×¡×Ļ×Ĵ×¨": 3785, "Ġ×ł×Ļ×¡×Ļ×ª×Ļ": 3786, "Ġ×Ķ×Ķ×ķ×Ĳ": 3787, "Ġ×ľ×Ĵ×¢×ª": 3788, "Ġ×ľ×Ķ×Ļ×©×Ĳ×¨": 3789, "illion": 3790, "ĠÙĦÙĬ": 3791, "Ġneed": 3792, "×ŀ×Ļ×§×¨×ķ×¤×ķ×Ł": 3793, "§×ķ×¨": 3794, "×ĵ×Ĳ×": 3795, "áĬ": 3796, "ĳ×¨×": 3797, "Ġ×Ĳ×ŀ×Ł": 3798, "©×ĺ×": 3799, "Ġ×ľ×ľ×ĳ": 3800, "Ġ×ŀ×ľ×Ĳ×": 3801, "Ġ×©×Ĵ×Ŀ": 3802, "ł×Ĳ×Ķ": 3803, "Ĺ×¨×Ļ": 3804, "¤×¢": 3805, "§×¡×Ļ×ŀ×ķ×Ŀ": 3806, "Ġ×¨×Ĺ×": 3807, "Ġ×©×ľ×Ķ×Ŀ": 3808, "ÙĦÙī": 3809, "Ġ×¤×ķ×ľ×Ļ×": 3810, "Ġ×Ľ×©×Ĳ×ª×Ķ": 3811, "Ġ×Ĳ×Ķ×Ķ": 3812, "×ĳ×Ĳ×": 3813, "Ġ×Ķ×Ķ×ķ×¨×Ļ×Ŀ": 3814, "Ġ×ŀ×Ľ×Ļ×¨×Ļ×Ŀ": 3815, "Ġ×ĳ×Ķ×Ļ×Ļ": 3816, "Ġ×ŀ×¡×ķ×Ĵ×ľ": 3817, "ear": 3818, "áī": 3819, "ł×ķ×¨": 3820, "ľ×ĺ×Ķ": 3821, "Ġ×ľ×©×Ļ×": 3822, "Ġ×Ķ×ĵ×ķ×¨": 3823, "Ġ×Ķ×¡×ĺ×Ļ×Ļ×ľ": 3824, "Ġ×ŀ×ĺ×¨": 3825, "Ġ×©×ª": 3826, "¤×ľ×Ķ": 3827, "Ġ×ª×¨×Ĳ×ķ": 3828, "Ġ×ł×©": 3829, "Ġ×ł×¤×©": 3830, "ĺ×¨×Ļ×": 3831, "Ġ×¨×¦×Ĺ": 3832, "Ġ×¤×ª×": 3833, "Ġ×Ĺ×ľ×Ĳ×¡": 3834, "Ø§ÙĬ": 3835, "Ġ×ĳ×ķ×¢×ĺ": 3836, "ŀ×¨×ķ": 3837, "Ġ×¦×¨×ķ×ª": 3838, "Ġ×ķ×Ĳ×ł×Ĺ×ł×ķ": 3839, "Ġ×Ķ×¨×¦×¤×Ķ": 3840, "×ŀ×¢×": 3841, "¤×Ļ×ĺ×Ļ": 3842, "Ĺ×ķ×¨×ķ×ª": 3843, "Ġ×Ķ×¢×ĳ×¨": 3844, "Ġus": 3845, "Ġ×ŀ×ķ×©×ļ": 3846, "Ġ×ŀ×¤×ķ×¦×¥": 3847, "¢×ķ×Ļ×ķ×ª": 3848, "Ġ×Ķ×ľ×Ľ×ª×Ļ": 3849, "ting": 3850, "Ġ×ķ×ĵ×": 3851, "Ġ×Ļ×¨×": 3852, "¢×ķ×§": 3853, "Ġ×Ĳ×Ļ×ĸ×ķ": 3854, "Ġ×Ĺ×ŀ×ķ×": 3855, "Ġ×Ĵ×ĳ×¨×ª": 3856, "Ġ×Ļ×ķ×¨×": 3857, "Ġ×ŀ×ķ×©×ķ×Ł": 3858, "Ġ×ĳ×ķ×§×¨": 3859, "Ġ×Ĺ×ķ×©×ĳ×ª": 3860, "ŀ×Ļ×ķ×Ł": 3861, "Ġ×©×ķ×Ĳ×ľ×Ļ×Ŀ": 3862, "Ġ×ŀ×©×Ŀ": 3863, "Ġ×ĳ×Ĳ×¨×": 3864, "Ġ×ĳ×Ĳ×¡×Ļ×Ŀ": 3865, "onna": 3866, "Ġthen": 3867, "©×ĳ×ķ×¨": 3868, "ĵ×ĳ×¨×Ļ×Ŀ": 3869, "Ġ×ª×¢×ĸ×": 3870, "Ġ×Ķ×Ĺ×ķ×¦×Ķ": 3871, "ĵ×Ļ×ķ×ĺ": 3872, "Ġ×ĳ×¨×ķ×ļ": 3873, "Ġ×Ĳ×ķ×Ľ×ľ×Ļ×Ŀ": 3874, "×ŀ×Ļ×Ļ×": 3875, "Ġ200": 3876, "Ġ×ķ×Ĳ×ķ×ľ×Ļ": 3877, "!)": 3878, "ib": 3879, "if": 3880, "Ġ9": 3881, "¨×¨×": 3882, "Ġ×ĳ×ľ×ª×Ļ": 3883, "ł×Ĵ×Ł": 3884, "Ġ×¢×ĳ×ĵ": 3885, "ĳ×Ļ×¢": 3886, "¨×ķ×ł×Ķ": 3887, "Ġ×ł×¦×Ĺ": 3888, "Ġ×ĳ×ķ×¨×Ļ×ĵ×Ļ×Ŀ": 3889, "Ġ×ĳ×ķ×ĳ×Ķ": 3890, "Ġ×ĳ×ķ×¢×¨": 3891, "Ġ×ŀ×ª×ĳ×": 3892, "ľ×Ļ×ļ": 3893, "ª×ķ×ĳ×": 3894, "¤×ķ×¨×": 3895, "Ġ×ĸ×ĸ": 3896, "Ġ×ŀ×Ĺ×©×ĳ×ķ×ª": 3897, "Ġ×Ķ×ĳ×Ĳ×": 3898, "Ġ×Ķ×¤×Ľ×ķ": 3899, "ĵ×ķ×§×¡": 3900, "Ġcom": 3901, "¡×ĺ×Ļ×Ŀ": 3902, "Ġ\"\"?": 3903, "Ġ×©×Ĳ×Ľ×ĺ×Ķ": 3904, "Ġ×Ĳ×ŀ×©×Ļ×ļ": 3905, "Ġ×Ķ×¡×¨×ĺ": 3906, "Ø¨Ø´": 3907, "urt": 3908, "Ġ×ª×¨×Ļ×ŀ×Ļ": 3909, "Ġnever": 3910, "©×¨×Ĳ×ľ": 3911, "ta": 3912, "Ä±": 3913, "Ġ×©×Ł": 3914, "Ġ×©×§×Ļ×": 3915, "ł×ĺ×Ķ": 3916, "Ĵ×©×Ļ×Ŀ": 3917, "ĳ×Ļ×ł×Ķ": 3918, "Ġ×ł×¦×": 3919, "Ġ×Ĺ×ŀ": 3920, "Ġ×¤×Ļ×Ļ×": 3921, "ľ×Ĳ×Ļ×Ŀ": 3922, "ĳ×ľ×ķ×ª": 3923, "Ġ×ľ×Ķ×Ĳ×": 3924, "Ġ×ľ×Ķ×¢×": 3925, "Ġ×¦×ľ×": 3926, "©×ķ×ł×Ķ": 3927, "Ġ×Ķ×ķ×ľ×Ľ×ª": 3928, "Ġ×Ķ×ĳ×ł×": 3929, "Ġ×ĳ×ŀ×¡×Ļ×ĳ×ª": 3930, "Ġ×©×ŀ×Ĺ": 3931, "Ġ×ł×©×Ĳ×Ļ×¨": 3932, "ĠIn": 3933, "Ġ×ŀ×¢×ĳ×Ļ×¨": 3934, "Ġ×Ķ×Ĺ×ľ×ķ×ŀ×ķ×ª": 3935, "ĠAll": 3936, "Ġ×ĳ×Ĵ×ľ×": 3937, "Ġ×ĳ×Ĵ×ĵ×ķ×ľ": 3938, "Ġ×Ĳ×ľ×Ļ×ķ": 3939, "Ġ×ª×ª×§×": 3940, "Ġ×ĳ×ĳ×ł×§": 3941, "×ķ×ķ×Ĳ×Ĵ×Ķ": 3942, "Ġ×¡×Ĳ×ĳ×ľ×Ļ×ŀ×Ļ×ł×ľ": 3943, "Ġ×ľ×Ķ×ª×¢×¡×§": 3944, "Ġ×ŀ×ľ×ķ×Ľ×ľ×ļ": 3945, "ŀ×ĵ×ª": 3946, "Ľ×ł×Ļ×¡": 3947, "ł×ĺ×Ļ×Ŀ": 3948, "Ġ×Ľ×ĸ×Ĳ×ª": 3949, "§×Ŀ": 3950, "Ġ×¢×§×": 3951, "Ġ×ľ×ķ×ķ×ª×¨": 3952, "Ġ×Ļ×ĵ×¢×ª": 3953, "Ġ×ł×ª×Ł": 3954, "Ġ×¢×ķ×ĸ×¨": 3955, "Ġ×Ĳ×ķ×¨×ĺ×Ĵ×Ķ": 3956, "Ġ×¤×Ļ×Ļ×§": 3957, "Ġ×¨×ķ×ĵ×": 3958, "Ġ×ľ×Ķ×¤×¡×Ļ×§": 3959, "Ġ×Ĺ×ķ×ŀ×¨": 3960, "Ġ×Ĺ×ķ×ĸ×¨×Ļ×Ŀ": 3961, "Ġ×ł×ķ×¡×": 3962, "Ġ×Ķ×Ĳ×ł×©×Ļ×Ŀ": 3963, "Ġcr": 3964, "Ġ×ŀ×¢×ľ×Ķ": 3965, "Ġ×Ĺ×ķ×¨": 3966, "Ġ×Ļ×Ķ×Ļ×ķ": 3967, "ŀ×ķ×ķ×ª": 3968, "Ġ×ŀ×¤×Ĺ×Ļ×ĵ": 3969, "Ġ×ĳ×§×ĳ×ķ×§": 3970, "Ġ×Ĳ×¦×ĳ×¢": 3971, "Ġ×©×ľ×ŀ×Ķ": 3972, "Ġ×Ķ×Ľ×ķ×Ĺ": 3973, "ood": 3974, "×ª×ķ×": 3975, "ĸ×Ļ×Ł": 3976, "©×©": 3977, "Ġ×Ķ×ĺ": 3978, "Ġ×Ķ×ª×Ļ×Ľ×ķ×Ł": 3979, "Ġ×ĳ×ľ×Ķ": 3980, "Ġ×©×Ĵ×ĳ": 3981, "Ġ×Ļ×ĵ×¢": 3982, "Ġ×ł×ľ×Ĺ×": 3983, "ĳ×¨×Ļ×": 3984, "Ġ×¡×ĳ×": 3985, "Ġ×ľ×Ķ×ĸ×": 3986, "ł×Ĵ×ķ": 3987, "ľ×ķ×£": 3988, "Ġbad": 3989, "Ġ×ŀ×Ĳ×ĵ×Ĳ×¤×": 3990, "Ġ×Ķ×Ĺ×ĵ×¨": 3991, "Ġ×Ķ×§×¦×Ķ": 3992, "Ġ×¦×¨×Ļ×Ľ×Ļ×Ŀ": 3993, "ĸ×ķ×ł×Ķ": 3994, "×©×Ŀ": 3995, "Ġ×Ĳ×¦×ľ×ļ": 3996, "Ġkill": 3997, "Ġ×ĳ×ª×ľ": 3998, "Ġhere": 3999, "Ġ×¢×ĳ×¨×ķ": 4000, "Ġ×ŀ×Ĺ×ķ×ĳ×¨": 4001, "ĠÙĥÙĦØ¨Ø´": 4002, "ĠĠĠĠĠĠĠĠĠĠĠĠĠĠĠĠ": 4003, "×¦×": 4004, "×¢×ķ×": 4005, "áĭ": 4006, "×Ļ×ķ×Ł": 4007, "ľ×ľ×Ļ×Ŀ": 4008, "Ġ×ľ×Ľ×ķ×": 4009, "Ľ×Ĺ×Ļ×Ŀ": 4010, "Ġ×ŀ×¨×Ĳ×Ķ": 4011, "Ġ×ª×ł×¡×Ķ": 4012, "Ġ×Ļ×¨": 4013, "Ġ×Ļ×ŀ×": 4014, "Ġ×©×Ļ": 4015, "ĳ×Ļ×ĳ×Ķ": 4016, "Ġ×ł×Ĺ": 4017, "Ľ×ķ×Ķ": 4018, "Ġtalk": 4019, "Ġ×¨×ķ×ĵ×£": 4020, "Ġ×Ľ×ķ×ľ×ķ": 4021, "¨×Ĳ×ķ×": 4022, "Ġ×ĳ×Ļ×¨×Ķ": 4023, "ĠØ¥": 4024, "Ġ×Ķ×Ĳ×ĵ×ŀ×Ķ": 4025, "Ġ×©×ŀ×©": 4026, "ite": 4027, "Ġ×§×ķ×ķ×Ĳ×ŀ×Ļ": 4028, "Ġ×ľ×Ķ×ª×¤×": 4029, "Ġ×Ĳ×¦×ľ×ł×ķ": 4030, "Ġ×ª×Ĺ×ĸ×Ļ×§": 4031, "ÙĬÙĨÙĬ": 4032, "Ġ×Ĳ×¨×ķ×Ľ×Ķ": 4033, "Ġ×¤×ľ×ķ×¡": 4034, "ure": 4035, "×ĺ×Ĳ": 4036, "Ľ×Ļ×ª×Ķ": 4037, "ĳ×ł×Ļ×Ŀ": 4038, "Ġ×Ĳ×ľ×Ĳ": 4039, "Ġ×Ķ×ª": 4040, "ĵ×Ĳ": 4041, "Ġ×ķ×Ĵ×": 4042, "Ġ×Ļ×¦×Ļ×": 4043, "Ġ×¨×Ĵ×ľ": 4044, "Ġ×Ĵ×ľ×": 4045, "Ġ×Ĵ×Ĳ×ł×Ĵ": 4046, "×Ļ×§×ķ×Ŀ": 4047, "Ġ×§×ķ×ĵ×Ŀ": 4048, "ŀ×Ļ×ł×Ķ": 4049, "Ġ×ľ×ŀ×Ĺ×": 4050, "ĵ×ķ×ĵ": 4051, "ream": 4052, "Ġ×ľ×Ĳ×Ľ×ķ×ľ": 4053, "Ġ×Ĺ×Ļ×Ļ×ľ": 4054, "×ŀ×Ĺ×": 4055, "Ġgr": 4056, "Ġ×§×Ļ×Ļ×Ŀ": 4057, "Ġ×ľ×ķ×ĳ×©": 4058, "ĠSt": 4059, "Ġ×ĳ×¢×ł×Ļ×Ļ×Ł": 4060, "Ġ×Ķ×ĵ×£": 4061, "ĠØ¨Ø³": 4062, "Ġ×©×ĳ×§": 4063, "ª×Ĺ×ª×Ļ": 4064, "Ġ×Ķ×¤×ķ×ļ": 4065, "ĠThat": 4066, "Ġ×©×§×ķ×¨×Ķ": 4067, "Ġbetter": 4068, "oom": 4069, "we": 4070, "Ķ×Ļ": 4071, "ŀ×ĺ×Ļ": 4072, "Ġ×©×ł×Ļ×": 4073, "Ġ×©×ĺ×¨×ķ×ª": 4074, "Ġ×ł×ĳ×": 4075, "Ġ×ĸ×Ķ×ķ": 4076, "Ġ×§×ł×Ļ×ª×Ļ": 4077, "Ġ×Ĵ×©×Ŀ": 4078, "Ġ×ĵ×ŀ×¢×ķ×ª": 4079, "ĠØº": 4080, "Ġsc": 4081, "×ķ×ķ×Ļ×Ł": 4082, "Ġ×ŀ×Ĳ×ĳ×ĵ": 4083, "¨×§×Ļ×Ŀ": 4084, "Ġ×ĳ×¨×ĵ×Ļ×ķ": 4085, "Ġhow": 4086, "Ġ×ľ×¡×¤×¨": 4087, "Ġ×ª×¢×ĳ×Ļ×¨": 4088, "Ġ×Ĺ×ĸ×¨×ª×Ļ": 4089, "Ġlife": 4090, "Ġ×Ļ×¢×ĸ×ķ×¨": 4091, "Ġ×¨×ķ×§×ĵ×Ļ×Ŀ": 4092, "×Ĳ×Ļ×ĸ×Ķ": 4093, "Ġ×ł×Ļ×Ļ×¡": 4094, "Ġ×¢×¡×ķ×§": 4095, "Ľ×ķ×Ķ×ķ×ľ": 4096, "af": 4097, "×¢×ķ×ĵ": 4098, "ĠÑģ": 4099, "×ķ×Ļ×ķ×ª": 4100, "×ķ×¤×": 4101, "ŀ×¨×": 4102, "ĳ×©×ª": 4103, "Ġ×Ĳ×ĵ×ķ×": 4104, "Ġ×Ĳ×Ĺ×ķ×ª": 4105, "Ġ×Ĳ×ĸ×¨×Ĺ": 4106, "Ġ×ĳ×¤×Ļ×": 4107, "Ġ×©×¨×Ļ×": 4108, "¤×Ĳ×": 4109, "Ġ×¢×¡×§": 4110, "Ġ×Ĺ×ª×Ļ×": 4111, "Ø§ØŃ": 4112, "Ġ×©×ķ×ľ×£": 4113, "ŀ×¨×Ļ": 4114, "ľ×ķ×§": 4115, "Ġ×ŀ×¡×ĺ×ķ×ľ": 4116, "nder": 4117, "Ġ×Ķ×Ļ×ľ×ĵ×Ļ×Ŀ": 4118, "Ġ×©×Ĳ×ľ×ķ×ª": 4119, "Ġhand": 4120, "Ġ×ŀ×¨×Ĵ×Ļ×©×Ļ×Ŀ": 4121, "Ġ×ĳ×Ĵ×ĵ×Ļ×Ŀ": 4122, "Ø³Ùħ": 4123, "Ġ×Ļ×¢×ĳ×ķ×¨": 4124, "Ġ×Ĵ×Ļ×ĳ×ķ×¨": 4125, "Ġ×©×¨×¦×Ļ×ª×Ļ": 4126, "Ġshow": 4127, "Ġ×ŀ×Ļ×Ļ×¦×Ĵ": 4128, "Ġ×ŀ×Ĳ×Ĺ×ķ×¨×Ļ": 4129, "Ġagain": 4130, "?!": 4131, "ľ×ŀ×ª": 4132, "Ġ×ľ×¢": 4133, "Ġ×Ķ×ĸ×ķ×": 4134, "Ľ×¨×Ķ": 4135, "ª×ĳ×Ļ×Ŀ": 4136, "Ġ×©×ĸ×": 4137, "Ġ×©×ķ×¨×ķ×ª": 4138, "ĺ×Ĵ": 4139, "Ġ×¨×¦×Ļ×ª": 4140, "Ġ×¤×¨×Ĺ": 4141, "Ġ×Ľ×ķ×¡×": 4142, "Ġ×ĵ×Ļ×¨×Ķ": 4143, "Ġ×Ĺ×ķ×ĸ×¨×ª": 4144, "Ġ×©×ķ×ł×Ķ": 4145, "Ġ×ĸ×¨×ķ×§": 4146, "Ġ×ŀ×Ĺ×ľ×Ļ×£": 4147, "Ġ×ĳ×ŀ×¦×Ļ×Ĳ×ķ×ª": 4148, "Ġ×©×Ļ×Ĺ×": 4149, "¤×¡×Ļ×Ŀ": 4150, "Ġ×ĵ×ķ×ľ×¨": 4151, "Ġ×Ľ×©×Ĳ×": 4152, "Ġ×Ķ×Ļ×Ĺ": 4153, "Ġ×ľ×§×¤×ķ×¥": 4154, "ĠØ§ÙĦØŃ": 4155, "Ġ×ĳ×Ĵ×ĵ": 4156, "Ġun": 4157, "Ġ×ł×¨×ĵ×Ŀ": 4158, "Ġ×ĵ×Ĳ×ĳ×ľ": 4159, "ĠJah": 4160, "Ġ×ª×ĳ×Ľ×ķ": 4161, "Ġ×Ķ×ŀ×Ĺ×©×ĳ×ķ×ª": 4162, "Ġ×ł×¨×Ĳ×Ļ×Ŀ": 4163, "Ġ×Ķ×Ĳ×¨×ĵ×§×ķ×¨": 4164, "×ĳ×Ļ×ĺ": 4165, "©×ł×": 4166, "©×ĳ×Ķ": 4167, "Ġ×ľ×¨×Ļ×": 4168, "Ġ×Ķ×§×Ļ×ł×Ĵ": 4169, "Ġ×Ķ×§×ķ×ľ": 4170, "ª×§×": 4171, "ł×¢": 4172, "Ġ×¢×¨×ķ×¥": 4173, "ĵ×ļ": 4174, "Ġ×Ļ×¨×ķ×©×ľ×Ļ×Ŀ": 4175, "¨×ķ×ŀ×": 4176, "Ġ×ł×¡×Ļ×": 4177, "Ġ×ł×ĵ×ĳ×¨": 4178, "ĸ×§": 4179, "Ġ×ª×Ļ×§": 4180, "Ġ×Ļ×ķ×¤×Ļ": 4181, "Ġ×ŀ×ķ×ª×¨": 4182, "ĠØ²": 4183, "Ġsm": 4184, "Ġ×Ķ×©×ł×Ķ": 4185, "Ġ×ŀ×Ĺ×ĸ×Ļ×¨": 4186, "Ġ×Ķ×Ĳ×¨×¥": 4187, "Ġ×ĺ×ľ": 4188, "Ġ×ĺ×¨×": 4189, "Ġ×ĳ×ŀ×¦×ĳ": 4190, "Ĳ×ķ×Ĵ": 4191, "ret": 4192, "¨×Ĵ×Ļ×ľ": 4193, "¡×ĺ×ķ×¨×Ļ×Ķ": 4194, "Ġ×Ĵ×ķ×¨×Ŀ": 4195, "ľ×Ľ×ľ×ļ": 4196, "Ġ×ĵ×Ļ×ĳ×ķ×¨": 4197, "Ġ×©×ł×©×Ĳ×¨": 4198, "ÙĥÙĦ": 4199, "×¢×©×¨": 4200, "Ġ×Ķ×ª×Ĺ×ľ×ª×Ļ": 4201, "Ġ×ŀ×ª×¤×ľ×ľ": 4202, "ĠEvery": 4203, "Ġ×¢×ĸ×ĳ×ķ": 4204, "oney": 4205, "app": 4206, "Ġ×¤×¨×ķ×ĵ×ķ×§×¡": 4207, "×¨×§": 4208, "ØŁ": 4209, "ľ×ĳ×ľ": 4210, "Ġ×Ĳ×ĳ×ķ×ĵ": 4211, "¢×Ĵ×¢": 4212, "Ġ×ŀ×ĵ×Ķ": 4213, "Ġ×ĳ×ĺ×Ļ×": 4214, "Ġ×ľ×Ļ×ľ×ķ×ª": 4215, "Ġ×ķ×Ļ": 4216, "Ġ×Ļ×Ķ×": 4217, "ĵ×¨×Ļ×Ŀ": 4218, "Ġ×ª×¨×Ĵ×Ļ×©": 4219, "Ġ×Ļ×§×": 4220, "Ġ×Ļ×¨×ķ×§": 4221, "¨×ķ×¨": 4222, "Ġ×ł×ľ×Ĺ×Ŀ": 4223, "ĳ×¨×ķ": 4224, "Ġ×¨×¦×Ļ×Ŀ": 4225, "Ľ×ķ×ł×Ļ×ª": 4226, "ĳ×ķ×¡": 4227, "Ġ×¤×¨×Ĳ": 4228, "Ġ×§×Ĺ×Ļ": 4229, "Ġ×Ĺ×Ľ×Ŀ": 4230, "×Ļ×ĵ×Ļ×Ļ×Ŀ": 4231, "Ġ×ŀ×Ķ×Ļ×": 4232, "¨×Ļ×ĸ": 4233, "Ġ×©×ķ×Ľ×Ĺ": 4234, "Ġ×Ĳ×ķ×ķ×ķ": 4235, "Ġ×ĺ×Ĳ×": 4236, "Ġ×ľ×©×Ľ×ķ×Ĺ": 4237, "ĠIf": 4238, "Ġyu": 4239, "Ġ×ľ×ķ×ŀ×ĵ": 4240, "ÙĪØ±": 4241, "Ġ×ĳ×¢×¦×": 4242, "¦×Ļ×ł×Ķ": 4243, "Ġ×ŀ×¤×ľ×": 4244, "×Ļ×ķ×ł×Ļ": 4245, "Ġ×ŀ×¦×ľ×Ļ×Ĺ": 4246, "ked": 4247, "Ġ×ľ×¡×ŀ×ķ×ļ": 4248, "ÙĥÙĬ": 4249, "Ġ×ķ×Ķ×ķ×": 4250, "×ª×Ĺ×ª": 4251, "Ġ×ĳ×ĳ×§×©×Ķ": 4252, "Ġ×¤×¨×©": 4253, "ĠÐ¿": 4254, "Ġoff": 4255, "Ġ×ŀ×Ĺ×¤×©×ª": 4256, "Ġ×Ĳ×ĵ×ķ×Ŀ": 4257, "Ġ×ľ×§×Ļ×¨": 4258, "Ġ×ĳ×Ĳ×ŀ×¦×¢": 4259, "×¤×Ļ": 4260, "×Ľ×ķ×ľ×Ŀ": 4261, "Ĵ×Ļ×¨×Ķ": 4262, "ĸ×Ļ×Ļ×Ł": 4263, "Ĳ×ĸ×ľ": 4264, "Ġ×Ĳ×©×Ŀ": 4265, "©×ľ×Ķ": 4266, "Ġ×Ķ×¨×Ļ": 4267, "¢×©": 4268, "Ġ×ĳ×ł×Ļ×": 4269, "Ġ×©×ŀ×Ļ×Ŀ": 4270, "ł×Ļ×ķ": 4271, "Ĵ×¢×ª×Ļ": 4272, "Ġ×ª×ĸ×Ļ×": 4273, "ĳ×Ļ×¥": 4274, "Ġ×ľ×Ķ×ķ×¨×Ļ×ĵ": 4275, "Ġ×Ĺ×ķ×ľ": 4276, "ŀ×Ļ×ł×ķ": 4277, "ŀ×Ļ×Ľ×Ķ": 4278, "Ġ×ľ×ŀ×¢×": 4279, "Ġ×ĳ×ŀ×ĵ×Ļ×ł×Ķ": 4280, "¤×¡×Ķ": 4281, "Ġ×¡×ķ×Ľ×¨": 4282, "Ġ×Ķ×ª×Ĺ×Ļ×ľ": 4283, "Ġ×ĵ×ķ×Ĵ×": 4284, "¤×Ļ×ľ×Ķ": 4285, "ĠØ¨Øª": 4286, "Ġ×§×Ļ×ĺ×": 4287, "igg": 4288, "Ġ×ĳ×ª×Ĺ×ª": 4289, "Ġhead": 4290, "Ġ×ĳ×Ľ×Ļ×£": 4291, "Ġ×ŀ×Ķ×¤×Ľ×Ķ": 4292, "Ġ×ł×¨×Ĳ×Ļ×ª": 4293, "Ġ×ĵ×ķ×¤×§×Ļ×Ŀ": 4294, "ĸ×ĳ×ĸ": 4295, "ds": 4296, "×ĸ×": 4297, "ľ×ĵ×": 4298, "©×ł×ķ": 4299, "Ġ×Ķ×ł×Ļ×": 4300, "Ġ×Ķ×¨×ķ×Ĺ": 4301, "Ľ×¨×Ļ×Ŀ": 4302, "¨×§×¢": 4303, "Ġ×©×ľ×Ľ×Ŀ": 4304, "Ġ×Ĳ×ķ×¨×ķ×ª": 4305, "Ġ×ľ×Ĳ×ķ×¨": 4306, "×Ķ×ŀ×": 4307, "Ġ×Ĺ×©": 4308, "Ġ×Ĵ×¨×Ŀ": 4309, "Ġtake": 4310, "Ġ×ĳ×ķ×ĵ×ĵ": 4311, "Ġam": 4312, "Ġ×ĳ×ŀ×¢×": 4313, "¤×¡×Ļ×ĵ": 4314, "Ġ×ĵ×ķ×Ĳ×Ĵ": 4315, "Ġgonna": 4316, "¦×Ļ×¥": 4317, "Ġ×ª×§×ľ×Ļ×ĺ": 4318, "Ġ×ŀ×¦×ľ×": 4319, "Ġ×§×Ļ×ĳ×ľ": 4320, "Ġ×ĺ×Ļ×¤×©": 4321, "¤×ľ×ķ×Ĳ×ķ": 4322, "Ġ×ľ×Ĵ×¨×ķ×Ŀ": 4323, "Ġey": 4324, "Ġher": 4325, "Ġ×ŀ×ĳ×Ļ×Ĳ×Ļ×Ŀ": 4326, "Ġ×§×Ĳ×ŀ×": 4327, "Ġ×¡×ĺ×ľ×Ķ": 4328, "Ġ×Ľ×ķ×¡×Ļ×ķ×ª": 4329, "×Ĺ×ķ×ĵ×©": 4330, "Ġ×ķ×ķ×Ĳ×Ĺ×ĵ": 4331, "©×¨×ŀ×ķ×ĺ×Ķ": 4332, "tle": 4333, "×ł×ķ": 4334, "×¢×Ŀ": 4335, "×ĸ×ŀ×Ł": 4336, "Ľ×Ļ×ª": 4337, "ľ×Ļ×Ķ": 4338, "×ķ×ĸ×Ķ": 4339, "Ġ×Ĳ×ŀ×ķ×¨": 4340, "©×£": 4341, "Ľ×Ĳ×ķ×Ł": 4342, "Ġ×ŀ×ł×Ķ×": 4343, "Ġ×ŀ×¦×ķ": 4344, "Ġ×ĳ×¨×Ĳ×": 4345, "ł×©×ĺ": 4346, "§×Ĳ×": 4347, "Ġ×ķ×ĳ×Ĳ": 4348, "ľ×Ļ×Ļ×": 4349, "Ġ×ł×¤×¡×Ļ×§": 4350, "¢×ķ×£": 4351, "Ġ×ª×Ķ×": 4352, "Ġ×¨×ĳ×Ķ": 4353, "Ġ×Ĺ×ĸ×¨": 4354, "Ĺ×ķ×¡": 4355, "Ġ×¡×ĳ×Ĳ": 4356, "©×Ķ×Ļ": 4357, "Ġ×ŀ×ķ×ĸ×": 4358, "Ġ×Ľ×ķ×©×Ļ": 4359, "Ġ×ĳ×Ĳ×ķ": 4360, "Ġ×ŀ×Ķ×¢×": 4361, "Ġ×ĸ×¨×": 4362, "Ġ×ŀ×¡×¤×¨×Ļ×Ŀ": 4363, "Ġ×Ķ×ĳ×ł×ª": 4364, "Ġ×©×Ļ×ĳ×ķ×Ĳ": 4365, "Ġ×ķ×Ĳ×ª×Ŀ": 4366, "Ġbre": 4367, "¤×¨×ķ": 4368, "Ġ×ľ×¢×ľ×ķ×ª": 4369, "Ġ×ĳ×¡×ľ×ķ×Ł": 4370, "Ġ×ª×§×ĳ×ľ": 4371, "Ġ×§×Ļ×ł×Ĵ": 4372, "Ġ×©×Ļ×©×Ļ": 4373, "Ġ×¨×Ļ×¡×¤×§×ĺ": 4374, "ĠNe": 4375, "Ġ×ŀ×ĵ×ĳ×¨×ª": 4376, "×ĳ×ķ×Ŀ": 4377, "act": 4378, "Ġ×ķ×¤×ª×Ĳ×ķ×Ŀ": 4379, "ĠThis": 4380, "Ġ×ŀ×ŀ×©×Ļ×Ľ×Ļ×Ŀ": 4381, "way": 4382, "×©×Ļ×¨": 4383, "×ķ×ķ×Ĳ×ķ": 4384, "×Ļ×Ĳ×ľ×ľ×Ķ": 4385, "ŀ×ĺ×¨": 4386, "Ġ×Ķ×ľ×Ļ×": 4387, "Ľ×¨×ķ×ł×ķ×ª": 4388, "¨×Ľ×ª": 4389, "Ġ×ŀ×Ĵ×ķ×": 4390, "Ġ×ŀ×¨×ķ×ĳ": 4391, "Ġ×ŀ×Ĺ×ķ×¥": 4392, "Ġ×©×ĺ×": 4393, "Ġ×©×Ĵ×ķ×": 4394, "¨×ķ×ĸ": 4395, "Ġ×Ĳ×Ļ×ł×ĺ×": 4396, "×Ļ×Ļ×¨×Ķ": 4397, "Ġ×¢×ķ×ĳ×ĵ×Ļ×Ŀ": 4398, "Ġ×Ĺ×ľ×ķ×": 4399, "Ġ×¡×ĺ×ķ×": 4400, "Ġ×¡×Ĵ×ł×ķ×Ł": 4401, "Ġ×¨×ķ×¦×ķ×ª": 4402, "×ķ×Ĳ×Ļ×Ŀ": 4403, "Ġ×Ľ×ķ×Ľ×ĳ×Ļ×Ŀ": 4404, "×ķ×ķ×ł×Ĵ": 4405, "Ġ×¦×¢×": 4406, "Ġ×ĺ×¨": 4407, "Ġ×ĳ×ŀ×§×": 4408, "Ġ×Ķ×¤×Ĳ×ł×¦": 4409, "Ġlight": 4410, "Ġ×Ķ×§×ĺ×¢": 4411, "ľ×Ĺ×ª×Ļ": 4412, "Ġ×ĳ×Ľ×ľ×Ĳ": 4413, "Ġ×Ĳ×Ķ×Ļ×Ķ": 4414, "Ġ×ĳ×Ĺ×ľ×ľ": 4415, "Ġ×ĳ×¤×ª×Ĺ": 4416, "Ġ×Ķ×ł×Ľ×ķ×Ł": 4417, "ĠÙĪÙĦØ§": 4418, "Ġ×ľ×¦×¢×ķ×§": 4419, "×ķ×ķ×Ļ×Ĺ": 4420, "Ġ×ĳ×ķ×Ļ×": 4421, "ĠYeah": 4422, "ĠNow": 4423, "Ġ×ŀ×¡×ķ×ĳ×ĳ": 4424, "Ĳ×¨×ĺ×Ĳ": 4425, "Ġ×¢×Ļ×ķ": 4426, "ĠGod": 4427, "Ġ×ŀ×©×¤×Ĺ×Ķ": 4428, "Ġ×ª×§×ķ×¢": 4429, "Ġworld": 4430, "Ġ×ĳ×ľ×Ļ×ł×Ĵ": 4431, "Ġ×ĵ×¤×§×ª×Ļ": 4432, "¤×Ļ×Ķ": 4433, "Ĺ×Ļ×¨": 4434, "×ķ×ĸ": 4435, "Ġ×ľ×ĳ×Ļ×ª": 4436, "Ġ×ŀ×ľ": 4437, "Ġ×ŀ×©×Ķ": 4438, "Ġ×ŀ×¨×Ĳ×©": 4439, "Ġ×ĳ×ŀ×Ļ": 4440, "Ġ×©×ª×Ķ": 4441, "Ġ×©×Ĳ×Ļ×": 4442, "ł×ł×Ļ×Ŀ": 4443, "ĵ×¨×Ķ": 4444, "Ġ×Ļ×Ĵ×": 4445, "Ġ×ł×¤×ľ": 4446, "Ġ×¨×ĳ×Ļ×Ŀ": 4447, "Ġ×Ĺ×ŀ×": 4448, "§×ķ×ĵ×Ķ": 4449, "Ġ×ľ×Ķ×Ĵ×Ļ×¢": 4450, "Ġ×ŀ×ķ×¨×": 4451, "¨×Ĳ×Ļ×Ŀ": 4452, "Ġ×ĵ×Ļ×Ļ": 4453, "Ġ×Ķ×ŀ×§×": 4454, "ł×Ļ×ŀ×ķ×Ŀ": 4455, "Ġ×Ĺ×ķ×¤×©": 4456, "ŀ×Ļ×ł×Ļ×Ŀ": 4457, "Ġ×Ķ×©×Ľ×": 4458, "Ġ×ĳ×Ĳ×ľ×Ļ×": 4459, "ĵ×ķ×©": 4460, "ĺ×ķ×ľ×Ķ": 4461, "ĺ×Ļ×ł×Ļ": 4462, "Ġ×ľ×Ķ×ª×¢×ķ×¨×¨": 4463, "Ġ×ĳ×¢×ĳ×¨×Ļ×ª": 4464, "ase": 4465, "Ø³ÙĬ": 4466, "Ġ×ŀ×ł×¦×Ĺ": 4467, "Ġ×ľ×Ĵ×ĵ×ķ×ľ": 4468, "Ġever": 4469, "Ġ×ŀ×Ĵ×ľ×Ĵ×ľ": 4470, "×ŀ×ķ×Ĺ": 4471, "Ġ×¢×ľ×Ļ×Ķ×Ŀ": 4472, "Ġ×¨×Ĵ×ľ×Ļ×Ļ×Ŀ": 4473, "Ġ×ŀ×Ĺ×Ļ×¨": 4474, "Ġ×Ķ×ł×Ļ×Ļ×¨": 4475, "Ġ×Ĳ×ķ×ª×Ľ×Ŀ": 4476, "da": 4477, "oor": 4478, "¦×Ļ×ľ": 4479, "×ł×Ķ": 4480, "ľ×ŀ×ķ×ª": 4481, "ŀ×Ĳ×ľ": 4482, "ĳ×¢×ª": 4483, "Ġ×Ĳ×ĳ×§": 4484, "Ġ×Ĳ×ľ×ĳ×Ļ": 4485, "Ġ×ŀ×¢": 4486, "Ġ×©×ŀ×Ł": 4487, "Ġ×Ľ×¨×Ļ×": 4488, "§×ľ×Ļ×ĺ": 4489, "Ĵ×Ĳ×ĸ": 4490, "Ġ×ķ×©×Ļ×": 4491, "Ġ×ª×¡×ª×Ľ×ľ": 4492, "Ġ×ľ×Ļ×ķ×Ŀ": 4493, "ĺ×ł×": 4494, "Ġ×¢×ķ×¦×": 4495, "Ġ×¢×ķ×ĳ×¨×Ļ×Ŀ": 4496, "Ġ×§×¦×¨": 4497, "Ġ×Ĳ×ķ×£": 4498, "Ġ(..": 4499, "Ġ×¤×ķ×¨": 4500, "Ġ×ľ×Ķ×ª×Ĺ×Ļ×ľ": 4501, "Ġ×ĵ×§": 4502, "Ġ×ĺ×Ļ×ľ": 4503, "¡×ķ×ľ": 4504, "Ġ×ĳ×Ļ×ĵ×Ļ×Ļ×Ŀ": 4505, "Ġ×ľ×©×ª×ķ×§": 4506, "Ġ×ľ×©×Ĳ×ķ×ľ": 4507, "Ġ×¦×Ļ×¤": 4508, "ity": 4509, "Ġ×ľ×¢×ĵ": 4510, "Ġ×ŀ×¢×¨×ĳ×ĳ": 4511, "Ġ×ŀ×¢×ĵ×Ļ×£": 4512, "Ġ×Ĵ×ķ×£": 4513, "Ġ×ĳ×Ľ×ĳ×ķ×ĵ": 4514, "Ġ×©×Ļ×¨×Ļ": 4515, "Ġ×Ľ×Ļ×©×¨×ķ×Ł": 4516, "Ġ×ł×¢×ľ×Ŀ": 4517, "Ġ×¢×©×Ļ×ł×ķ": 4518, "Ġ×Ķ×ŀ×©×¤×Ĺ×Ķ": 4519, "Ġ×ĵ×¨×ŀ×Ķ": 4520, "Ġ×ĳ×ĵ×Ļ×Ĺ×Ķ": 4521, "Ġ×ł×Ľ×ł×¡×ª×Ļ": 4522, "Ġ×ĳ×©×ķ×§": 4523, "urther": 4524, "ble": 4525, "go": 4526, "nce": 4527, "¤×Ļ×¨×Ķ": 4528, "×Ķ×ķ×": 4529, "Ġ×Ķ×§×Ļ×¥": 4530, "Ġ×ŀ×©×Ļ×": 4531, "ł×§×Ļ×Ŀ": 4532, "Ĺ×¨×Ļ×Ŀ": 4533, "Ġ×¢×©×Ļ×¨": 4534, "¡×¤×ª": 4535, "Ĵ×ĸ×": 4536, "Ĵ×¨×Ķ": 4537, "Ġ×ª×ŀ×ķ×ª": 4538, "Ġ×Ļ×Ĵ×Ļ×ĵ×ķ": 4539, "ĺ×ª": 4540, "Ġ×Ĺ×©×ĳ": 4541, "Ġ×Ĺ×ĵ×¨": 4542, "Ġ×¨×ķ×Ŀ": 4543, "¨×Ĳ×¤×¨×Ļ×Ŀ": 4544, "ľ×Ļ×Ĺ×ķ": 4545, "Ġ×©×ķ×ĺ×Ļ×Ŀ": 4546, "ÙĦØ¹": 4547, "Ġ×Ķ×©×Ľ×ľ": 4548, "Ġ×ŀ×¡×¨×Ļ×Ĺ": 4549, "Ġ×©×Ļ×ł×Ķ": 4550, "Ġby": 4551, "Ġ×Ķ×¨×¢": 4552, "atch": 4553, "Ġgod": 4554, "ĺ×Ļ×ĳ×Ļ": 4555, "Ġ×Ķ×¡×ª×": 4556, "¡×Ļ×Ļ×Ŀ": 4557, "Ġ×ľ×Ļ×ĳ×Ļ": 4558, "Ġ×ª×©×Ĳ×Ļ×¨": 4559, "Ġha": 4560, "art": 4561, "Ġ×ľ×ĵ×Ĳ×ķ×Ĵ": 4562, "Ġ×ª×Ķ×Ļ×Ļ": 4563, "Ġ×Ĺ×©×ŀ×ľ": 4564, "Ġseh": 4565, "ĠCan": 4566, "Ġ×Ľ×ķ×ķ×": 4567, "idd": 4568, "Ġ×ŀ×ĳ×Ļ×ł×Ķ": 4569, "Ĳ×ŀ×§": 4570, "Ġ×ŀ×ĺ×ķ×ŀ×ĺ×Ŀ": 4571, "ĠThey": 4572, "Ġ×ĳ×Ĵ×Ļ×ľ": 4573, "Ġ×ŀ×§×ķ×ĳ×ľ": 4574, "Ġ×ľ×Ķ×ķ×¦×Ļ×Ĳ": 4575, "Ġ×¤×¡×Ļ×Ľ×ķ×": 4576, "Ġ×ª×ĳ×Ļ×ł×Ļ": 4577, "¡×ķ×Ł": 4578, "¤×Ļ×ĵ": 4579, "¤×ķ×Ļ": 4580, "ľ×©": 4581, "Ġ×ľ×Ĺ×ķ×¥": 4582, "Ġ×Ķ×¦×Ļ×": 4583, "¨×ĳ×Ļ": 4584, "Ġ×ĳ×Ĺ×Ļ×": 4585, "ł×ľ×Ļ": 4586, "ł×ĵ×Ķ": 4587, "ĵ×Ĵ": 4588, "Ġ×ķ×ĵ×ķ×": 4589, "Ġ×ª×©×Ļ×": 4590, "Ġ×ł×ľ×ļ": 4591, "Ġ×Ĳ×Ļ×ĵ×Ļ×ķ×ĺ": 4592, "Ġ×¨×ŀ×": 4593, "Ġ×¤×ª×ķ×": 4594, "Ġ×ľ×Ķ×ĸ×Ļ×ĸ": 4595, "Ġ×ĳ×Ļ×§×": 4596, "Ġ×Ĵ×ķ": 4597, "Ġ×ł×ķ×©×": 4598, "Ĳ×ķ×ĺ": 4599, "Ġ×ľ×©×¨×ķ×ĵ": 4600, "Ġ×¡×ķ×Ĵ×¨×Ļ×Ŀ": 4601, "Ġ×Ķ×Ĺ×¨×Ĳ": 4602, "Ġ×ķ×ķ×¨×¡": 4603, "Ġ×ķ×ķ×ľ×Ļ×ķ×Ŀ": 4604, "Ķ×ĳ": 4605, "Ġ×Ĺ×Ļ×ķ×": 4606, "Ġ×©×Ķ×Ķ": 4607, "¤×§×Ļ×ĵ": 4608, "Ġ×ķ×ľ×¢×": 4609, "Ġ×ª×§×ł×Ķ": 4610, "Ġ×ŀ×¦×¤×Ķ": 4611, "ĠMe": 4612, "Ġ×©×Ľ×Ĺ×ª×Ļ": 4613, "ĠPut": 4614, "ally": 4615, "Ġ×ĵ×Ĳ×Ŀ": 4616, "Ġ×ª×Ĳ×§×ĺ": 4617, "Ġtry": 4618, "Ġ×ł×©×Ĳ×¨×ª": 4619, "ĳ×ľ×ĳ×ľ": 4620, "Ġ×Ķ×©×ª×ł×Ķ": 4621, "ł×©×ĺ×Ļ×Ļ×Ł": 4622, "!!": 4623, "×ķ×ľ×ķ": 4624, "ĳ×ľ×ª": 4625, "©×ĳ×Ł": 4626, "Ġ×Ķ×ĳ×ķ×Ŀ": 4627, "Ġ×ŀ×ĵ×Ļ×ł×Ķ": 4628, "Ġ×ĳ×§×Ļ×": 4629, "Ġ×©×ľ×ĳ": 4630, "ł×ª×": 4631, "§×©×Ļ×ĳ": 4632, "ĵ×¨×ª": 4633, "Ġ×ª×ĵ×": 4634, "Ġ×ª×¤×ķ×": 4635, "Ġ×¨×ĳ": 4636, "Ġ×§×¨×Ĳ×": 4637, "Ġ×Ĺ×¨×Ļ×": 4638, "Ġ×ŀ×Ķ×Ļ×¨": 4639, "Ġ×¡×§×Ļ×Ļ×": 4640, "oud": 4641, "Ġ×Ķ×ĳ×¨×": 4642, "Ġ×¡×ķ×ĳ×ľ": 4643, "Ĵ×ķ×©": 4644, "Ġ×©×Ĳ×ł×Ł": 4645, "¦×ķ×¢": 4646, "Ġ×ª×Ĺ×¤×©": 4647, "Ġ×ª×ª×¢×": 4648, "Ġ×ĳ×ĳ×ĺ×Ł": 4649, "Ġ×ĳ×¦×ľ": 4650, "Ġ×¤×Ĳ×§×Ļ×Ł": 4651, "Ġ×ŀ×ª×¢×¡×§": 4652, "Ġ×Ĺ×ķ×ľ×¦×Ķ": 4653, "Ġabout": 4654, "cause": 4655, "ild": 4656, "to": 4657, "×¢": 4658, "×ĺ×ķ×ĳ": 4659, "ĺ×ķ×Ŀ": 4660, "×Ļ×ł×¡": 4661, "Ġ×Ĳ×ĳ×ķ×": 4662, "Ġ×ľ×ĳ×Ļ×Ł": 4663, "Ġ×ŀ×ĺ": 4664, "Ġ×ŀ×¤×Ļ×ľ": 4665, "Ġ×ĳ×ĳ×ķ×": 4666, "Ġ×©×ĳ×Ļ×": 4667, "Ġ×©×ł×Ļ×ł×ķ": 4668, "ł×ł×Ķ": 4669, "§×§": 4670, "¦×ľ×Ļ×Ĺ": 4671, "×Ķ×¨×Ļ×Ļ×Ŀ": 4672, "Ġ×Ļ×ĵ×ķ×": 4673, "Ġ×Ļ×¤×ķ×ª": 4674, "¨×ķ×¢": 4675, "Ġ×¨×¦×": 4676, "Ġ×¤×ľ×Ĳ": 4677, "Ġ×§×¨×ĳ": 4678, "ł×ķ×Ļ×Ļ×Ŀ": 4679, "§×ķ×¢": 4680, "§×ķ×ŀ×ķ×ª": 4681, "Ġ×ĳ×ķ×¨": 4682, "Ġ×ĵ×Ļ×Ł": 4683, "Ġ×ŀ×Ķ×ĳ×": 4684, "Ġ×ŀ×©×§×": 4685, "ª×¨×ķ×ª": 4686, "ľ×ķ×ł×Ł": 4687, "Ġ×ĳ×ŀ×¡×": 4688, "Ġ×©×Ļ×Ľ×ķ×¨": 4689, "Ġ×Ķ×¤×ł×§×Ļ×Ļ×§": 4690, "Ġ×ľ×©×ŀ×Ļ×Ļ×Ŀ": 4691, "Ġyeah": 4692, "Ġfight": 4693, "Ġfind": 4694, "ĵ×¢×ķ×ª": 4695, "ØªÙĬ": 4696, "Ġ×¤×Ĳ×£": 4697, "ord": 4698, "Ġ×©×ª×©×": 4699, "©×ķ×ĳ×ķ×ª": 4700, "Ġ×ĺ×Ļ×¤": 4701, "Ġ×Ĳ×Ľ×ľ×ª×Ļ": 4702, "Ġ×ŀ×ł×Ĵ×Ł": 4703, "¡×ĺ×Ĳ×¨": 4704, "ĠØ¹ÙĦÙī": 4705, "ĠGet": 4706, "Ġ×©×¢×ķ×Ł": 4707, "Ġ×§×ľ×Ĳ×¡": 4708, "Ġ×¤×ķ×ª×Ĺ×Ļ×Ŀ": 4709, "Ġ×©×¨×ķ×¦×Ķ": 4710, "Ġ×Ĳ×Ļ×Ļ×ł×©×ĺ×Ļ×Ļ×Ł": 4711, "Ġ×ŀ×¨×Ĵ×Ļ×©×Ķ": 4712, "Ġ×§×Ĳ×ŀ×ĳ×§": 4713, "FF": 4714, "Further": 4715, "uff": 4716, "×ĳ×Ļ×ª": 4717, "Ġ×ľ×ĵ×Ļ×": 4718, "¨×Ĺ×§": 4719, "¢×ľ×Ļ×Ŀ": 4720, "Ġ×ŀ×¨×Ļ": 4721, "Ġ×©×Ľ×ķ×ł×Ķ": 4722, "Ġ×¢×ł×Ł": 4723, "ĵ×©×ķ×ª": 4724, "Ġ×Ļ×Ĵ×ŀ×¨": 4725, "ĳ×Ļ×ł×ĺ": 4726, "ĳ×Ļ×ľ×ķ×Ł": 4727, "ľ×Ļ×ķ": 4728, "Ġ×ł×ĺ×": 4729, "Ġ×¨×Ľ×ĳ×ª": 4730, "Ġ×¢×ķ×ĳ×¨×ª": 4731, "Ġ×¤×¨×Ĺ×Ļ×Ŀ": 4732, "Ġ×¡×Ŀ": 4733, "Ġ×¡×Ľ×Ļ×Ł": 4734, "Ġ×ĵ×Ĳ": 4735, "Ġ×Ķ×ŀ×ª×": 4736, "Ġ×ĳ×ķ×ł×Ļ×Ŀ": 4737, "Ġain": 4738, "Ġ×ŀ×ª×Ĺ": 4739, "ľ×Ļ×¤×Ķ": 4740, "×ķ×ķ×Ĺ": 4741, "×ķ×ķ×ľ": 4742, "Ġ×ŀ×Ķ×Ĳ×": 4743, "Ġmic": 4744, "ÙĦÙĩ": 4745, "ľ×ķ×ĵ": 4746, "Ġ×ķ×Ķ×ĳ×": 4747, "Ġ×ķ×Ķ×Ĺ×": 4748, "Ġ×¡×ķ×ŀ×ļ": 4749, "Ġ×ľ×ķ×§×ķ": 4750, "Ġ×Ķ×¡×¦×ł×Ķ": 4751, "§×¡×ķ×Ŀ": 4752, "Ĵ×ľ×ķ×ª": 4753, "Ġ×ĳ×ĳ×Ĵ×Ĳ×ĸ": 4754, "Ġ×ŀ×Ĵ×ĸ×Ļ×Ŀ": 4755, "Ġ×ł×ª×ł×ķ": 4756, "Ġ×Ĳ×§×ĵ×Ĺ": 4757, "×Ķ×Ķ×Ķ×Ķ": 4758, "rael": 4759, "ĠOnly": 4760, "oke": 4761, "ĳ×ķ×¨×Ķ": 4762, "ŀ×¢×ª": 4763, "Ġ×Ĳ×§×Ĺ": 4764, "Ľ×ľ×ľ": 4765, "Ġ×©×ł×ª×Ļ×Ļ×Ŀ": 4766, "Ġ×Ľ×ľ×Ĳ": 4767, "Ġ×Ļ×Ļ×Ł": 4768, "ĵ×§×Ķ": 4769, "Ġ×ķ×ŀ×Ļ×": 4770, "Ġ×ª×ª×Ĺ×": 4771, "Ġ×ª×¡×ª×": 4772, "ĳ×ķ×¦×Ķ": 4773, "Ġ×¤×¡×": 4774, "Ġ×¤×Ĺ×ĵ": 4775, "Ġ×§×¨×Ĳ×ķ": 4776, "×Ļ×¨×ķ": 4777, "§×ķ×¤×Ķ": 4778, "Ġ×Ķ×ŀ×ĸ×": 4779, "Ġ×ĳ×Ļ×ł×Ļ×ł×ķ": 4780, "¡×Ļ×£": 4781, "Ġ×ŀ×ª×¨×Ĵ×©": 4782, "Ġsk": 4783, "Ġsing": 4784, "Ġ×ĸ×ķ×Ŀ": 4785, "Ġ×ĸ×ĸ×Ļ×Ŀ": 4786, "Ġ×ĺ×¨×Ļ×": 4787, "Ġ×ĺ×ĵ×Ļ": 4788, "Ġ×©×ŀ×¡×": 4789, "×Ĳ×ŀ×ª": 4790, "ittle": 4791, "Ġ×¤×ķ×¨×": 4792, "¡×ĺ×ķ×ª": 4793, "Ġgu": 4794, "¤×Ļ×¢": 4795, "Ġ×ľ×Ķ×ª×ł×": 4796, "Ġ×ŀ×ĳ×¡×ķ×": 4797, "Ġ×ł×Ļ×§×Ĺ": 4798, "ĠØ¨Ø¯": 4799, "Ġunder": 4800, "Ġ×ĺ×Ļ×¤×ķ×ª": 4801, "Ġ×Ķ×¦×ľ×": 4802, "Ġ×¨×Ļ×Ĺ": 4803, "ĠCh": 4804, "Ġ×ª×¨×ĳ×ķ×ª": 4805, "§×ķ×ķ×ª": 4806, "Ġ×ª×ľ×ķ×Ļ": 4807, "¤×ª×Ļ×Ļ×Ŀ": 4808, "Ġ×ª×§×ķ×¤×Ķ": 4809, "ump": 4810, "¨×Ľ×Ļ×Ļ×Ŀ": 4811, "Ġ×ŀ×ľ×Ĺ×ŀ×ª": 4812, "?!,": 4813, "×ĵ×ķ×": 4814, "ľ×ĳ×ĺ": 4815, "Ġ×Ĳ×Ĵ×Ļ×ĵ": 4816, "Ġ×Ķ×¡×Ļ×ĳ×Ķ": 4817, "¨×¤×ª": 4818, "¨×ĳ×Ł": 4819, "Ġ×ŀ×ľ×Ļ×ķ×Ł": 4820, "Ġ×ĳ×¦×ķ×": 4821, "Ĺ×¤×Ļ×Ŀ": 4822, "Ĺ×§×ª": 4823, "×Ķ×¤×ļ": 4824, "Ġ×ł×¡": 4825, "¢×ķ×¨×": 4826, "ĺ×ł×Ķ": 4827, "×Ļ×¨×Ļ": 4828, "Ġturn": 4829, "Ġ×ľ×Ķ×¤×Ļ×ľ": 4830, "Ġ×ĳ×Ļ×ĵ×Ļ": 4831, "Ġ×¦×¢×ĵ": 4832, "Ġ×ĺ×¢×Ļ×Ŀ": 4833, "Ġ×©×Ļ×¨×ķ×ĺ×ķ": 4834, "Ġ×Ķ×¤×Ľ×ª×Ļ": 4835, "Ġ×Ĳ×ł×Ĳ": 4836, "Ġ×ŀ×¢×¦×": 4837, "Ġ×¡×Ļ×§×¡×ĺ": 4838, "Ġ×ľ×ķ×§×Ķ": 4839, "Ġ×ķ×ľ×©×": 4840, "Ġ×Ķ×ĵ×Ĵ": 4841, "ĠØ¨ÙĨ": 4842, "ĠØ¨Ø¹": 4843, "ĠØ§ÙĦÙħ": 4844, "ĠØ§ÙĦØ¹": 4845, "Ġ×Ķ×Ķ×Ļ×Ĳ": 4846, "ĠÙĪÙĬÙĨ": 4847, "¡×ª×ķ×Ŀ": 4848, "Ġ×ŀ×ĺ×¨×Ķ": 4849, "Ĵ×Ļ×ķ×Ł": 4850, "Ġ×Ķ×Ľ×ķ×¡": 4851, "Ġlegal": 4852, "Ġ×ľ×Ķ×©×ª×ł×ķ×ª": 4853, "Ġ×ĸ×Ļ×Ľ×¨×ķ×Ł": 4854, "Ġ×¢×ł×ł×Ļ×Ŀ": 4855, "Ġ59": 4856, "¦×ĳ×¢×ķ×ª": 4857, "Ġ×ŀ×ĵ×Ķ×Ļ×Ŀ": 4858, "xy": 4859, "©×Ļ×Ĳ": 4860, "×Ľ": 4861, "×¨×Ļ×": 4862, "ĵ×ķ×¨×Ļ×Ŀ": 4863, "Ķ×Ķ": 4864, "×Ķ×ķ×Ĳ": 4865, "ľ×ĸ": 4866, "Ġ×Ĳ×ĵ×": 4867, "Ġ×ľ×ĳ×Ķ": 4868, "Ľ×ł×ķ": 4869, "¨×ĳ×Ķ": 4870, "Ġ×©×ĳ×Ļ": 4871, "Ġ×Ľ×¨×ĺ×Ļ×¡": 4872, "ĵ×ĵ×Ļ×Ŀ": 4873, "Ġ×ķ×ª×Ļ×": 4874, "ĸ×ł×Ļ×ķ×ª": 4875, "Ġ×Ĳ×Ļ×ĸ×Ļ": 4876, "Ġ×Ĺ×¡": 4877, "Ġ×Ĺ×¡×": 4878, "Ġ×Ĺ×ľ×ĳ": 4879, "Ġ×Ĳ×ķ×¡×£": 4880, "Ġ×ĵ×ŀ×": 4881, "Ġ×Ĳ×Ĺ×¨×ķ×Ł": 4882, "Ġ×ŀ×Ķ×Ľ×": 4883, "Ġ×ŀ×Ķ×§×": 4884, "Ġ×ĸ×ĳ×ľ": 4885, "Ġ×ĺ×¢×ķ×Ļ×ķ×ª": 4886, "Ġ×Ķ×ĳ×ł×Ļ×Ŀ": 4887, "×Ĳ×¡": 4888, "Ġ×©×Ļ×¢×": 4889, "Ġ×Ķ×¤×Ĳ×": 4890, "ŀ×Ļ×ĵ×Ķ": 4891, "itch": 4892, "¤×¨×Ļ×Ķ": 4893, "Ġthese": 4894, "Ġ×ŀ×¢×©×ł×Ļ×Ŀ": 4895, "Ġ×ľ×Ĳ×ĳ": 4896, "Ġ×Ĺ×Ļ×Ķ": 4897, "Ġgal": 4898, "Ġ×§×ķ×¨": 4899, "Ġ×ľ×§×Ĺ": 4900, "Ġ×©×ª×ĵ×¢": 4901, "Ġ×ķ×ĳ×ľ×Ļ": 4902, "Ġ×Ķ×¢×ł×Ļ×Ļ×Ł": 4903, "Ġ×ł×ŀ×©×Ļ×ļ": 4904, "Ġ×ĺ×ķ×¡": 4905, "×ª×Ĵ×Ļ×ĵ": 4906, "Ġen": 4907, "Ġ×Ļ×ķ×¦×Ĳ×Ļ×Ŀ": 4908, "×§×¨×Ļ×ĸ×Ķ": 4909, "Ĳ×¨×Ĵ×Ł": 4910, "Ġ×Ķ×ľ×©×ķ×Ł": 4911, "Ġ×Ķ×©×Ļ×¨×Ļ×Ŀ": 4912, "ľ×ĺ×ª×Ļ": 4913, "Ġ×ĳ×ŀ×ķ×¢×ĵ×ķ×Ł": 4914, "×ĵ×ľ×ª": 4915, "Ġass": 4916, "Ġ×ŀ×¡×ª×Ľ×ľ×Ļ×Ŀ": 4917, "Ġ×Ĺ×ĵ×©×Ķ": 4918, "Ġ×ŀ×ł×Ļ×Ĳ×§": 4919, "Ġ×Ĺ×Ļ×¤×©×ª×Ļ": 4920, "ike": 4921, "×¡×Ļ×": 4922, "×¢×Ļ×ł×Ļ×Ļ×Ŀ": 4923, "ľ×¦×Ķ": 4924, "ľ×ł×ĵ": 4925, "Ġ×Ĳ×ĵ×Ļ×": 4926, "Ġ×Ķ×ĳ×ľ": 4927, "Ġ×ŀ×¦×Ļ×": 4928, "Ġ×ĳ×Ĵ×ķ×": 4929, "Ġ×ĳ×Ĺ×Ļ×Ļ": 4930, "ł×ĸ": 4931, "Ĺ×ĵ×ª": 4932, "¤×Ĺ": 4933, "Ĵ×ĸ": 4934, "Ġ×ŀ×Ļ×§×Ļ": 4935, "ĺ×ľ×Ķ": 4936, "Ġ×Ĳ×Ļ×Ľ×ķ×ª": 4937, "Ġ×¢×ķ×£": 4938, "Ġ×¤×ª×Ĺ×ª×Ļ": 4939, "Ġ×§×ł×": 4940, "Ġ×Ĺ×ŀ×Ķ": 4941, "Ġ×Ĵ×ĸ×": 4942, "§×ķ×£": 4943, "Ĺ×Ļ×ķ×ļ": 4944, "©×Ļ×ª×Ļ": 4945, "Ġ×¦×Ĳ": 4946, "Ġ×ĸ×ĸ×Ķ": 4947, "Ġ×Ķ×©×ł×Ļ×Ŀ": 4948, "§×Ļ×£": 4949, "Ġ×Ķ×ĳ×ª": 4950, "×ķ×ķ×ķ": 4951, "Ġthere": 4952, "Ġ×¡×ķ×ĵ": 4953, "Ġfall": 4954, "¨×§×ķ×ª": 4955, "Ľ×Ļ×ª×Ļ": 4956, "Ġgirl": 4957, "Ġ×Ķ×¡×¤×¨": 4958, "ĠØ§ÙĨ": 4959, "Ġ×ŀ×ĳ×ĺ×Ļ×Ĺ": 4960, "Ġits": 4961, "Ġ×Ķ×Ĳ×ķ": 4962, "Ġ×Ķ×Ĳ×Ļ×©": 4963, "Ġ×Ķ×Ĳ×Ķ×ĳ×Ķ": 4964, "Ġ×Ķ×Ĳ×ķ×¨×ķ×ª": 4965, "§×Ĺ×ķ": 4966, "Ġ×Ĺ×ĳ×¨×ķ×ª": 4967, "Ġ×Ĳ×ľ×¤×Ļ×Ļ×Ŀ": 4968, "Ġ×ĳ×ĵ×ľ×ª": 4969, "×ķ×ķ×Ļ×ĸ×Ļ×Ķ": 4970, "Ġ×Ķ×ĺ×¨×Ĳ×§": 4971, "Ġ×§×Ĳ×©×Ļ": 4972, "ĠØ£ÙĨØ§": 4973, "Ġlook": 4974, "Ġ×ķ×§×Ŀ": 4975, "Ġ×¨×Ĵ×©×ķ×ª": 4976, "Ġ×Ķ×ķ×¤×Ľ×Ļ×Ŀ": 4977, "Ĳ×Ķ×ĳ": 4978, "Ġ×©×ľ×Ļ×ĺ×Ķ": 4979, "Ġ×©×ª×Ļ×ª×Ļ": 4980, "Ġ×ĳ×Ĳ×ľ×Ļ×ĺ×ķ": 4981, "ÑĮ": 4982, "ĠX": 4983, "×Ļ×ķ×ķ×": 4984, "ľ×Ľ×Ļ×Ŀ": 4985, "Ġ×Ĳ×ĸ×": 4986, "Ġ×Ĳ×ĳ×Ł": 4987, "Ġ×ľ×ĳ×ķ×": 4988, "Ġ×Ķ×ľ×Ľ×ª": 4989, "¨×Ĵ×ľ": 4990, "¢×ľ×Ļ×Ļ×Ŀ": 4991, "Ġ×ĳ×¤": 4992, "Ġ×¢×ĳ×¨×ł×ķ": 4993, "Ġ×ķ×ľ×Ĺ×": 4994, "¨×ķ×Ĵ": 4995, "×Ļ×Ļ×ł×Ļ×Ŀ": 4996, "Ġ×¢×ķ×¦×Ŀ": 4997, "Ġ×¢×ķ×ŀ×ĵ×Ļ×Ŀ": 4998, "Ġ×Ĵ×¨×ķ×ĳ": 4999, "Ġ×¡×ĵ×¨": 5000, "Ġ×¡×ĺ×ķ×¤": 5001, "¨×Ļ×¡×ĺ": 5002, "Ġ×Ķ×ŀ×ĳ×": 5003, "Ġ×ĸ×¨": 5004, "Ġ×ĳ×Ĳ×ĵ": 5005, "Ġ×ŀ×¡×ª": 5006, "×ķ×ķ×Ļ": 5007, "Ġ×ķ×Ķ×Ĳ×": 5008, "Ġ×ķ×Ķ×ª×": 5009, "Ġ×Ķ×¨×ĳ": 5010, "Ġ×ľ×Ĳ×Ĺ×ķ×¨": 5011, "ĸ×ķ×ŀ×Ł": 5012, "Ġ×Ķ×¢×¨×ĳ": 5013, "Ġ×ª×Ļ×Ľ×ł×¡": 5014, "Ġ×Ļ×©×ŀ×ķ×¨": 5015, "Ġ×Ķ×Ķ×Ļ×": 5016, "×ķ×ķ×Ļ×¥": 5017, "ĠÐ½": 5018, "¡×ª×ĵ×¨": 5019, "Ġ×ŀ×ĺ×¢×Ł": 5020, "Ġ×©×¨×ŀ×ķ×ĺ×Ķ": 5021, "Ġ×ŀ×Ĵ×Ļ×¢×Ļ×Ŀ": 5022, "Ġ×©×§×ľ×Ļ×Ŀ": 5023, "Ġ×Ļ×©×¨×Ĳ×ľ×Ļ": 5024, "osa": 5025, "Ġ×ł×©×Ĳ×¨×Ļ×Ŀ": 5026, "Ġ×Ľ×©×Ķ×ķ×Ĳ": 5027, "×ľ×Ļ×Ļ×Ł": 5028, "Ġclub": 5029, "Ġ×¤×ľ×Ļ×ĸ": 5030, "¨×Ĳ×ķ×ł×ĵ": 5031, "rough": 5032, "ull": 5033, "×ª×Ŀ": 5034, "×ĵ×ĳ×¨": 5035, "ĠÑĤ": 5036, "ĵ×Ļ×¨": 5037, "©×ĳ×ª×Ļ": 5038, "¨×§×": 5039, "¨×¤×Ļ×Ŀ": 5040, "Ġ×ŀ×¦×Ļ×Ĳ×ķ×ª": 5041, "Ġ×©×§×¨": 5042, "Ġ×Ľ×ľ×ľ": 5043, "§×¥": 5044, "×ķ×ª×Ļ×Ŀ": 5045, "Ġ×¢×¥": 5046, "¡×ŀ×Ļ×Ŀ": 5047, "Ġ×ķ×ª": 5048, "Ġ×ª×ĵ×ľ×Ļ×§": 5049, "ĳ×Ļ×ĵ": 5050, "ĺ×ľ×": 5051, "Ġ×¤×ľ×Ļ×Ļ": 5052, "Ġ×Ĺ×Ĳ×¨×ĺ×Ĳ": 5053, "Ġ×¡×§×ķ×ľ": 5054, "Ġtown": 5055, "¨×Ļ×ĺ": 5056, "Ġ×ĵ×¨×Ļ×": 5057, "Ġ×Ľ×ķ×©×¨": 5058, "Ġ×Ľ×ķ×ľ×Ł": 5059, "Ġmoney": 5060, "Ġ×ł×ķ×Ĵ×¢": 5061, "Ġ×§×ķ×ł×": 5062, "ł×¡×ķ": 5063, "Ġ×ŀ×¡×ª×ķ×ĳ×": 5064, "¨×Ĵ×Ļ×Ķ": 5065, "ĺ×ķ×Ĺ": 5066, "Ġ×¨×Ĳ×©×Ļ×Ŀ": 5067, "Ġ×Ľ×©×Ĳ×Ļ×Ł": 5068, "Ġ×Ķ×Ĵ×¢×ł×ķ": 5069, "ĺ×Ļ×§×": 5070, "Ġput": 5071, "Ġ×ľ×Ķ×ª×Ĳ×": 5072, "Ġ×Ķ×Ľ×ĳ×ķ×ĵ": 5073, "Ġ×ŀ×ĳ×ľ×Ļ": 5074, "ĠAr": 5075, "Ľ×¨×ķ": 5076, "ution": 5077, "ĠMan": 5078, "Ġ×ĳ×Ĳ×ķ×ĸ×Ł": 5079, "Ġ×Ķ×ĸ×ķ": 5080, "Ġ×©×Ĺ×§×Ł": 5081, "Ġ×ĳ×Ĳ×Ļ×ŀ×Ĳ": 5082, "Ġ×ŀ×ĸ×Ļ×Ļ×Ł": 5083, "Ġpeace": 5084, "Ġ×ľ×Ķ×ª×Ĺ×ľ×Ķ": 5085, "Ġ×Ĵ×ĵ×ľ×ª×Ļ": 5086, "Ġ×¨×Ĵ×Ļ×ľ": 5087, "©×ł×ŀ×Ł": 5088, "ca": 5089, "×ĵ×Ļ×": 5090, "×ľ×Ĳ×": 5091, "×ĸ×Ļ": 5092, "ĸ×Ļ×ª": 5093, "ŀ×ķ×¨×Ķ": 5094, "×Ļ×ª×Ļ": 5095, "ľ×¦": 5096, "ª×¨×ķ×Ł": 5097, "Ġ×ĳ×Ĵ×Ł": 5098, "Ġ×©×¢×ľ": 5099, "Ġ×ķ×ķ×Ĳ": 5100, "ĵ×¨×ķ×Ł": 5101, "Ġ×ķ×ª×Ł": 5102, "Ġ×Ļ×¤×": 5103, "Ġ×Ļ×ĸ×": 5104, "Ġ×Ļ×Ĵ×Ļ×ĵ": 5105, "Ġ×©×ķ×¨×Ķ": 5106, "¨×ķ×¦×Ļ×Ŀ": 5107, "Ġ×ł×Ĳ": 5108, "Ġ×ł×¦×Ĳ": 5109, "¢×ķ×ľ": 5110, "Ġ×¨×ĺ×ķ×ĳ": 5111, "×Ļ×Ļ×¡×": 5112, "Ġ×¤×¢×ŀ×Ļ×Ŀ": 5113, "Ġ×Ĵ×ľ×Ĵ×ľ": 5114, "Ġ×¡×Ĺ×ĳ×§": 5115, "Ġ×ŀ×ķ×ĳ×Ł": 5116, "ŀ×ķ×¨×ª": 5117, "Ġ×Ķ×ŀ×ł×Ĵ×Ļ×ł×Ķ": 5118, "Ġ×ĳ×Ļ×Ĵ×Ļ×ĵ×Ļ": 5119, "Ġ×©×ķ×ľ×Ĺ": 5120, "Ġsl": 5121, "¤×ķ×£": 5122, "Ġ×ŀ×Ļ×ķ×Ŀ": 5123, "Ġ×¦×ĳ×Ĳ": 5124, "Ġ×Ķ×Ĳ×£": 5125, "Ġbaby": 5126, "ans": 5127, "Ġ×ŀ×Ļ×©×Ķ×Ļ": 5128, "×ŀ×¡×": 5129, "ish": 5130, "Ġ×©×Ķ×Ļ×Ļ×ª×Ļ": 5131, "Ġ×Ķ×ĳ×Ļ×ĺ×Ļ×Ŀ": 5132, "Ġ×ŀ×¤×¨×§": 5133, "ĠÙħØ±": 5134, "Ġ×ķ×ĳ×Ľ×ľ": 5135, "Ġthink": 5136, "ĠMy": 5137, "Ġ×ŀ×Ĳ×ķ×©×¨": 5138, "Ġ×¨×Ļ×Ļ×": 5139, "Ġ×ľ×ĸ×¨×ķ×§": 5140, "Ġ×Ĳ×Ĺ×ķ×ª×ļ": 5141, "Ġ×Ĳ×Ĺ×ķ×©×¨×ŀ×ķ×ĺ×Ķ": 5142, "Ġ×§×Ļ×ĳ×ľ×ª": 5143, "Ġ×Ĳ×¨×ķ×ļ": 5144, "Ġ×Ľ×Ķ×Ķ": 5145, "Ġ×ª×ľ×ŀ×ĵ": 5146, "Ġ×Ĺ×ª×ķ×ľ": 5147, "ĳ×Ļ×Ļ×©": 5148, "Ġ×ŀ×ª×ľ×ĳ×©": 5149, "ooty": 5150, "Ġ×ª×¢×ĸ×ĳ×ķ": 5151, "sel": 5152, "viv": 5153, "×©×Ķ": 5154, "×Ĳ×Ł": 5155, "×©×Ļ×ĺ": 5156, "Ø«": 5157, "ÙĲ": 5158, "Ķ×ķ": 5159, "ŀ×Ļ×Ķ": 5160, "ĳ×ª×Ŀ": 5161, "©×ł×ª×Ļ": 5162, "©×ĳ×ķ×Ł": 5163, "Ġ×Ķ×ª×Ļ×§": 5164, "Ľ×ŀ×Ķ": 5165, "¨×Ĺ×Ļ": 5166, "¢×ľ×Ŀ": 5167, "ª×ľ": 5168, "Ġ×ŀ×ª×Ķ": 5169, "Ġ×ŀ×ł×Ĵ×Ļ×ł×Ķ": 5170, "Ġ×ĳ×Ĵ×Ļ×": 5171, "Ġ×©×ŀ×Ļ×Ļ×Ŀ": 5172, "Ġ×ķ×Ļ×Ļ×ĳ": 5173, "Ġ×ķ×ĺ×": 5174, "Ġ×ķ×ľ×ķ×": 5175, "¦×¨×Ķ": 5176, "Ġ×Ĳ×Ļ×ĳ×ĵ×ª×Ļ": 5177, "Ġ×ŀ×ķ×¢×": 5178, "Ġ×Ķ×ŀ×¦×": 5179, "Ġ×ĳ×ķ×ĵ×Ļ": 5180, "Ġ×ĳ×ķ×Ľ×Ļ×Ŀ": 5181, "Ġ×ŀ×Ķ×¦×ĵ": 5182, "Ġ×ľ×ŀ×§×¡×Ļ×ŀ×ķ×Ŀ": 5183, "Ġ×ĳ×©×¨": 5184, "ĵ×Ļ×¢": 5185, "Ġ×§×Ļ×ľ×ķ×": 5186, "ÙħØ©": 5187, "Ġ×ĳ×¡×ļ": 5188, "Ġ×Ĵ×ķ×¨×": 5189, "Ġ×ĳ×¢×¦×ŀ×Ļ": 5190, "alama": 5191, "Ġ×¤×Ļ×¡": 5192, "ven": 5193, "Ġ×ł×Ĵ×ŀ×¨×ª": 5194, "×Ľ×ŀ×ķ": 5195, "Ġ×ª×Ĺ×ĸ×ķ×¨": 5196, "Ġ×ª×ª×ł×ķ": 5197, "Ġ×ĳ×ł×ĸ×ķ×ł×Ķ": 5198, "Ġ×ŀ×¡×ª×ĵ×¨": 5199, "Ġ×ª×ĳ×Ļ×Ĳ×Ļ": 5200, "Ġ×ľ×ķ×§×Ĺ×Ļ×Ŀ": 5201, "Ġ×ł×Ļ×ķ": 5202, "Ġ×ŀ×ķ×Ľ×¨×Ļ×Ŀ": 5203, "ilver": 5204, "Ġ×ŀ×ª×Ĵ×¢×Ĵ×¢": 5205, "ĠWhat": 5206, "Ġbring": 5207, "×Ļ×¨×Ļ×§×¡": 5208, "Ġ×ľ×Ĺ×Ļ×Ļ×ļ": 5209, "Ġ×Ļ×ĵ×ķ×¢": 5210, "×Ĵ×Ŀ": 5211, "×ľ×Ķ×": 5212, "Ġ×ľ×Ľ×Ļ": 5213, "Ġ×ľ×¢×ķ×ĵ": 5214, "Ľ×ľ×¡": 5215, "¨×ĳ×¢": 5216, "Ġ×ŀ×Ĵ×¢": 5217, "ł×ļ": 5218, "§×ĳ×ķ×ª": 5219, "Ĵ×ľ×Ķ": 5220, "Ĵ×ĵ×Ķ": 5221, "Ĵ×¢×ķ×Ł": 5222, "Ġ×ŀ×Ļ×ľ×ķ×": 5223, "Ġ×©×ķ×ķ×Ļ×Ķ": 5224, "Ġ×ł×Ĵ×Ł": 5225, "ĸ×Ĳ×ĸ×ľ": 5226, "Ġ×Ĳ×Ļ×¨×ķ×¤×Ķ": 5227, "Ġ×¡×ŀ×": 5228, "Ġ×¨×ķ×©×Ŀ": 5229, "Ġ×ĵ×Ĵ": 5230, "Ġ×ĳ×ķ×Ĺ×¨": 5231, "ł×Ļ×ŀ×Ļ": 5232, "Ġwar": 5233, "Ġ×ĸ×ŀ×¨": 5234, "Ġ×Ķ×©×ŀ×": 5235, "Ġ×Ķ×©×Ľ×ķ×ł×Ķ": 5236, "§×Ļ×ª": 5237, "Ġ×ľ×ŀ×ĵ": 5238, "Ġ×ľ×ŀ×¡×Ļ×ĳ×Ķ": 5239, "ond": 5240, "Ġdat": 5241, "Ġ×Ķ×ĳ×ł×Ļ×Ļ×Ł": 5242, "Ġ×¡×ķ×ĳ×": 5243, "Ġ×Ķ×ª×ŀ×": 5244, "Ġ×ŀ×Ļ×¡×ĺ×¨": 5245, "Ġ×ľ×¢×ĳ×ķ×¨": 5246, "Ġ×Ķ×Ĺ×ĸ×Ķ": 5247, "Ġ×ķ×ŀ×¢×": 5248, "×ŀ×Ĳ×": 5249, "ĺ×Ļ×ŀ×Ļ": 5250, "iss": 5251, "Ġ×ŀ×ĳ×§×": 5252, "alal": 5253, "Ġ×ľ×¡×ª×ķ×Ŀ": 5254, "Ġ×ª×Ĺ×©×ķ×ĳ": 5255, "Ġ×ľ×Ķ×Ļ×Ľ×ł×¡": 5256, "¦×Ļ×ķ×Ł": 5257, "Ġrun": 5258, "Ġ×Ļ×¢×¦×ķ×¨": 5259, "Ġ×©×ķ×ª×Ļ×Ŀ": 5260, "×Ĳ×Ļ×¤×Ķ": 5261, "Ġ×Ĵ×¨×©×ł×ŀ×Ł": 5262, "Ġ×ŀ×ĵ×ķ×ĳ×¨": 5263, "Ġ×¡×ķ×Ĺ×ĳ": 5264, "Ġ×©×ŀ×Ļ×©×Ķ×ķ": 5265, "ool": 5266, "Ġ.": 5267, "Ġ×Ĳ×ł×ķ": 5268, "Ġ×ľ×ª×ķ×": 5269, "Ġ×ľ×§×Ļ×": 5270, "Ġ×ĳ×Ĵ×ķ×£": 5271, "§×£": 5272, "Ĵ×¨×": 5273, "Ġ×ª×ł×ķ×": 5274, "Ġ×ª×Ĵ×Ļ×¢": 5275, "Ġ×Ļ×ŀ×ĳ×Ķ": 5276, "×ķ×¨×ķ": 5277, "Ľ×ķ×ł×ª": 5278, "ĳ×ķ×§×Ļ×Ŀ": 5279, "Ġ×§×Ĺ×ķ": 5280, "Ġ×¡×§×Ļ×": 5281, "Ġ×¡×Ĵ×ķ×¨": 5282, "Ġ×Ļ×ķ×¦×Ĳ×ª": 5283, "Ġte": 5284, "Ġ×¨×ķ×Ł": 5285, "Ġ×ľ×Ķ×Ĵ×©×Ļ×Ŀ": 5286, "Ø§Ø¯": 5287, "Ġ×ŀ×ķ×Ĺ×": 5288, "Ġ×ŀ×ª×ľ": 5289, "ľ×Ļ×¤×ķ×ª": 5290, "Ġ×©×ķ×Ĺ×Ķ": 5291, "Ġ×ŀ×©×ª": 5292, "Ġ×ł×ķ×ª×¨": 5293, "Ġ×ĸ×§×Ł": 5294, "Ġ×ĺ×§": 5295, "Ġ×ĳ×©×Ŀ": 5296, "Ġ×Ķ×ĳ×Ĳ×¡": 5297, "Ġ×Ķ×ĳ×Ĳ×ł×ķ": 5298, "Ġ×Ķ×¤×ĸ×ŀ×ķ×Ł": 5299, "Ġ×Ķ×ª×ŀ×ķ×ł×Ķ": 5300, "Ġ×ľ×Ĳ×ĳ×ĵ": 5301, "¡×ĺ×ķ×¨×Ļ": 5302, "Ġname": 5303, "Ġ×ŀ×§×ľ×Ļ×ĺ": 5304, "Ġ×ª×©×Ľ×Ĺ": 5305, "Ġ×ŀ×ĳ×Ĺ×ł×Ķ": 5306, "ĠShe": 5307, "Ġ×©×ª×ª×": 5308, "Ġ×¤×Ļ×¦×ķ×¥": 5309, "Ġ×¦×ķ×¨×Ĺ": 5310, "Ġ×¦×ķ×Ĺ×§": 5311, "×ª×ŀ×Ļ×ĵ": 5312, "ª×Ĺ×¨×¨": 5313, "Ġstr": 5314, "Ġdid": 5315, "Ġrosa": 5316, "Ġ×Ĺ×Ļ×ł×Ŀ": 5317, "×ŀ×Ļ×Ļ×§": 5318, "Ġ×¢×Ļ×§×©": 5319, "ł×Ķ×Ĵ": 5320, "Ġ×ŀ×Ļ×Ļ×¦×": 5321, "Ġ×ŀ×©×ª×ł×Ķ": 5322, "Ġ×ŀ×ĸ×Ļ×ĸ×Ķ": 5323, "Ġ×ŀ×ķ×Ľ×¨×ª": 5324, "Ġhold": 5325, "Ġ×¢×ľ×Ļ×Ľ×Ŀ": 5326, "Ø°Ø§": 5327, "ĠIsrael": 5328, "Ġsaid": 5329, "×ķ×ł×Ĵ×ľ": 5330, "Ġ×¦×ľ×Ļ×ľ×Ļ×Ŀ": 5331, "?\"\",": 5332, "ook": 5333, "Ö¸": 5334, "×¢×ĵ": 5335, "×¡×Ļ×ĸ": 5336, "Ùİ": 5337, "Ĵ×ķ×¨×Ķ": 5338, "Ľ×Ļ×ľ": 5339, "Ġ×Ĳ×ŀ×ķ×ł×Ķ": 5340, "Ġ×Ĳ×¢×©×Ķ": 5341, "Ġ×ľ×ĺ×ķ×ĳ": 5342, "Ġ×¢×¨×¡": 5343, "¡×Ĳ×": 5344, "¡×Ĵ×¨": 5345, "Ġ×ŀ×Ļ×Ł": 5346, "Ġ×ķ×ª×ķ×": 5347, "Ġ×ķ×Ľ×©": 5348, "×Ķ×¨": 5349, "¢×ķ×Ŀ": 5350, "Ġ×Ĳ×Ļ×ª×Ł": 5351, "Ġ×¢×ķ×©×ķ×ª": 5352, "Ġ×§×ľ×Ķ": 5353, "Ġ×Ĺ×ĳ×Ļ×ĳ×Ļ": 5354, "Ġ×¡×ĺ×Ļ×": 5355, "×Ļ×Ķ×ł": 5356, "§×ķ×©": 5357, "Ġ×¨×ķ×ĳ": 5358, "¨×Ļ×Ĳ": 5359, "Ġ×Ķ×ŀ×¡×Ļ×ĳ×Ķ": 5360, "Ġ×Ķ×ŀ×ĺ×¨×Ķ": 5361, "¨×Ĳ×ľ×Ļ": 5362, "Ġ×©×ķ×ĺ×¨": 5363, "ÙĬØ©": 5364, "Ġ×ł×ķ×Ĺ×ª": 5365, "Ġ×§×ķ×ł×Ļ×Ŀ": 5366, "©×ķ×ľ": 5367, "Ġ×Ķ×©×Ĳ×¨": 5368, "Ġ×Ķ×Ĳ×§×": 5369, "Ġ×ĺ×¨×Ĳ×": 5370, "Ġdis": 5371, "Ġ×Ķ×ĳ×Ĵ×ĵ×Ļ×Ŀ": 5372, "Ġ×ľ×©×Ĺ×¨×¨": 5373, "ĵ×¢×Ķ": 5374, "Ġ×ŀ×ŀ×ł×ķ": 5375, "×ŀ×©×Ķ×ķ": 5376, "×³,": 5377, "Ġ×Ķ×§×ĺ×Ł": 5378, "Ġpus": 5379, "Ĳ×ľ×ª": 5380, "ÙħØ§": 5381, "Ġ×ķ×ľ×ŀ×Ķ": 5382, "Ġthan": 5383, "Ġthing": 5384, "Ġ×ľ×¡×Ĵ×ķ×¨": 5385, "Ġ×©×ĳ×©×": 5386, "ĠWhen": 5387, "imes": 5388, "×¤×Ĳ×§": 5389, "Ġright": 5390, "Ġwhile": 5391, "Ġ×ŀ×ĵ×ĳ×Ļ×§": 5392, "Ġ×Ķ×ª×Ĺ×ľ×ł×ķ": 5393, "Ġ×Ķ×§×Ļ×¨": 5394, "Ġ×ŀ×Ĺ×Ļ×Ļ×ļ": 5395, "Ġ×ŀ×Ĵ×Ļ×ľ": 5396, "Ø§ÙħØ±": 5397, "ŀ×Ķ×¨": 5398, "ction": 5399, "Ġ×Ĵ×ĵ×ķ×ľ×Ļ×Ŀ": 5400, "×Ļ×Ķ×ł×ķ×Ŀ": 5401, "fore": 5402, "¨×Ļ×ķ×ª": 5403, "×Ĺ×ĵ": 5404, "×ķ×§": 5405, "×ķ×Ķ×": 5406, "ľ×§×ª": 5407, "ŀ×¦×Ĳ": 5408, "ĳ×ĵ×ª": 5409, "Ġ×Ĳ×ĳ×ķ×ª": 5410, "Ġ×Ķ×ĺ×ķ×": 5411, "¢×ĵ×Ķ": 5412, "Ĺ×ł×ª×Ļ": 5413, "¤×©×Ļ×Ŀ": 5414, "Ġ×Ľ×ľ×Ľ×": 5415, "§×ł×ķ×ª": 5416, "Ĵ×ł×Ļ×Ŀ": 5417, "Ġ×ķ×ľ×Ĳ×": 5418, "Ġ×Ļ×ĳ×Ļ×Ł": 5419, "Ġ×Ļ×¤×Ļ×Ŀ": 5420, "ľ×Ļ×Ļ×ĺ": 5421, "Ġ×ł×Ĵ×Ļ×¢": 5422, "Ġ×¤×ł×Ļ": 5423, "Ġ×¤×¨×Ķ": 5424, "Ġ×¡×ŀ×ľ": 5425, "§×ķ×ľ×ĵ": 5426, "Ø§ÙĨØ§": 5427, "Ġ×Ĳ×ľ×Ļ×Ķ": 5428, "Ġ×ĳ×ķ×¢×¨×ª": 5429, "Ġ×ŀ×ª×¢×ķ×¨×¨": 5430, "Ġ×ŀ×ª×Ľ×ķ×ķ×Ł": 5431, "Ġ×Ĺ×ķ×ª×": 5432, "ounce": 5433, "Ġ×ŀ×©×ĺ×¨×Ķ": 5434, "Ġ×ŀ×¡×¢": 5435, "Ġ×Ķ×ĳ×ŀ×ķ×ª": 5436, "Ġ×ľ×©×Ľ×ķ×ł×Ķ": 5437, "×Ĳ×Ļ": 5438, "Ġ×ŀ×ŀ×ľ×Ĳ": 5439, "Ľ×Ļ×ĳ": 5440, "Ġ×ĵ×ķ×Ĺ×£": 5441, "Ġ×Ķ×Ĵ×Ĵ": 5442, "ĺ×Ļ×ł×Ķ": 5443, "ŀ×¢×Ļ×Ŀ": 5444, "¡×Ļ×ķ×Ł": 5445, "Ġ×ŀ×§×¡×Ļ×ŀ×ķ×Ŀ": 5446, "Ġ×ŀ×ĳ×©×ľ": 5447, "omet": 5448, "Ġ×ŀ×¤×¨×": 5449, "ł×§×Ļ": 5450, "Ġ×Ķ×¢×ĺ": 5451, "Ġ×ĵ×Ļ×Ĵ×Ļ": 5452, "Ġ×ŀ×¨×Ĺ×ķ×§": 5453, "Ġ×©×Ļ×©×Ļ×Ŀ": 5454, "ª×Ļ×¢×": 5455, "uth": 5456, "Ġ×ķ×Ľ×ĳ×¨": 5457, "Ġ×Ķ×ĺ×§×¡×ĺ": 5458, "Ġ×©×ľ×ķ×©×Ķ": 5459, "Ġ×ŀ×ĸ×ŀ×Ļ×Ł": 5460, "×Ĳ×ķ×ľ×Ļ": 5461, "ĠÙĬØ¹": 5462, "Ġ×ŀ×ĺ×ķ×¡": 5463, "Ġ×Ķ×¨×Ĵ×©×ª×Ļ": 5464, "Ġ×§×ķ×¤×¦×Ļ×Ŀ": 5465, "Ġ×¨×¢×©": 5466, "Ġ×ŀ×ķ×§×£": 5467, "Ġ×ŀ×ķ×§×ĵ×Ŀ": 5468, "isten": 5469, "Ġ×¡×ª×Ľ×ľ": 5470, "Ġ×Ĳ×ĳ×ķ×ĵ×Ļ×Ŀ": 5471, ")\"": 5472, "av": 5473, "me": 5474, "×©×ķ×ĳ": 5475, "ľ×ŀ×Ļ": 5476, "ľ×ŀ×ª×Ļ": 5477, "ĳ×¡": 5478, "ĳ×¢×ª×Ļ": 5479, "Ġ×ľ×ĳ×ķ×©": 5480, "Ġ×Ķ×ľ×ķ×": 5481, "Ġ×Ķ×ŀ×ķ×ķ×ª": 5482, "Ġ×ŀ×ł×Ļ": 5483, "Ġ×ŀ×¨×§": 5484, "Ġ×ĳ×ĸ×ķ×": 5485, "Ġ×ĳ×¤×Ļ×ł×Ķ": 5486, "Ġ×©×¤×Ķ": 5487, "ł×ĵ×¨×": 5488, "Ĺ×¨×ª": 5489, "¡×ļ": 5490, "Ĵ×ª×Ļ": 5491, "Ġ×ķ×ľ×Ķ": 5492, "ĳ×Ļ×¨×Ļ×Ŀ": 5493, "Ġ×ł×ª×Ĺ×Ļ×ľ": 5494, "ĸ×¨×Ļ": 5495, "Ľ×ķ×¨×ª": 5496, "ĳ×ķ×¥": 5497, "Ġ×Ĳ×ķ×Ł": 5498, "Ġ×Ĵ×Ĳ×ķ×Ł": 5499, "×Ļ×§×ķ×ª": 5500, "Ġ×ľ×Ķ×¤×": 5501, "Ġ×Ľ×ķ×ĳ×¢": 5502, "Ġ×ĳ×Ļ×¡": 5503, "ÙĬÙĬ": 5504, "Ġ×ŀ×Ķ×ª×": 5505, "ÙĦØª": 5506, "Ġ×¦×ĵ×§": 5507, "Ġ×Ķ×ķ×¨×Ĵ": 5508, "Ġ×ĺ×Ĺ×ł×ª×Ļ": 5509, "Ġlittle": 5510, "Ġ×ľ×Ĳ×ľ×ľ×Ķ": 5511, "Ĵ×Ļ×ľ×Ķ": 5512, "Ġ×ķ×ķ×ľ": 5513, "Ø±ÙĪ": 5514, "Ġ×ľ×Ķ×ª×ĳ×": 5515, "Ġ×ĺ×ķ×¤×Ĳ×§": 5516, "Ġ×ĳ×ķ×Ļ×Ļ×": 5517, "Ġ×©×ł×Ļ×ķ×ª": 5518, "ĠÐ²": 5519, "ĠÐ¼": 5520, "¢×¨×ķ×ª": 5521, "×§×ľ×Ĳ×": 5522, "Ġ×Ĺ×©×ĳ×ª": 5523, "×ĳ×Ļ×Ļ": 5524, "×ł×ł×Ķ": 5525, "Ġ×¨×Ļ×Ļ×ĳ": 5526, "ľ×Ķ×ĳ×ķ×ª": 5527, "Ġ×ŀ×ĸ×¨×Ĺ": 5528, "×Ĳ×ķ×§×Ļ×Ļ": 5529, "Ġ×©×¢×ķ×ĳ×¨": 5530, "ĠJump": 5531, "Ġ×Ļ×©×¨×Ĳ×ľ×Ļ×Ŀ": 5532, "×Ĳ×Ķ×Ķ": 5533, "Ġ×ŀ×Ľ×ķ×ł×Ļ×ķ×ª": 5534, "Ġ×ŀ×¨×Ļ×ŀ×Ļ×Ŀ": 5535, "Ġ×Ĺ×ĵ×©×ķ×ª": 5536, "Ġ×ľ×ķ×Ĺ×Ŀ": 5537, "Ġ×ĳ×ª×ķ×Ľ×Ļ": 5538, "Ġ×ĸ×ķ×¨×ŀ×Ļ×Ŀ": 5539, "Ġ×ª×§×©×Ļ×ĳ×ķ": 5540, "Ġ×¤×ķ×ľ×Ļ×ĺ×Ļ×§×": 5541, "Ġ×Ķ×Ļ×Ĺ×Ļ×ĵ×Ķ": 5542, "fuck": 5543, "Ĺ×Ļ×Ķ": 5544, "Ĺ×Ļ×©": 5545, "Ĳ×¨×Ļ": 5546, "ľ×§×": 5547, "Ġ×Ķ×¨×ķ×ĳ": 5548, "Ġ×Ķ×Ĺ×Ļ×": 5549, "Ġ×ŀ×ĳ×Ļ×ĺ": 5550, "Ġ×ĳ×ł×ķ": 5551, "Ĺ×Ĺ": 5552, "¤×ĺ×Ļ×Ŀ": 5553, "¤×¢×Ķ": 5554, "Ġ×Ľ×¤×Ļ×Ļ×Ŀ": 5555, "Ġ×ľ×Ļ×ĵ×Ļ": 5556, "¡×Ł": 5557, "¡×§×Ķ": 5558, "Ĵ×¨×Ļ": 5559, "Ġ×ķ×¦×": 5560, "Ġ×Ĺ×¤×©": 5561, "Ġ×Ĳ×ķ×¨×": 5562, "¨×Ļ×ŀ×Ķ": 5563, "Ġ×Ľ×ķ×Ĺ×ķ×ª": 5564, "Ġ×Ķ×ŀ×Ĵ×": 5565, "Ġ×Ķ×ŀ×¡×¨": 5566, "Ġ×§×ķ×¡×": 5567, "ŀ×Ļ×¡": 5568, "Ġ×ĸ×Ĳ×ĳ": 5569, "Ġ×©×Ļ×ĵ×ĳ×¨": 5570, "Ġ×©×Ķ×©×Ļ×ĺ": 5571, "Ġche": 5572, "Ġ×Ķ×Ĵ×ľ": 5573, "Ġhigh": 5574, "Ġ×ĳ×¢×¨×ļ": 5575, "¡×§×ķ": 5576, "Ġ×ľ×¦×¢×ķ×ĵ": 5577, "Ġex": 5578, "Ġ×Ķ×Ĳ×ķ×ĺ×ķ": 5579, "ł×Ļ×Ļ×Ĳ×§": 5580, "Ġ×¢×Ļ×©×ł×ª×Ļ": 5581, "Ġ×ŀ×ĺ×ķ×¨×£": 5582, "Ġ×Ĳ×ĵ×Ļ×¨": 5583, "Ġ×ŀ×©×¤×ĺ": 5584, "Ġwords": 5585, "oya": 5586, "Ġ×Ķ×¨×ķ×ķ×": 5587, "Ġ×¤×¡×Ļ×Ľ×Ļ": 5588, "Ġ×©×ŀ×©×ª×": 5589, "Ġ×¢×ľ×Ļ×ª×Ļ": 5590, "Ġ×ŀ×¦×ľ×¦×ľ": 5591, "iddle": 5592, "×ŀ×Ł": 5593, "×¨×Ķ": 5594, "×ĳ×Ļ": 5595, "ĠV": 5596, "×Ļ×ĳ×Ļ×Ŀ": 5597, "ľ×§×Ķ": 5598, "ľ×ŀ×ĵ": 5599, "ĳ×ľ×Ļ": 5600, "Ġ×ľ×ĵ": 5601, "Ġ×ľ×ĳ×Ļ×": 5602, "¨×ł×ĺ": 5603, "ª×¢": 5604, "Ġ×ŀ×ĵ×Ļ×": 5605, "Ġ×©×Ĳ×Ļ": 5606, "Ĺ×©": 5607, "Ĺ×ľ×ª": 5608, "¡×Ľ×ľ": 5609, "¡×¤×¨": 5610, "Ġ×ª×ĵ×Ĳ×Ĵ": 5611, "ĸ×ª×Ļ": 5612, "ĸ×ĳ×ª": 5613, "Ġ×Ĳ×ķ×ľ": 5614, "×Ļ×ĵ×ķ×": 5615, "Ġ×Ļ×ķ×¡×Ļ": 5616, "Ġ×¨×ķ×ŀ×": 5617, "Ġ×ľ×Ķ×¨×": 5618, "Ġ×ĳ×Ļ×ŀ×Ļ×Ŀ": 5619, "ľ×Ļ×¤×Ļ×Ŀ": 5620, "Ġ×©×ķ×Ľ×Ĺ×Ļ×Ŀ": 5621, "×ķ×ķ×§×Ĳ": 5622, "Ġ×ŀ×Ķ×ĳ×Ļ×": 5623, "Ġ×ŀ×Ķ×ŀ×ķ×": 5624, "Ġmother": 5625, "Ġ×§×ķ×¨×¢": 5626, "Ġ×Ķ×©×¢×ķ×Ł": 5627, "Ġ×ŀ×¡×¨": 5628, "Ġ×ĳ×©×ĳ×ķ×¢": 5629, "Ġ×ł×©×Ľ×Ĺ": 5630, "¨×Ĵ×Ķ": 5631, "Ġ×ľ×¢×ĸ×ķ×ĳ": 5632, "Ġ×ĸ×ķ×Ĵ": 5633, "ĳ×¢×Ļ×Ŀ": 5634, "Ĵ×ķ×Ĵ": 5635, "Ġ×ĵ×ķ×ŀ×Ķ": 5636, "Ġ×ĵ×ķ×§×ĺ×ķ×¨": 5637, "Ġ×Ķ×§×¨×ĳ": 5638, "Ġ×Ķ×§×¨×Ĳ×§": 5639, "Ġ×ľ×Ĺ×¥": 5640, "Ġ×ŀ×§×ĳ×ľ×Ļ×Ŀ": 5641, "Ġ×©×Ķ×ķ×": 5642, "Ġ×ł×Ļ×Ĵ×©×ª×Ļ": 5643, "Ġ×Ĵ×ķ×¦": 5644, "Ġ×ª×§×ľ×ķ×ĺ": 5645, "Ġ×ª×Ļ×Ĵ×¢": 5646, "Ġ×¦×ķ×ĳ×¨": 5647, "Ġ×Ĳ×ľ×Ľ×ķ×Ķ×ķ×ľ": 5648, "Ġ×ķ×Ķ×Ļ×ķ×Ŀ": 5649, "Ø´ÙĬ": 5650, "Ġ×ł×Ĺ×©×ĳ": 5651, "ady": 5652, "Ġ×ĳ×Ĳ×ķ×ĺ×ķ": 5653, "ĠØ¹Ùħ": 5654, "Ø§ÙĦÙĬ": 5655, "¤×¨×ł×¡": 5656, "Ġgetting": 5657, "Ġ×Ľ×ł×¤×Ļ×Ļ×Ŀ": 5658, "Ġ×Ķ×Ľ×Ļ×£": 5659, "Ġ×Ķ×¤×¨×¦×ķ×£": 5660, "Ġ×Ĳ×Ķ×ĳ×ª": 5661, "Ġ×¡×Ļ×Ļ×ŀ×ª×Ļ": 5662, "Ġ×§×ķ×ľ×ĺ×Ļ×Ŀ": 5663, "âĢ¦,": 5664, "Ġeyes": 5665, "get": 5666, "ik": 5667, "ĠÑ": 5668, "×ķ×ķ×Ĳ": 5669, "×Ļ×ľ×ĵ": 5670, "ľ×¢": 5671, "ĳ×ľ×ª×Ļ": 5672, "Ġ×Ĳ×ĳ×Ļ": 5673, "Ġ×ľ×ĺ×ķ×¤": 5674, "Ġ×Ķ×Ĺ": 5675, "Ġ×ŀ×¦×ķ×": 5676, "Ġ×ŀ×ĳ×Ļ×ª": 5677, "Ġ×ĳ×ŀ×Ļ×Ŀ": 5678, "Ġ×ĳ×¤×ķ×ľ": 5679, "¤×ª×Ŀ": 5680, "¤×ĺ×Ļ": 5681, "Ġ×Ľ×ĳ×": 5682, "Ġ×¢×¦×ķ×¨": 5683, "ĵ×¤×": 5684, "ĵ×ł×Ķ": 5685, "Ġ×Ļ×ĳ×": 5686, "Ġ×©×ķ×ķ×": 5687, "Ġ×¨×ĵ": 5688, "×Ļ×Ļ×ł×ķ": 5689, "Ĺ×ķ×©": 5690, "Ġ×Ĵ×ĵ×Ļ": 5691, "Ġ×¨×ķ×ª×Ĺ": 5692, "Ġ×ľ×Ķ×Ľ×ł×Ļ×¡": 5693, "¨×Ļ×¢": 5694, "Ġ×ĳ×ķ×Ĳ×ł×Ķ": 5695, "inal": 5696, "Ġ×Ĺ×ķ×ĸ×Ķ": 5697, "Ġmu": 5698, "ount": 5699, "Ġ×¦×ľ×ķ×ľ": 5700, "Ġ×§×ķ×§": 5701, "Ġdance": 5702, "×Ĳ×ĳ×Ļ×ĳ": 5703, "Ġ×©×Ļ×ł×Ļ×Ļ×Ŀ": 5704, "×ķ×ķ×Ļ×ĵ": 5705, "Ġ×ķ×Ķ×Ł": 5706, "Ġ×ŀ×Ļ×ľ×Ļ": 5707, "Ġ×ĸ×ķ×Ķ×¨": 5708, "Ľ×Ļ×¡": 5709, "Ľ×Ļ×Ĺ": 5710, "Ġ×§×Ļ×Ļ×": 5711, "Ġ×§×Ķ×ľ": 5712, "Ġ×¡×Ļ×¤×ķ×¨×Ļ×Ŀ": 5713, "Ġtoo": 5714, "ĠØ¨Ø§Ø¨": 5715, "ĠTel": 5716, "Ġ×ķ×ĳ×¡×ķ×£": 5717, "Ġ×ĵ×Ļ×ĳ×ķ×¨×Ļ×Ŀ": 5718, "Ġ×ĳ×¤×¨×": 5719, "Ġ×ľ×¡×¨×ĺ": 5720, "Ġ×ĺ×ķ×¨×£": 5721, "ª×Ļ×ĳ×Ķ": 5722, "Ġ×Ļ×ľ×ĵ×ķ×ª": 5723, "×ķ×ķ×Ļ×ł×Ķ": 5724, "imp": 5725, "Ġ×ĳ×ĳ×Ĳ×": 5726, "Ġ×Ľ×©×Ļ×©": 5727, "ĠDo": 5728, "ĠHow": 5729, "Ġ×ŀ×ľ×Ĳ×Ķ": 5730, "Ġ×ĳ×¢×Ļ×Ł": 5731, "Ľ×ł×¢": 5732, "Ġ×ŀ×ª×§×ĵ×Ŀ": 5733, "Ġ×ķ×§×Ĳ×©": 5734, "Ġ×ł×ĵ×ĳ×§": 5735, "Ġ×©×¤×¨×Ļ×¥": 5736, "Ġ×ŀ×©×Ĺ×¨×¨": 5737, "ston": 5738, "Ġ×ª×Ľ×ł×Ļ×¡": 5739, "Ġ×ĳ×Ľ×ķ×Ĺ": 5740, "Ġ×©×§×ķ×£": 5741, "ĠKing": 5742, "Ġ×ĳ×¡×Ļ×ĳ×ķ×ĳ": 5743, "Ġ×Ľ×Ĳ×¤×Ķ": 5744, "Ġ×ŀ×ĳ×¡×ķ×ĺ": 5745, "?)": 5746, "?\"\"": 5747, "zy": 5748, "¡×ķ": 5749, "¡×ķ×Ŀ": 5750, "×¤×ķ×": 5751, "Ĳ×ķ×¨": 5752, "ĵ×Ļ×©": 5753, "Ġ×ľ×©×ķ×Ł": 5754, "Ġ×Ķ×¦×¨×ķ×ª": 5755, "Ľ×ľ×Ļ": 5756, "Ľ×ł×Ķ": 5757, "Ľ×ŀ×ª": 5758, "¨×¨×Ļ×Ŀ": 5759, "¨×Ĺ×ª": 5760, "¢×ĵ×Ļ×Ŀ": 5761, "ª×ł×Ļ×Ŀ": 5762, "Ġ×ĳ×ĺ": 5763, "Ġ×ĳ×ĳ×ķ×Ŀ": 5764, "Ġ×©×ļ": 5765, "§×ĳ×ľ": 5766, "Ġ×¢×Ľ×": 5767, "Ĵ×ľ×Ĵ×ľ": 5768, "Ġ×ª×ŀ×Ļ×": 5769, "¦×ł×Ļ×Ŀ": 5770, "¢×ķ×ĺ": 5771, "ĺ×ĳ×Ĺ": 5772, "Ġ×Ĳ×Ļ×ĺ×Ļ": 5773, "Ġ×Ĺ×ĸ×Ļ×¨": 5774, "Ĺ×ķ×ĺ": 5775, "ľ×Ĳ×ķ": 5776, "Ġ×¨×ķ×§": 5777, "Ġ×Ľ×ķ×ª×ĳ×Ļ×Ŀ": 5778, "Ġ×ĳ×Ļ×©×¨×Ĳ×ľ": 5779, "ł×Ļ×¢": 5780, "Ġ×Ĺ×ķ×§×Ļ": 5781, "×ķ×ķ×Ĳ×Ł": 5782, "¤×ķ×¦": 5783, "ÙĬØ¯": 5784, "©×ķ×£": 5785, "Ġ×ľ×ŀ×Ľ×ķ×¨": 5786, "Ġ×Ķ×ĳ×Ĳ×Ķ": 5787, "Ġ×©×ŀ×Ĺ×Ķ": 5788, "ree": 5789, "Ġ×¡×ķ×Ĵ": 5790, "Ġ×Ķ×Ĺ×ĵ×©": 5791, "Ġ×¤×ķ×¤": 5792, "Ġ×¤×ķ×Ĺ×ĵ": 5793, "Ġ×¤×ķ×§×¡": 5794, "Ġ×¨×Ĳ×¡×ĺ×Ķ": 5795, "Ġ×Ľ×©×Ľ×ķ×ľ×Ŀ": 5796, "Ġ×Ľ×©×Ĳ×ł×": 5797, "Ġ×Ķ×Ļ×ª×¨": 5798, "¤×ª×ķ×¨": 5799, "ØªØ¨": 5800, "Ġ×ĳ×¡×ª×¨": 5801, "Ġ×Ĵ×ķ×ł×ĳ": 5802, "ĠAviv": 5803, "Ġ×ķ×ĳ×©×": 5804, "Ġ×¦×ķ×ľ×ľ": 5805, "Ġ×ľ×ł×Ĺ×ķ×ª": 5806, "Ġ×ĺ×ķ×§": 5807, "Ġ×ª×ª×¤×": 5808, "Ġ×ł×Ĺ×ŀ×Ķ": 5809, "Ġlive": 5810, "Ġ×ł×Ľ×ł×¡×Ļ×Ŀ": 5811, "Ġ×ª×ŀ×©×Ļ×ļ": 5812, "Ġ×©×ľ×Ĺ": 5813, "Ġ×ŀ×ª×ķ×§×Ļ×Ŀ": 5814, "Ġ×ŀ×ķ×©×Ĵ": 5815, "Ġjud": 5816, "Ġ×Ķ×¦×ķ×ķ×Ĳ×¨": 5817, "Ġ×©×Ĺ×ķ×¨×Ļ×Ŀ": 5818, "Ġ×ĳ×ĸ×ŀ×ł×Ļ×Ŀ": 5819, "Ġ×ŀ×ķ×Ľ×ł×Ļ×Ŀ": 5820, "Ġ×ª×¦×ľ×Ļ×Ĺ×ķ": 5821, "Ġ×Ĳ×ĵ×ķ×Ł": 5822, "Ġ×Ķ×¤×¡×§×ª×Ļ": 5823, "Ġ×ľ×ķ×Ĺ×¥": 5824, "Ġ×©×ĳ×ķ×¢×Ļ×Ļ×Ŀ": 5825, "ĳ×Ĳ×ĳ×Ĳ×": 5826, "Ġ×ŀ×¨×Ļ×Ĺ×ķ×ķ×Ļ×ł×Ķ": 5827, "Ġ×ľ×¡×ķ×ĳ×ĳ": 5828, "Ġ×ª×§×©×Ļ×ĳ×Ļ": 5829, "ĳ×¢×ĳ×¢×": 5830, "Ġaround": 5831, "Ġ×Ĺ×ŀ×Ļ×©×Ļ×Ŀ": 5832, "ait": 5833, "ier": 5834, "ric": 5835, "ving": 5836, "¢×Ļ×ľ": 5837, "Ð´": 5838, "×Ĵ×ķ": 5839, "Ġown": 5840, "ŀ×Ĳ×¡": 5841, "¢×ª×Ŀ": 5842, "Ġ×©×ĳ×¨": 5843, "ł×¡×": 5844, "ł×ĵ×Ļ×": 5845, "ł×¦×Ĺ": 5846, "Ġ×Ľ×¡×": 5847, "§×ĳ": 5848, "Ġ×¢×¨×ļ": 5849, "Ġ×¢×¤×Ļ×Ŀ": 5850, "Ġ×ķ×ĸ×Ĳ×ª": 5851, "Ġ×ª×©×ķ×": 5852, "×Ķ×ĳ×Ļ": 5853, "Ġ×Ļ×¨×ĵ": 5854, "Ġ×©×Ļ×¨×Ķ": 5855, "ĸ×ª": 5856, "Ġ×ª×ķ×ķ×ª×¨": 5857, "×Ļ×Ļ×ª×Ķ": 5858, "Ġ×Ĳ×ķ×¤×¡": 5859, "×Ļ×ĵ×Ļ×ķ×": 5860, "Ġ×ľ×Ķ×¡×ª×Ľ×ľ": 5861, "Ġ×ŀ×ķ×ł×ķ×": 5862, "Ġ×Ľ×ķ×©×Ļ×Ŀ": 5863, "Ġ×ĳ×Ļ×ĺ×Ĺ×ķ×Ł": 5864, "Ġ×Ĺ×ķ×¤×¨": 5865, "Ġ×Ĺ×ķ×ŀ×ķ×ª": 5866, "Ġ×Ĺ×ķ×ĵ×©": 5867, "Ġ×©×ķ×Ĳ×£": 5868, "©×Ļ×Ĵ": 5869, "ÙĬÙģ": 5870, "ÙĦØ¨": 5871, "Ġwin": 5872, "Ġ×ĸ×ŀ×ł×Ļ×Ŀ": 5873, "Ġ×ĺ×¨×Ļ": 5874, "Ġ×Ķ×ĳ×Ĳ×Ļ×Ŀ": 5875, "×Ĳ×ŀ": 5876, "Ġ×Ķ×¤×¨×Ĺ×Ļ×Ŀ": 5877, "Ġ×ľ×©×ľ×Ŀ": 5878, "©×ĳ×Ļ": 5879, "Ġ×¡×ķ×¤×¨×": 5880, "Ġ×ľ×¢×ĸ×Ĳ×ĸ×ľ": 5881, "Ġ×ľ×ĳ×§×©": 5882, "Ġ×ķ×ķ×Ĳ×§": 5883, "Ġ×ķ×ķ×ĵ×§×Ķ": 5884, "Ġpos": 5885, "ÙĪØ¯": 5886, "Ġ×ĳ×§×¦×ĳ": 5887, "×Ļ×ķ×ł×ķ×ª": 5888, "Ġ×ĳ×Ĺ×¦×ķ×": 5889, "lease": 5890, "Ġ×Ĳ×Ĺ×ķ×Ļ×Ķ": 5891, "Ġ×ł×ª×§×": 5892, "ĠNot": 5893, "Ġ×ŀ×ĺ×¤×¡": 5894, "Ġ×Ķ×ĳ×ķ×¡": 5895, "Ø¬ÙĬ": 5896, "Ġ×ŀ×¤×ķ×§×ķ×¡": 5897, "ÑĤÐ¾": 5898, "Ġ×ŀ×ĸ×ķ×ŀ×ł×Ļ×Ŀ": 5899, "×Ļ×ľ×Ļ×ł×Ĵ": 5900, "Ĺ×Ļ×ª×ķ×ª": 5901, "Ľ×ķ×ķ×ł×Ķ": 5902, "¤×ľ×§×¡": 5903, "Ġ×Ķ×ķ×ķ×Ļ×ĵ": 5904, "ĵ×ŀ×ł×ķ×ª": 5905, "Ġhands": 5906, "ĠÙĬØ¹ÙĨÙĬ": 5907, "Ġ×ĳ×©×ĳ×ķ×¢×Ļ×Ļ×Ŀ": 5908, "!!,": 5909, "bel": 5910, "ect": 5911, "row": 5912, "¤×Ķ×": 5913, "Ø¦": 5914, "ŀ×ŀ×": 5915, "ŀ×ĳ×ķ": 5916, "ŀ×¤×¨×Ļ×Ķ": 5917, "Ġ×Ķ×ķ×¨×Ļ×ĵ": 5918, "©×¢×Ļ×Ŀ": 5919, "Ġ×ľ×¢×Ļ×¨": 5920, "Ġ×Ķ×Ĺ×ķ×Ŀ": 5921, "Ľ×¨×ª×Ļ": 5922, "ł×¥": 5923, "ł×ĺ×¨": 5924, "Ġ×¢×¨": 5925, "¡×ŀ×Ļ": 5926, "Ġ×ķ×Ĳ×Ł": 5927, "Ġ×ª×¤×¡": 5928, "Ġ×ª×©×ķ×ĳ×Ķ": 5929, "Ġ×Ļ×ĳ×Ļ×Ĳ": 5930, "Ġ×¨×¦×ķ×Ł": 5931, "Ġ×¤×Ŀ": 5932, "Ġ×¤×ĺ×": 5933, "Ġ×¤×ł×ĺ×": 5934, "Ġ×§×ĵ×ķ×": 5935, "Ġ×§×ľ×Ļ×ĺ": 5936, "Ġ×Ĳ×ķ×Ľ×ľ×ª": 5937, "Ġ×¤×Ļ×ľ": 5938, "×ķ×ĳ×Ļ×Ŀ": 5939, "Ġ×¡×ľ×Ĳ×": 5940, "Ġ×¡×¤×Ļ×": 5941, "§×ķ×ŀ×Ķ": 5942, "¨×Ļ×Ĺ×Ķ": 5943, "Ġ×ĵ×ĳ×©": 5944, "Ġ×ĺ×Ļ×Ļ×Ŀ": 5945, "Ġ×ŀ×ķ×¡×": 5946, "×Ļ×Ĳ×ķ×": 5947, "×Ļ×©×Ļ×ª": 5948, "Ġ×Ĺ×ķ×§": 5949, "Ġ×Ĺ×ķ×ª×Ŀ": 5950, "©×Ļ×ª×Ļ×¢×": 5951, "ł×Ĵ×Ķ": 5952, "Ġ×ĳ×Ĳ×§": 5953, "Ġ×ŀ×Ĺ×ľ×§": 5954, "Ġ×ľ×ŀ×¦×Ļ×Ĳ×ķ×ª": 5955, "Ġdes": 5956, "×Ĳ×£": 5957, "×ķ×ķ×Ļ×¨×Ķ": 5958, "ĺ×ķ×©": 5959, "Ġ×ķ×Ķ×¤×": 5960, "Ġca": 5961, "Ĵ×ķ×¢×Ļ×Ŀ": 5962, "ĺ×Ļ×ĳ×Ķ": 5963, "Ġ×ľ×Ľ×ĳ×ķ×©": 5964, "Ġ×ľ×Ĺ×ĳ×¨": 5965, "Ġ×ľ×Ķ×ª×ŀ×ķ×ĵ×ĵ": 5966, "Ġ×ŀ×¤×ª×Ĺ": 5967, "Ġ×ŀ×¤×Ĺ×ĵ×Ļ×Ŀ": 5968, "Ġthrough": 5969, "Ġ×ĳ×Ĵ×ĳ": 5970, "Ġ×Ļ×©×ł×Ļ×Ŀ": 5971, "ÙĥÙħ": 5972, "Ġ×ľ×¨×¦×ķ×ª": 5973, "ash": 5974, "Ø³Øª": 5975, "×¤×Ĳ×§×Ļ×ł×Ĵ": 5976, "Ġ×ĳ×ľ×ĳ×ľ": 5977, "×ķ×Ļ×ł×ĺ": 5978, "Ġ×ł×¤×ľ×ª×Ļ": 5979, "ĠLike": 5980, "Ġ×ŀ×¡×ķ×ĳ×": 5981, "Ġ×Ľ×©×Ķ×Ŀ": 5982, "×¡×ĳ×ĳ×Ķ": 5983, "Ġ×¢×ĳ×¨×Ļ×ª": 5984, "Ġ×¢×Ļ×Ļ×£": 5985, "Ġ×Ľ×ķ×¡×ķ×ª": 5986, "Ġ×Ľ×ŀ×ķ×ĳ×Ł": 5987, "Ġ×ĳ×ª×Ļ×Ŀ": 5988, "Ġ×Ĳ×©×Ľ×¨×Ķ": 5989, "Ġ×Ĳ×Ļ×ł×¢×ľ": 5990, "Ġ×¢×ĸ×ĳ×Ļ": 5991, "Ġ×Ĺ×ľ×©": 5992, "Ġ×Ķ×ķ×Ļ×Ļ×ĳ": 5993, "Ġ×Ĺ×Ļ×Ļ×ľ×Ļ×Ŀ": 5994, "Ġ×ŀ×©×Ĺ×§×ª": 5995, "Ġ×Ľ×©×Ķ×Ļ×Ĳ": 5996, "Ġleave": 5997, "age": 5998, "Ġ×Ľ×Ĳ×¤×ķ×ª": 5999, "Ġ×§×©×ķ×¨": 6000, "Ġ×ŀ×ł×Ķ×Ļ×Ĵ": 6001, "Ġ×ĵ×ķ×¤×§×ª": 6002, "Ġ×ĳ×ĵ×Ļ×¨×Ķ": 6003, "Ġ×ŀ×Ĳ×Ķ×ĳ×Ķ": 6004, "ĠSee": 6005, "ĠÙĦØ§Ø²": 6006, "Ġ×¡×Ļ×Ĵ×¨×Ļ×Ķ": 6007, "Ġ×Ķ×ĳ×Ĳ×¡×Ļ×Ŀ": 6008, "Ġ×ĳ×Ĺ×¦×ķ×¦×¨×Ķ": 6009, "hy": 6010, "×ĸ×ķ×": 6011, "×ł×Ļ×ª": 6012, "×Ļ×ł×Ļ": 6013, "ľ×ŀ×ķ": 6014, "ŀ×ł×Ļ×ª": 6015, "ŀ×ĵ×ª×Ļ": 6016, "Ġ×Ĳ×ł×Ķ": 6017, "Ġ×Ĳ×ĺ×ķ×Ŀ": 6018, "©×ŀ×ª×Ļ": 6019, "©×ŀ×ľ": 6020, "Ġ×ľ×ĳ×¨": 6021, "¨×ĵ×Ļ": 6022, "ª×ŀ×Ļ×ĵ": 6023, "ª×§×Ļ×Ŀ": 6024, "Ġ×ŀ×©×ķ×Ŀ": 6025, "ł×£": 6026, "Ġ×Ľ×ł×¡": 6027, "ĵ×ľ×Ķ": 6028, "Ĵ×Ĳ": 6029, "Ġ×ŀ×ķ×ķ×ª": 6030, "Ġ×ª×ŀ×ķ×ł×ķ×ª": 6031, "Ġ×Ļ×¤×ķ×ľ": 6032, "Ġ×ł×Ĺ×ª": 6033, "Ġ×ł×©×Ļ×ŀ×Ķ": 6034, "Ġ×Ĳ×Ļ×©×Ļ": 6035, "Ġ×Ĺ×Ł": 6036, "Ġ×Ĳ×ķ×©×¨": 6037, "Ġ×Ĵ×ŀ×ķ×¨": 6038, "ľ×Ĳ×Ļ": 6039, "Ġ×¡×¤": 6040, "Ġ×¡×ľ×ķ×": 6041, "Ġ×ľ×Ķ×¤×ķ×ļ": 6042, "Ġ×ĵ×ł×Ķ": 6043, "Ġ×ŀ×ķ×¦×": 6044, "Ġ×Ļ×©×Ļ×¨": 6045, "Ġ×Ķ×ŀ×ĸ×ľ": 6046, "Ġ×Ķ×ŀ×ª×Ĺ×¨×Ļ×Ŀ": 6047, "het": 6048, "¤×ķ×¨×¨": 6049, "Ġ×Ķ×ķ×¨×": 6050, "Ġ×Ķ×Ĳ×ŀ": 6051, "Ġ×ĺ×ľ×": 6052, "Ġ×ĺ×¤×ķ": 6053, "Ġ×ĳ×ŀ×¡×Ļ×ĳ×Ķ": 6054, "Ġ×ķ×Ĳ×ĳ×Ĳ": 6055, "Ġbig": 6056, "Ġ×ŀ×Ļ×ł×Ļ×ŀ×ķ×Ŀ": 6057, "Ġ×ŀ×¢×ľ×Ļ×Ļ": 6058, "¡×ĺ×ķ×Ł": 6059, "ĵ×¨×ķ×ª": 6060, "Ġ×Ķ×Ĵ×ĳ×ķ×ľ": 6061, "Ġ×§×Ļ×Ļ×§": 6062, "Ġ×Ķ×¡×Ĵ×ł×ķ×Ł": 6063, "¤×Ļ×ª×Ļ": 6064, "Ġpar": 6065, "Ġ×¤×Ĳ×ł×¦": 6066, "Ġ×ł×Ļ×¤×ķ×ľ": 6067, "Ġ×Ĵ×ķ×ĵ": 6068, "Ġmek": 6069, "Ġ×Ķ×¢×¡×§": 6070, "×ĳ×ľ×Ĳ×Ĵ×Ł": 6071, "Ġ×Ĵ×ĳ×¨×Ļ×Ŀ": 6072, "ĠâĢı,": 6073, "Ġ×ª×¢×©×Ļ": 6074, "Ġstep": 6075, "Ġ×ª×ª×ł×Ļ": 6076, "Ġ×¨×Ļ×ľ": 6077, "Ġ×¨×Ļ×ĺ×ķ": 6078, "Ġrap": 6079, "ĠHa": 6080, "Ġ×ª×¤×Ĺ×ĵ": 6081, "ĠLe": 6082, "ope": 6083, "Ġshould": 6084, "Ġ×Ĳ×ľ×ķ×Ķ×Ļ": 6085, "Ĳ×ŀ×¥": 6086, "Ġ×ŀ×©×ª×ĵ×ľ": 6087, "Ġ×ŀ×Ľ×ķ×ł×ª": 6088, "Ġ×Ķ×Ľ×Ļ×¡": 6089, "Ġ×©×Ĳ×ķ×ŀ×¨×Ļ×Ŀ": 6090, "Ġ×¢×ķ×§×ĳ": 6091, "Ġ×ľ×Ķ×Ĺ×ĸ×Ļ×§": 6092, "Ġ×©×©×ķ×ŀ×¢×Ļ×Ŀ": 6093, "Ġ×Ĵ×ĵ×ķ×ľ×Ķ": 6094, "Ġ×ķ×ĳ×Ļ×ł×ª×Ļ×Ļ×Ŀ": 6095, "Ġ×¨×¦×Ļ×ł×Ļ": 6096, "Ġ×Ĺ×ĺ×¤×ª×Ŀ": 6097, "¨×ķ×ŀ×ł×ĺ×": 6098, "Ġ×§×Ļ×ĺ×©×Ļ×ª": 6099, "Ġ×ĳ×ķ×Ļ×Ĳ×§×Ķ": 6100, "Ġ×¢×Ļ×ķ×ķ×¨": 6101, "Ġ×Ĳ×ĵ×Ļ×ĵ×¡": 6102, "self": 6103, "Ġ×Ľ×ľ×Ľ×ļ": 6104, "ny": 6105, "oh": 6106, "Ö¼": 6107, "×Ĺ×Ļ": 6108, "ŀ×Ļ×Ļ×Ł": 6109, "ľ×§×ľ": 6110, "Ġ×ľ×¤×Ļ×": 6111, "Ġ×ľ×©×ķ×Ŀ": 6112, "Ľ×ł×Ł": 6113, "Ġ×ŀ×Ĵ×Ļ×": 6114, "Ġ×ĳ×Ĺ": 6115, "Ġ×ĳ×ĺ×Ł": 6116, "Ġ×©×ĵ×ķ×": 6117, "Ġ×©×ŀ×ķ×¨": 6118, "Ġ×©×Ĺ×Ļ×": 6119, "Ġ×©×Ĺ×ķ×¨×Ķ": 6120, "ł×Ĺ": 6121, "¤×ł×ķ": 6122, "Ġ×Ľ×ĵ×ķ×¨×Ļ×Ŀ": 6123, "¡×ł×ķ": 6124, "Ĵ×ĳ×¨": 6125, "Ġ×ķ×Ĵ×ķ×": 6126, "Ġ×ķ×ĸ×ķ×": 6127, "Ġ×Ļ×ĳ×©": 6128, "Ġ×©×Ļ×Ĳ": 6129, "ĳ×Ļ×ľ×Ļ": 6130, "¨×ķ×¢×ķ×ª": 6131, "Ġ×ª×ķ×Ŀ": 6132, "Ġ×Ĺ×ľ×ľ": 6133, "Ġ×¡×ł×Ļ×": 6134, "Ġ×ŀ×ķ×¨×Ŀ": 6135, "¡×Ļ×¡": 6136, "¡×Ļ×ĳ×Ļ": 6137, "ines": 6138, "ľ×Ļ×¥": 6139, "Ġ×©×ķ×ľ×Ĺ×Ł": 6140, "Ġ×©×ķ×§×ķ×ľ×ĵ": 6141, "Ġ×ŀ×Ķ×ĳ×Ļ×ª": 6142, "Ġ×ĳ×Ĳ×Ŀ": 6143, "Ġ×ĺ×ĳ×¢": 6144, "Ġ×ĺ×¨×Ĳ×§": 6145, "Ġ×Ķ×ĳ×ł×Ļ": 6146, "Ġ×©×ŀ×¤×": 6147, "Ġ×ķ×Ķ×¡×": 6148, "Ġyo": 6149, "Ġ×Ķ×ª×Ĳ×": 6150, "Ġ×ľ×ĳ×ł×Ļ×Ŀ": 6151, "¨×§×ķ×Ł": 6152, "Ġ×¤×ķ×¨×©": 6153, "Ġ×Ķ×Ĵ×¨×ķ×ĳ": 6154, "ª×Ĺ×Ļ×ľ×ķ": 6155, "Ġ×©×Ĳ×¡×ķ×¨": 6156, "Ġpo": 6157, "Ġ×ľ×Ļ×ľ×ĵ×Ļ×Ŀ": 6158, "Ġ×ŀ×§×¦×ĳ×Ļ×Ŀ": 6159, "Ġ×Ķ×Ľ×ĳ×Ļ×©": 6160, "Ġ×ĳ×¢×ĳ×¨": 6161, "Ġ×©×ª×Ĺ×": 6162, "Ġ×ŀ×Ľ×ł×¡": 6163, "Ġ×ª×Ļ×Ľ×ķ×Ł": 6164, "ľ×ĺ×ķ×ª": 6165, "Ġ×ĺ×Ļ×¡×Ķ": 6166, "ĠBaby": 6167, "¨×ĵ×ķ×ª": 6168, "ĠÙĪØ¨": 6169, "Ġ×ł×Ļ×Ķ×Ļ×Ķ": 6170, "ĠYa": 6171, "Ġ×ķ×Ľ×ŀ×ķ": 6172, "ĠÐ±": 6173, "¨×Ĵ×¨×Ĳ×ķ×ł×ĵ": 6174, "Ġ×ĳ×Ķ×¤×": 6175, "ĠØ¹ÙĨ": 6176, "Ġwhy": 6177, "Ġ×§×ľ×Ĳ×¡×Ļ": 6178, "Ġ×ĳ×ŀ×Ļ×§×¨×ķ×¤×ķ×Ł": 6179, "¦×ķ×ķ×ª": 6180, "Ġ×ŀ×ĸ×ķ×ŀ×ł×Ļ": 6181, "×ĳ×Ļ×Ĵ": 6182, "ł×Ĵ×Ļ×ł×ķ×ª": 6183, "×Ļ×ľ×Ļ×¡×ĺ": 6184, "Ġplan": 6185, "Ġ×ĳ×Ĳ×ķ×ª×ķ": 6186, "Ġ×ľ×Ķ×ª×§×ĵ×Ŀ": 6187, "Ġfucking": 6188, "Ġ×ŀ×¦×ĺ×¢×¨": 6189, "illions": 6190, "Ġ×ľ×Ķ×Ĳ×ŀ×Ļ×Ł": 6191, "Ġ×ŀ×Ļ×Ļ×¦×Ĵ×Ļ×Ŀ": 6192, "no": 6193, "¡×Ļ×Ķ": 6194, "¤×Ļ×ľ×ķ": 6195, "Ø¡": 6196, "ĵ×Ļ×Ķ": 6197, "ŀ×Ļ×Ļ×§": 6198, "×ķ×Ĺ×ĵ": 6199, "×Ļ×ĳ": 6200, "×Ļ×ł×Ĵ": 6201, "ľ×Ĵ×Ł": 6202, "ĳ×§×©": 6203, "Ġ×ľ×ĳ×ľ×ķ×ª": 6204, "Ľ×ļ": 6205, "ª×¨×Ļ×Ŀ": 6206, "Ġ×ĳ×ĳ×¨": 6207, "Ġ×©×ĺ": 6208, "Ġ×©×ŀ×ķ×ª": 6209, "Ġ×©×ĸ×ķ×": 6210, "Ġ×©×ĺ×ķ×ª": 6211, "¤×ĸ": 6212, "¤×§×Ļ×Ŀ": 6213, "§×¦×Ļ×Ķ": 6214, "Ġ×¢×¦×Ķ": 6215, "Ġ×ķ×Ļ×Ļ×Ł": 6216, "¡×§×ķ×": 6217, "ĵ×ŀ×ª": 6218, "Ġ×Ļ×¡": 6219, "ĳ×Ļ×¡": 6220, "¨×ķ×¤": 6221, "ĺ×©": 6222, "Ġ×¤×¨×¡": 6223, "Ġ×¤×©×¢": 6224, "Ġ×Ĺ×ľ×ķ×Ł": 6225, "Ġ×¤×ķ": 6226, "Ġ×Ĵ×ľ×Ļ": 6227, "Ġ×Ĵ×¨×Ĳ×": 6228, "Ġ×¡×©×Ł": 6229, "Ġ×ĵ×¨": 6230, "ŀ×ķ×ĵ×Ļ×Ŀ": 6231, "Ġ×ĳ×Ļ×Ļ×ĳ": 6232, "Ġ×Ķ×ŀ×¤×": 6233, "int": 6234, "Ġ×ŀ×ª×¤×ķ×¦×¥": 6235, "ľ×Ļ×ł×Ĵ": 6236, "Ġ×Ĺ×ķ×ĵ×¨": 6237, "Ġsit": 6238, "Ġ×ŀ×Ķ×ŀ×Ļ×": 6239, "Ġ×ŀ×Ķ×ª×Ĺ×ľ×Ķ": 6240, "Ġmad": 6241, "ÙĦÙħ": 6242, "Ġ×ŀ×©×§×Ķ": 6243, "Ġwr": 6244, "Ġ×Ķ×©×Ĺ×ķ×¨": 6245, "Ġ×ĳ×Ĳ×ĳ×Ĳ": 6246, "§×Ļ×ľ×Ķ": 6247, "Ġ×©×Ļ×¤×Ļ×ľ": 6248, "Ġ×ķ×Ĳ×ł": 6249, "Ġ×ł×©×ĳ×ķ×¨": 6250, "Ġ×ł×©×¤×ļ": 6251, "Ġbooty": 6252, "Ġ×ķ×Ķ×Ĺ×Ļ×Ļ×Ŀ": 6253, "Ġ×ľ×Ĳ×ŀ×Ĳ": 6254, "Ġ×Ķ×Ĺ×¨×ķ×ĸ×Ļ×Ŀ": 6255, "¡×ĺ×ķ×¨": 6256, "Ġ×©×Ĳ×Ŀ": 6257, "Ġ×ľ×Ĺ×ĳ×¨×Ķ": 6258, "Ġ×ĳ×¨×§×¢": 6259, "¤×ª×Ļ×": 6260, "Ġ×ŀ×§×¤×Ļ×¥": 6261, "Ġ×ŀ×ĳ×Ĺ×Ļ×": 6262, "Ġ×ł×Ļ×ŀ×Ļ": 6263, "Ġ×ĳ×¢×ľ": 6264, "Ġ×Ĳ×Ĺ×Ļ×Ļ": 6265, "ĠØ§ÙĦØ´": 6266, "Ġ×¢×¦×ŀ×Ŀ": 6267, "ĠBr": 6268, "Ĵ×¨×ķ": 6269, "ĠWhere": 6270, "Ġ×ľ×Ĵ×Ĳ×ł×Ĵ": 6271, "Ġ×ľ×Ķ×Ļ×ľ×Ĺ×Ŀ": 6272, "ÙģÙĬ": 6273, "Ġ×ĳ×¦×ĳ×¢": 6274, "Ġ×Ļ×ľ×ĵ×Ļ": 6275, "Ġ×¦×ķ×¢×§×ª": 6276, "Ġtruth": 6277, "Ġ×ŀ×ķ×¦×Ĳ×Ļ×Ŀ": 6278, "Ġ×ĳ×¨×Ļ×Ĳ": 6279, "Ġ×Ĺ×Ļ×Ļ×ĳ×Ļ×Ŀ": 6280, "Ġ×Ĺ×ĵ×©×Ļ×Ŀ": 6281, "Ġ×ŀ×ª×ŀ×ľ×Ĳ": 6282, "Ġ×§×¨×Ļ×¡×": 6283, "Ġplace": 6284, "Ġ×¦×ĵ×Ļ×§×Ļ×Ŀ": 6285, "ĠWho": 6286, "Ġspe": 6287, "Ġ×ĳ×ª×Ĺ×ł×Ķ": 6288, "Ġ×ł×ķ×¡×¢×Ļ×Ŀ": 6289, "ĠEverybody": 6290, "Ġ×¤×¨×Ĳ×Ļ×Ļ×¨": 6291, "Ġ×ª×ĸ×Ļ×ĸ×Ļ": 6292, "Ġ×Ĺ×¨×Ļ×£": 6293, "Ġ×ŀ×ª×Ĺ×Ļ×ľ×Ļ×Ŀ": 6294, "×Ļ×ĵ×Ļ×ķ×ĺ×Ļ×Ŀ": 6295, "be": 6296, "×Ĺ": 6297, "×ĺ×ķ×": 6298, "×ĺ×Ļ×": 6299, "ØĮ": 6300, "Ġve": 6301, "Ĳ×Ĳ×": 6302, "ľ×§×¡": 6303, "Ġ×ľ×¨×ķ×": 6304, "Ġ×ľ×ĸ×ŀ×Ł": 6305, "Ġ×ľ×ĺ×Ļ×": 6306, "Ġ×Ķ×ŀ×Ļ": 6307, "Ġ×Ķ×§×ķ": 6308, "¢×¨×Ļ×Ŀ": 6309, "Ġ×ŀ×Ĵ×Ķ": 6310, "Ġ×ŀ×ĸ×ķ": 6311, "Ġ×ĳ×Ľ×Ļ": 6312, "Ġ×©×ŀ×ķ": 6313, "Ġ×¢×§×ķ×Ŀ": 6314, "Ĵ×ĵ×ľ": 6315, "Ġ×ķ×¡×Ļ×": 6316, "×Ķ×ľ×ķ": 6317, "Ġ×Ļ×§×ķ×Ŀ": 6318, "ľ×Ļ×Ļ×ľ×Ļ×¡×ĺ": 6319, "×ķ×¨×Ļ×": 6320, "Ġ×Ĳ×Ļ×ŀ×Ĳ": 6321, "Ġ×¢×ķ×Ĵ×Ķ": 6322, "Ġ×§×¤×": 6323, "Ġ×§×¨×Ļ×Ŀ": 6324, "Ġ×¤×Ļ×§": 6325, "Ľ×ľ×ķ": 6326, "Ġ×Ĵ×ĵ×ľ": 6327, "Ġ×ĵ×ĳ×Ļ×ľ": 6328, "Ġ×ŀ×ķ×ĸ×Ļ×": 6329, "Ġ×ĵ×ķ×Ł": 6330, "Ġ×Ķ×ŀ×ĺ×": 6331, "Ġ×Ķ×ŀ×©×ķ×": 6332, "Ġ×Ķ×ŀ×ĸ×¨×Ĺ": 6333, "ľ×Ļ×ľ×Ļ": 6334, "ľ×Ļ×ĺ×Ķ": 6335, "Ġ×Ĺ×ķ×ĳ×Ķ": 6336, "Ġ×Ĺ×ķ×ĳ×ķ×ª": 6337, "ª×ķ×ł×ķ×ª": 6338, "×ķ×ķ×ĵ×¨": 6339, "¤×ķ×§×Ļ×Ŀ": 6340, "Ġ×Ĵ×Ļ×ľ": 6341, "Ġ×ŀ×Ķ×ľ×ĳ": 6342, "Ġ×ł×ķ×©×Ĳ": 6343, "×Ļ×ķ×ķ×Ļ×": 6344, "Ġ×ŀ×¡×ļ": 6345, "Ġ×©×ŀ×©×Ķ×ķ": 6346, "Ġ×ľ×¤×Ĵ×ķ×¢": 6347, "Ġ×Ķ×¨×£": 6348, "Ġ×Ķ×¨×Ĺ×ķ×ĳ": 6349, "...),": 6350, "Ġ×ĸ×ķ×ĸ×Ļ": 6351, "Ġ×ŀ×¢×Ĵ×ľ": 6352, "Ĵ×ķ×ľ×Ķ": 6353, "Ġ×©×Ĳ×ŀ×¨": 6354, "Ġ×Ĳ×ŀ×¦×Ĳ": 6355, "Ġ×Ķ×§×©": 6356, "Ġ×ľ×Ĺ×ĳ×§": 6357, "Ġ×Ķ×¡×ĺ×": 6358, "Ġ×ľ×Ļ×Ĵ×Ķ": 6359, "Ġ×ľ×Ļ×ŀ×ĵ": 6360, "alu": 6361, "Ġ×ĳ×§×ľ×Ĳ×¡": 6362, "ĠØ¨Ø¯ÙĬ": 6363, "Ġ×ķ×ĳ×ª×": 6364, "Ġ×ª×Ļ×ł×ķ×§": 6365, "Ġ×¢×¦×ŀ×ķ": 6366, "Ġ×ł×ŀ×©×ļ": 6367, "Ġ×ķ×Ķ×Ļ×": 6368, "Ġ×Ķ×ŀ×ķ×¡×Ļ×§×Ķ": 6369, "Ġ×ł×ª×ª": 6370, "Ġ×ŀ×¡×ª×ĳ×¨": 6371, "ŀ×Ĳ×ķ×ª": 6372, "Ġ×ª×¤×¡×ª×Ļ": 6373, "ĠGot": 6374, "Ġ×ł×¨×§×ķ×": 6375, "Ġ×ł×Ļ×Ļ×¨": 6376, "Ġdoor": 6377, "Ġ×Ĳ×ĵ×Ļ×©": 6378, "ĠÙĩÙĬ": 6379, "Ġ×ł×ĸ×Ľ×¨": 6380, "Ġ×ŀ×ķ×§×ĵ×©": 6381, "thing": 6382, "Ġ×ĺ×§×¡×ĺ×Ļ×Ŀ": 6383, "Ġ×©×Ļ×©×ŀ×ķ×¨": 6384, "Ġkillin": 6385, "retty": 6386, "Ġmuch": 6387, "ĠKingston": 6388, "ber": 6389, "rom": 6390, "wo": 6391, "wan": 6392, "¢×Ļ×ª": 6393, "ł×Ļ×§×Ķ": 6394, "Ġ×Ĳ×§×¡×ķ×Ŀ": 6395, "Ġ×Ķ×¨×Ļ×Ŀ": 6396, "Ľ×£": 6397, "¨×©×ª": 6398, "¨×¤×ľ": 6399, "ł×Ĳ×": 6400, "ł×¦×": 6401, "Ĺ×ĸ": 6402, "¤×¨×ķ×Ł": 6403, "Ġ×Ľ×ł×Ķ": 6404, "Ġ×Ľ×ĳ×Ļ×©": 6405, "§×ł×Ļ": 6406, "§×ĺ×": 6407, "ĵ×©×Ļ×Ŀ": 6408, "Ġ×ķ×ĳ×ķ×Ĳ": 6409, "Ġ×Ĳ×ª×Ļ×ķ×": 6410, "×Ķ×©×": 6411, "Ġ×ľ×Ļ×Ļ×Ł": 6412, "¢×ķ×¨×Ļ×Ŀ": 6413, "ĺ×¤×Ļ×Ŀ": 6414, "Ľ×ķ×ł×ķ×ª": 6415, "Ľ×ķ×ľ×ª": 6416, "Ġ×¤×ł×ķ×": 6417, "Ġ×§×¢×": 6418, "Ġ×Ĵ×¨×Ĳ×¡": 6419, "Ġ×ŀ×Ķ×Ļ×ķ×Ŀ": 6420, "Ġ×¨×ķ×Ľ×ĳ": 6421, "Ġ×ĵ×¤×§": 6422, "Ø§Ø§": 6423, "Ġ×ĺ×Ļ×Ļ×§": 6424, "Ġ×ŀ×ķ×Ĺ": 6425, "Ġ×ŀ×ķ×¤×": 6426, "Ġ×ŀ×ķ×¡×¨": 6427, "¡×ķ×¡": 6428, "Ġ×Ķ×ŀ×Ĺ×¨": 6429, "Ġ×ĳ×Ļ×Ĵ×Ļ": 6430, "×Ļ×Ĳ×Ķ": 6431, "Ġ×ĳ×Ĳ×Ķ×ĳ×Ķ": 6432, "Ġ×©×ķ×Ľ×ĳ": 6433, "Ġ×©×ķ×ĺ×£": 6434, "Ġ×©×ķ×¨×©×Ļ×Ŀ": 6435, "¤×ķ×ĵ": 6436, "oul": 6437, "Ġ×¦×ŀ×": 6438, "Ġ×§×ķ×ĺ×Ĵ": 6439, "Ġwhere": 6440, "Ġ×ĳ×Ĳ×ĺ": 6441, "Ġ×ŀ×Ĺ×ĳ×¨": 6442, "Ġ×©×Ļ×ª×": 6443, "Ġ×Ķ×¤×ł×¨": 6444, "Ġ×ķ×Ķ×ł×Ķ": 6445, "Ġloud": 6446, "Ġ×Ķ×ª×¢×": 6447, "Ġ×©×Ķ×¨×Ĳ×¤": 6448, "Ġcare": 6449, "Ġ×ĸ×ķ×Ľ×¨×ª": 6450, "Ġ×ķ×ŀ×¨×Ĵ×Ļ×©": 6451, "Ġ×Ķ×Ĵ×ĳ×¨": 6452, "Ġ×Ķ×Ĵ×ĵ×ķ×": 6453, "Ġ×Ķ×Ĵ×©×Ŀ": 6454, "Ġ×©×Ĳ×ľ×ķ×Ķ×Ļ×Ŀ": 6455, "Ġ×ª×ķ×¤×Ļ×Ŀ": 6456, "Ġ×ľ×Ĺ×Ŀ": 6457, "Ġ×Ķ×¡×¦×Ļ×ł×Ķ": 6458, "ÙĪØª": 6459, "Ġ×ĳ×Ľ×¤×Ļ×Ļ×Ŀ": 6460, "Ġ×ĵ×Ļ×Ĵ": 6461, "Ġ!?": 6462, "¦×Ļ×Ĳ×Ķ": 6463, "Ġwell": 6464, "×¤×ĸ×ŀ×ķ×Ł": 6465, "Ġ×ł×¢×ľ×Ļ×Ļ×Ŀ": 6466, "ĠNa": 6467, "Ġrem": 6468, "ÙĤØª": 6469, "ĠCome": 6470, "Ġ×Ľ×©×Ķ×ŀ×": 6471, "Ġ×ŀ×ĸ×Ľ×Ļ×¨": 6472, "Ġ24": 6473, "ung": 6474, "ĠØªØ§ÙħØ±": 6475, "Ġ×ĳ×Ľ×Ļ×¡×Ļ×Ŀ": 6476, "Ġ16": 6477, "Ġ×ĳ×Ĵ×ķ×ĳ×Ķ": 6478, "×Ĵ×ĳ×¨": 6479, "Ġ×ĳ×¦×ķ×¨×Ķ": 6480, "ľ×Ĵ×¨×Ĳ×¡": 6481, "Ġ×Ķ×ª×§×ľ×Ļ×ĺ": 6482, "Ġ×Ĳ×ĳ×Ļ×ĳ×Ļ×Ŀ": 6483, "Ġfloor": 6484, "Ġ×§×ķ×¨×Ĳ×ª": 6485, "Ġ×ŀ×ĵ×Ļ×Ļ": 6486, "Ġ×¨×Ĳ×Ļ×ª": 6487, "ress": 6488, "Ġ×Ľ×ķ×¡×Ĳ×ŀ×§": 6489, "Ġ×ķ×Ķ×ķ×ľ×ļ": 6490, "Ġ×Ĺ×©×Ļ×©": 6491, "Oh": 6492, "aw": 6493, "az": 6494, "hone": 6495, "te": 6496, "Ðº": 6497, "Ĵ×Ļ×©": 6498, "ľ×ĺ×¨": 6499, "ŀ×ł×ķ×ª": 6500, "ŀ×ł×ª×Ļ": 6501, "©×§×": 6502, "Ġ×ľ×¤": 6503, "Ġ×ľ×ĸ×Ļ×Ļ×Ł": 6504, "Ġ×Ķ×§×Ļ×": 6505, "¨×ĳ×ª": 6506, "¨×ĵ×Ŀ": 6507, "Ġ×ŀ×ĵ×ľ": 6508, "Ġ×ĳ×¨×Ĳ×¤": 6509, "Ġ×ĳ×§×ķ×ľ": 6510, "Ġ×©×ł×ķ×ª": 6511, "Ġ×ŀ×Ļ×ľ×Ļ×": 6512, "Ġ×ķ×ľ×ļ": 6513, "Ġ×ķ×©×ķ×Ŀ": 6514, "¦×Ĺ×ķ×Ł": 6515, "×Ķ×Ĳ×": 6516, "Ġ×©×ķ×Ĳ×ķ": 6517, "Ġ×ł×¤×©×Ļ": 6518, "Ġ×Ĳ×Ļ×ł×ķ": 6519, "×Ļ×Ļ×ĸ": 6520, "×Ļ×Ļ×§×Ļ×Ŀ": 6521, "Ġ×¢×ķ×¦×¨×Ļ×Ŀ": 6522, "Ġ×Ĵ×ľ×Ļ×Ŀ": 6523, "Ġ×¡×ĳ×Ļ×": 6524, "Ġ×¡×§×Ļ": 6525, "Ġ×ľ×Ķ×Ł": 6526, "×Ļ×ľ×ķ×Ł": 6527, "Ġ×ĺ×Ļ×ķ×": 6528, "Ġ×ĵ×ķ×ķ×§×Ĳ": 6529, "Ġ×Ķ×ŀ×¤×Ķ": 6530, "Ġ×ĳ×ķ×¡×": 6531, "Ġ×ĳ×ķ×§×¡": 6532, "âĢĬ": 6533, "ľ×Ļ×ł×ķ": 6534, "Ġ×Ĺ×ķ×ľ×Ļ×Ŀ": 6535, "ŀ×Ļ×¢": 6536, "Ġ×Ķ×©×¨×Ĳ×Ķ": 6537, "Ġ×Ķ×ķ×¦×Ĳ×ª×Ļ": 6538, "Ġ×Ķ×ĳ×ĺ×Ł": 6539, "×Ĳ×Ĺ×Ļ": 6540, "Ġboy": 6541, "Ġ×ŀ×Ĳ×ĵ": 6542, "Ġ×ŀ×Ĳ×©×¨": 6543, "Ġ×¡×ķ×Ĵ×ĵ": 6544, "Ġ×Ĳ×ł×ĺ×Ļ": 6545, "Ġlisten": 6546, "Ġcry": 6547, "Ġ×¨×Ĳ×©×ķ×ł×Ķ": 6548, "Ġ×ķ×ŀ×Ĳ×": 6549, "Ľ×Ļ×ł×Ļ×Ŀ": 6550, "×ŀ×Ĳ×Ł": 6551, "Ġ×Ľ×©×ĳ×": 6552, "Ø±Ø¨ÙĬ": 6553, "Ġgive": 6554, "Ġ×¡×Ļ×ĳ×ķ×ª": 6555, "Ġ×ĳ×¨×¦×£": 6556, "Ġ×ľ×§×¦×ĳ": 6557, "Ġ×ľ×§×Ĺ×ķ": 6558, "Ġ×Ķ×¡×Ĳ×": 6559, "Ġ×Ķ×Ľ×Ĺ": 6560, "ory": 6561, "×©×ŀ×": 6562, "ĠTr": 6563, "Ġ×ĳ×Ĵ×¨×ķ×Ł": 6564, "Ġ×ŀ×¨×¡×¡": 6565, "Ġ×ĺ×Ļ×¤×ª": 6566, "Ġ×ľ×ª×§×Ł": 6567, "Ġ×ķ×ª×©×": 6568, "Ġ×ķ×ª×¨×Ĳ×Ķ": 6569, "×Ľ×©×": 6570, "Ġ×ľ×ĵ×¨×ļ": 6571, "Ġ×ª×Ķ×Ļ×ľ×Ķ": 6572, "Ġ×ĳ×ľ×¢×": 6573, "Ġ×ĳ×Ķ×Ļ×": 6574, "Ġbefore": 6575, "Ġ×Ķ×Ķ×ĵ×§": 6576, "Ġgood": 6577, "anta": 6578, "ĵ×¨×ŀ×Ķ": 6579, "Ġ×ŀ×¢×ķ×ľ×Ķ": 6580, "ł×Ĵ×ĵ": 6581, "Ġ×ª×ĸ×Ľ×ķ×¨": 6582, "Ġ×ķ×Ĳ×Ļ×ĸ×Ķ": 6583, "Ġ×ª×ĳ×ķ×Ĳ×Ļ": 6584, "Ġ×ŀ×ł×ķ×Ĺ": 6585, "×ĺ×Ĳ×": 6586, "Ġ×Ķ×¡×ķ×ĵ": 6587, "Ġ×ª×ľ×ŀ×Ļ×ĵ": 6588, "ľ×Ĵ×ľ×Ļ×Ŀ": 6589, "Ġ×¤×¦×¦×ķ×ª": 6590, "Ġ×ľ×Ķ×ª×§×¨×ĳ": 6591, "Ġ×ľ×Ķ×¡×ĳ×Ļ×¨": 6592, "Ġ×ĳ×Ĵ×ľ×ľ×Ļ": 6593, "Ġ×ŀ×Ķ×Ļ×ŀ×Ļ×Ŀ": 6594, "Ġ×ĳ×Ļ×§×©×ª×Ļ": 6595, "Ġ×¡×Ļ×§×¡×ĺ×Ļ": 6596, "gg": 6597, "×Ĺ×Ļ×Ļ×Ŀ": 6598, "Ġ7": 6599, "ĠáĬ": 6600, "ľ×ķ×ķ×Ļ×ĸ×Ļ×Ķ": 6601, "ł×ķ×Ŀ": 6602, "×Ķ×Ļ×": 6603, "Ĳ×¤×Ķ": 6604, "ľ×ĳ×": 6605, "ŀ×¤×ķ×": 6606, "ĳ×§×ª": 6607, "ĳ×Ĳ×§": 6608, "Ľ×ł×Ļ×ķ×ª": 6609, "¨×Ĳ×ª": 6610, "Ġ×ĳ×ª×Ĳ": 6611, "Ġ×ĳ×©×ķ×Ŀ": 6612, "Ġ×ĳ×ª×Ļ×Ľ×ķ×Ł": 6613, "¤×¢×ķ×ª": 6614, "§×¨×ĺ": 6615, "Ġ×¢×ł×Ļ×Ļ×ł×Ļ×Ŀ": 6616, "ł×Ļ×ķ×Ł": 6617, "ł×Ļ×Ļ×§": 6618, "Ġ×ķ×ĺ×ķ×": 6619, "Ġ×ª×Ľ×ľ": 6620, "Ġ×ª×©×Ļ×¨": 6621, "ĳ×Ļ×ł×ķ": 6622, "Ġ×¨×§×": 6623, "Ġ×¢×ķ×¨": 6624, "Ġ×¤×Ĵ×©×ª×Ļ": 6625, "Ġ×§×¤": 6626, "Ġ×Ĵ×¡": 6627, "Ġ×Ļ×ķ×©×ĳ×ª": 6628, "Ġ×ŀ×ķ×ĳ×": 6629, "Ġ×ŀ×ķ×ĵ×¢": 6630, "¡×ķ×ŀ×ķ×ª": 6631, "Ġ×Ķ×ŀ×Ľ×": 6632, "Ġ×Ĺ×ķ×ĺ×£": 6633, "Ġ×©×ķ×ľ×Ĺ×ª": 6634, "ÙĦÙĪ": 6635, "Ġ×¦×Ĺ×ķ×§": 6636, "Ġ×¦×¤×Ļ×ķ×ª": 6637, "©×ķ×©": 6638, "Ġ×ĳ×Ĳ×£": 6639, "Ġ×ľ×ŀ×¨×": 6640, "Ġ×ķ×Ĳ×ľ×ķ": 6641, "Ġ×ľ×©×ľ×ĳ": 6642, "rew": 6643, "Ġbest": 6644, "Ġ×ŀ×Ĳ×ŀ×": 6645, "Ġ×ŀ×Ĳ×ľ×Ķ": 6646, "Ġ×¡×ķ×¡": 6647, "Ġ×ľ×ĳ×ĵ×ķ×§": 6648, "Ġcar": 6649, "Ġ×ŀ×ŀ×ł×Ķ": 6650, "Ġ×Ķ×Ĺ×ľ×ķ×Ł": 6651, "Ġ×ĵ×ķ×¨×©": 6652, "Ĵ×Ļ×©×Ķ": 6653, "Ġ×Ķ×Ļ×¡×ĺ×ķ×¨×Ļ×Ķ": 6654, "Ġ×§×Ļ×©": 6655, "ĺ×Ļ×ĳ": 6656, "Ġ×Ĳ×ŀ×Ĳ×ľ": 6657, "Ġ×Ķ×§×ĳ×¨": 6658, "Ġ×Ķ×§×ľ×¤×Ļ×Ŀ": 6659, "Ġpass": 6660, "Ġ×ĳ×¡×ĳ×Ļ×ĳ×Ķ": 6661, "ĠSalama": 6662, "Ġ×ŀ×Ľ×Ļ×Ł": 6663, "¦×ķ×¤×Ļ×Ŀ": 6664, "×©×Ĳ×§×Ķ": 6665, "Ġ×Ķ×¢×ĵ×¨": 6666, "Ġ×ª×Ļ×¨×ķ×¥": 6667, "×ĳ×Ł": 6668, "Ġ×Ķ×Ĳ×ķ×ķ×Ļ×¨": 6669, "Ġinter": 6670, "Ġ×¢×¦×ĳ×": 6671, "Ġ×ŀ×¨×Ĺ×": 6672, "Ġ×ŀ×¨×©×Ļ×Ŀ": 6673, "Ġ×ľ×¡×¤×ķ×¨": 6674, "Ġ×Ļ×©×ĳ×ª×Ļ": 6675, "Ġ×ķ×ª×ŀ×Ļ×ĵ": 6676, "ĠBl": 6677, "ĠBounce": 6678, "Ġ×Ĳ×¨×ł×§": 6679, "Ġ×Ľ×Ļ×¤×Ļ×Ŀ": 6680, "ª×Ĺ×ľ×ª×Ļ": 6681, "ľ×§×ķ×ª": 6682, "Ġ×Ķ×¦×ĵ": 6683, "Ġ×ŀ×ª×Ķ×¤×ļ": 6684, "Ġ×ľ×Ķ×Ļ×©×": 6685, "Ġ×ĳ×ł×¢×ľ×Ļ×Ļ×Ŀ": 6686, "Ġdie": 6687, "ĠYoya": 6688, "Ġ×ĳ×¦×ĳ×Ĳ": 6689, "Ġ×©×Ľ×Ĺ×ª": 6690, "Ġ×ª×ŀ×Ľ×ķ×¨": 6691, "ĠØ¹ÙĦÙĬ": 6692, "Ġ×Ķ×Ĳ×ķ×ĸ×ł×Ļ×Ļ×Ŀ": 6693, "Ĳ×¨×ŀ×Ķ": 6694, "Ġ×¢×Ļ×ł×Ļ": 6695, "Ġ×¢×Ļ×ł×Ļ×Ļ": 6696, "Ġ×ŀ×Ľ×ľ×ķ×Ŀ": 6697, "Ġ×ľ×Ķ×©×Ĳ×¨": 6698, "§×¢×ķ": 6699, "Ġ×Ĳ×©×ľ×Ļ×Ķ": 6700, "Ġ×ĳ×¢×Ļ×ª×ķ×Ł": 6701, "§×¡×ĺ×Ļ×Ļ×¤": 6702, "Ġ×ĵ×Ĳ×Ĵ×ķ×ª": 6703, "ĠFuck": 6704, "Ġ×ŀ×ª×§×©×¨": 6705, "Ġ×ŀ×Ļ×ķ×ª×¨": 6706, "Ġ×ŀ×¢×ķ×ł×Ļ×Ļ×Ł": 6707, "Ġ×ª×ĸ×ĵ×Ļ×Ļ×Ł": 6708, "Ġ×Ļ×Ĺ×¡": 6709, "Ġ×Ĺ×ľ×ŀ×ª×Ļ": 6710, "Ġ×¦×Ļ×¤×ķ×¨": 6711, "Ġ×Ķ×¤×¡×ĵ×Ļ×Ŀ": 6712, "Ġ×ł×ĸ×¨×ķ×§": 6713, "Ġ×Ĵ×¨×¤×Ļ×ĺ×Ļ": 6714, "Ġ×ŀ×Ĵ×Ļ×©": 6715, "Ġ×Ĳ×Ļ×Ļ×ĺ×ķ×ľ×Ķ": 6716, "Ġany": 6717, "Ġ×ľ×ķ×§×Ĺ×ª": 6718, "Ĳ×¤×Ļ×Ķ": 6719, "izry": 6720, "Ġ×Ĳ×ķ×ĺ×ķ×ŀ×ĺ×Ļ": 6721, "§×ľ×Ĳ×Ł": 6722, "Ġ×©×ķ×¨×¤×Ļ×Ŀ": 6723, "Ġ×ĳ×ľ×¢×ĵ×Ļ×Ļ×ļ": 6724, "Ġ×Ļ×ķ×¨×ĵ×Ļ×Ŀ": 6725, "Ġ×ĵ×Ĳ×ķ×ķ×Ļ×Ł": 6726, "Ġ×Ķ×¦×ľ×Ĺ×Ķ": 6727, "'.": 6728, "pin": 6729, "¨×ķ×ķ×Ļ×Ĺ": 6730, "©×Ļ×Ļ×Ķ": 6731, "×¡×ķ×": 6732, "×ł×Ļ×": 6733, "Ġ0": 6734, "Ĳ×ķ×¨×Ķ": 6735, "×ķ×ŀ×Ķ": 6736, "Ĳ×¨×ĺ": 6737, "ľ×Ľ×ķ×ª": 6738, "ĳ×§×Ļ×Ŀ": 6739, "Ġ×Ĳ×ŀ×ķ×ª": 6740, "Ġ×Ķ×ķ×ķ×Ļ×": 6741, "Ġ×ľ×¡×ķ×£": 6742, "Ġ×Ķ×¤×Ļ": 6743, "Ġ×Ķ×ĸ×Ļ×": 6744, "Ġ×Ķ×ĵ×Ļ×ķ": 6745, "¨×ľ×Ļ": 6746, "¨×ª×Ŀ": 6747, "¢×ŀ×§": 6748, "Ġ×ŀ×ŀ×Ļ×": 6749, "Ġ×ŀ×¤×Ļ×§": 6750, "Ġ×ĳ×Ľ×Ļ×ª×Ķ": 6751, "Ġ×©×¨×Ķ": 6752, "ł×Ĳ×ľ×Ļ": 6753, "¤×ľ×Ļ×Ŀ": 6754, "§×ľ×Ļ×": 6755, "Ġ×ľ×ķ×Ĳ×Ļ": 6756, "Ġ×ķ×§": 6757, "Ġ×ķ×©": 6758, "Ġ×ª×Ľ×Ļ×¨": 6759, "¦×ł×ķ": 6760, "Ġ×¢×ķ×ľ×ķ×ª": 6761, "Ġ×¤×§×Ķ": 6762, "Ġ×§×©×ķ×ª": 6763, "Ġ×Ĺ×¨×ĳ": 6764, "Ġ×¤×Ļ×Ļ×¨": 6765, "Ġ×Ĵ×¨×ķ×": 6766, "Ġ×¡×ļ": 6767, "Ġ×¨×ķ×¤×Ĳ": 6768, "Ġ×ĵ×¨×ķ×": 6769, "ł×Ļ×ļ": 6770, "Ġ×Ĺ×ķ×¤×¨×ª": 6771, "Ġ×©×ķ×ľ×": 6772, "Ġsilver": 6773, "¤×ķ×ł×Ļ": 6774, "Ġ×ŀ×Ķ×Ĺ×Ļ×Ļ×Ŀ": 6775, "Ġmind": 6776, "Ġ×ŀ×©×¢×": 6777, "Ġ×ł×ķ×Ķ×": 6778, "Ġ×Ķ×©×ł×Ĳ×Ķ": 6779, "Ġ×ŀ×¡×ĺ×Ļ×§": 6780, "Ġ×Ķ×Ĳ×Ĵ×ķ": 6781, "Ġ×©×ŀ×ª": 6782, "Ġ×ķ×Ĳ×¨×ĳ×¢": 6783, "Ġ×ł×©×¨×£": 6784, "Ġbout": 6785, "Ġ×Ķ×¨×Ĵ×ľ": 6786, "Ġ×Ķ×ª×¢×ķ×¨×": 6787, "Ġ×ľ×¢×ĳ×¨": 6788, "Ġ×©×Ķ×¤×": 6789, "Ġ×ľ×ĳ×ŀ×Ķ": 6790, "Ġ×ľ×ĳ×Ĺ×ķ×¨": 6791, "¦×Ĳ×ķ": 6792, "Ġ×ķ×ŀ×§×": 6793, "ľ×ĳ×Ļ×Ŀ": 6794, "¨×Ļ×ķ×Ł": 6795, "Ġnigg": 6796, "Ġ×¡×Ļ×ł×Ļ": 6797, "Ġ×Ķ×§×¨×§×¢": 6798, "Ġ×ľ×Ĺ×ĳ×¨×Ļ×Ŀ": 6799, "ØªØ±": 6800, "Ø¨Ø±": 6801, "ĺ×¨×ķ": 6802, "ĺ×¨×Ļ×§": 6803, "ĳ×ķ×¨×Ļ": 6804, "ort": 6805, "Ġ×Ķ×ĳ×Ļ×¨×Ķ": 6806, "ĠSome": 6807, "¦×Ļ×ĳ": 6808, "¦×ķ×ľ": 6809, "Ġ×ł×Ķ×Ļ×Ļ×ª×Ļ": 6810, "Ġ×ķ×ĳ×Ĳ×": 6811, "ĠØ§ÙĦØ£": 6812, "Ġ×¢×¦×ĳ×Ļ×Ŀ": 6813, "Ġ×©×ł×¢×": 6814, "Ġ×ŀ×¨×Ĺ×£": 6815, "ĠâĢľ": 6816, "Ġ×©×ĳ×ĺ": 6817, "Ġ×ª×¢×ĸ×ķ×ĳ": 6818, "×ª×Ĵ×Ļ×ĵ×ķ": 6819, "ign": 6820, "ĠWith": 6821, "Ġ×Ĳ×ķ×ŀ×¨×ķ×ª": 6822, "§×ľ×Ļ×Ł": 6823, "Ġ×Ķ×ĸ×ĳ×ľ": 6824, "ĠMC": 6825, "Ġ×Ķ×ŀ×Ļ×ĺ×Ķ": 6826, "ÙĤÙĬ": 6827, "ĠCause": 6828, "Ġ×Ķ×Ĳ×ķ×©×¨": 6829, "Ġ×Ķ×Ĵ×Ļ×ķ×ł×Ļ": 6830, "ĠJust": 6831, "Ġ×ŀ×ª×§×¨×ĳ": 6832, "Ġ×ŀ×Ľ×ķ×¢×¨×ª": 6833, "Ġ×ŀ×Ļ×ķ×Ĺ×ĵ×ª": 6834, "Ġ×ĳ×Ĳ×Ļ×ĸ×Ķ": 6835, "Ø§ÙĨÙĬ": 6836, "Ġ30": 6837, "Ġ×Ķ×Ĳ×Ļ×©×Ķ": 6838, "ĠØ´ÙĪ": 6839, "Ġ×¢×ķ×§×£": 6840, "Ġ×ŀ×ª×ł×Ĵ×Ł": 6841, "Ġplay": 6842, "ĠOne": 6843, "©×¨×Ĳ×ľ×Ļ×Ŀ": 6844, "Ġ×Ķ×ľ×Ľ×ł×ķ": 6845, "Ġ×¤×¦×¦×Ķ": 6846, "Ġ×Ļ×Ķ×ķ×ĵ×Ļ": 6847, "Ġ×ľ×ŀ×©×¤×Ĺ×Ķ": 6848, "×ŀ×©×Ĺ×§": 6849, "Ġ×ľ×Ļ×Ļ×¦×Ĵ": 6850, "Ġ×ľ×¢×¦×ŀ×ļ": 6851, "Ġ202": 6852, "Ġ×¨×ķ×ĵ×¤×Ļ×Ŀ": 6853, "Ġ×©×Ĵ×ķ×¨×Ŀ": 6854, "Ġlights": 6855, "Ġ×Ķ×ŀ×§×¦×ĳ": 6856, "Ġ×§×Ļ×ľ×ķ×ŀ×ĺ×¨": 6857, "Ġjudge": 6858, "©×Ļ×ª×Ļ×¢×©×Ļ×ª×Ļ×¢×": 6859, "Ġ×ķ×Ĳ×ľ×ķ×ķ×¨×Ķ": 6860, "fter": 6861, "rop": 6862, "uc": 6863, "yric": 6864, "¤×Ļ×Ļ×Ķ": 6865, "Ñı": 6866, "Ġ×¦×Ķ": 6867, "Ĳ×ĺ×": 6868, "Ġ×ľ×©": 6869, "Ġ×ľ×ł×ķ×": 6870, "Ġ×Ķ×¤×Ļ×ľ": 6871, "¨×§×¡": 6872, "¢×ĳ": 6873, "Ġ×ŀ×Ľ×ķ×ľ×Ŀ": 6874, "Ġ×ĳ×ŀ×ķ×ª": 6875, "Ġ×ĳ×ł×Ļ×ª×Ļ": 6876, "Ġ×ĳ×Ĺ×Ļ×Ļ×": 6877, "Ġ×ĳ×¨×Ĵ×Ļ×ľ": 6878, "Ġ×©×ĵ×": 6879, "Ġ×©×ª×ķ×": 6880, "Ġ×©×¤×ķ×Ļ": 6881, "ł×©": 6882, "Ġ×Ľ×ľ×": 6883, "§×ľ×Ļ": 6884, "Ġ×Ĳ×Ļ×ķ": 6885, "Ġ×Ļ×ķ×¨×Ļ×Ŀ": 6886, "Ġ×ķ×ĵ×Ļ": 6887, "Ġ×ª×¢×ķ×": 6888, "Ġ×ª×§×ķ×Ŀ": 6889, "Ġ×Ļ×Ĳ×ł×Ĵ": 6890, "Ġ×©×Ļ×Ļ×ļ": 6891, "ĳ×Ļ×ł×Ļ×": 6892, "Ġ×ł×¨×Ĵ×Ļ×ľ×Ķ": 6893, "Ġ×ł×ĵ×Ļ×¨": 6894, "ĸ×¨×ª×Ļ": 6895, "×Ļ×Ļ×¡×¨": 6896, "Ġ×¤×Ĵ×¢": 6897, "Ġ×§×©×ķ×": 6898, "×Ļ×§×ķ×Ļ": 6899, "Ġ×Ļ×ķ×¦×¨": 6900, "Ġ×ľ×Ķ×¨×Ĳ×ķ×ª": 6901, "Ġ×ľ×Ķ×ĳ×Ļ×ĺ": 6902, "Ġ×ĵ×ł×Ļ": 6903, "Ġ×ĵ×ķ×ĳ": 6904, "×Ļ×Ĳ×ķ×ª": 6905, "Ġ×©×ķ×ŀ×¨×Ļ×Ŀ": 6906, "Ġsin": 6907, "Ġside": 6908, "Ġ×ŀ×©×§×ľ": 6909, "Ġ×§×ķ×ľ×ķ×ª": 6910, "ŀ×Ļ×ª×Ļ": 6911, "Ġ×Ķ×©×ĳ×ķ×¢": 6912, "Ġ×Ķ×Ĳ×¦×ĳ×¢×ķ×ª": 6913, "Ġ×ľ×ŀ×¡×": 6914, "Ġ×Ķ×¤×Ĺ×ĵ": 6915, "Ġ×ľ×©×Ĺ×ķ×ª": 6916, "Ġburn": 6917, "¨×Ĵ×ķ×ª": 6918, "Ġ×ķ×Ķ×¢×": 6919, "Ġ×ľ×¤×Ĺ×ĵ": 6920, "Ġyear": 6921, "Ġ×©×Ķ×ľ×Ĺ×¥": 6922, "Ġ×ĸ×ķ×ŀ×": 6923, "Ġ×ķ×ŀ×¡×": 6924, "Ġ×§×Ļ×¨": 6925, "Ġ×ĳ×¨×ŀ×": 6926, "Ġ×ĳ×¨×©×ª": 6927, "Ġ×Ķ×¡×¤×Ķ": 6928, "Ġ×Ķ×Ľ×Ĳ×ĳ": 6929, "Ġ×ĳ×¢×ĸ×¨×ª": 6930, "Ġ×ķ×ľ×ŀ×": 6931, "ĠAs": 6932, "×©×ľ×ŀ×Ķ": 6933, "Ġ×ŀ×Ľ×©×ķ×ľ": 6934, "Ġ×§×Ļ×¦": 6935, "Ġ×ł×ŀ×ĳ×¨": 6936, "Ġ×ŀ×¨×¢": 6937, "ĠâĢı": 6938, "Ġ×ķ×ł×Ĺ×": 6939, "¤×Ļ×§×Ļ": 6940, "Ġ×ª×Ĺ×ĸ×Ļ×¨": 6941, "Ġ×ľ×Ĵ×ŀ×ķ×¨": 6942, "Ġ×ĳ×ĳ×ľ×": 6943, "Ġ×ĳ×ł×ł×Ķ": 6944, "ĳ×Ļ×¨×ķ×ª": 6945, "Ġ×ŀ×Ĳ×ķ×Ķ×ĳ": 6946, "Ġ×ķ×Ľ×ļ": 6947, "ĠDem": 6948, "ĠHizry": 6949, "Ġ×Ķ×ŀ×Ļ×ľ×Ķ": 6950, "Ġsexy": 6951, "Ġ×ª×¨×Ĺ×Ŀ": 6952, "Ġ×ĳ×¨×ķ×Ľ×Ļ×Ŀ": 6953, "Ġ×©×ľ×ķ×©×Ļ×Ŀ": 6954, "×Ĺ×¨×ķ×ĸ×Ļ×Ŀ": 6955, "Ġ×ŀ×ª×ķ×¡×Ľ×ľ": 6956, "Ġ×Ĵ×Ļ×ĺ×¨×Ķ": 6957, "ĠØªØ¹": 6958, "Ġ×ŀ×¤×ķ×¨×": 6959, "Ġ×©×¢×©×Ļ×ª×Ļ": 6960, "¨×ŀ×ĺ": 6961, "Ġ×Ķ×¨×Ĵ×©×Ķ": 6962, "Ġ×§×¨×ķ": 6963, "Ġfire": 6964, "Ġ×§×ĺ×ł×Ļ×Ŀ": 6965, "Ġ×¤×ľ×§×¡": 6966, "×ĵ×¨×ļ": 6967, "Ġ×ĳ×¦×Ķ×¨×Ļ×Ļ×Ŀ": 6968, "Ġ×Ĳ×Ķ×ĳ×ª×Ļ": 6969, "Ġ×Ĳ×ľ×Ļ×Ľ×Ŀ": 6970, "Ġ×Ļ×Ķ×ķ×ĵ×Ļ×Ŀ": 6971, "Ġ×Ķ×ĺ×ķ×ĳ×Ļ×Ŀ": 6972, "Ġ×ľ×Ķ×¡×¤×Ļ×§": 6973, "Ġ×ķ×Ĳ×ķ×ķ": 6974, "Ġ×ª×Ĺ×ķ×©×Ķ": 6975, "Ġbadda": 6976, "Ġ×Ķ×ª×ķ×¨": 6977, "Ġscream": 6978, "Ġ×ª×©×Ļ×ŀ×ķ": 6979, "ĠArab": 6980, "Ġ×ĳ×ķ×Ļ×Ļ×§×ľ×Ĳ×Ł": 6981, "Ġ×§×¨×Ļ×¡×ŀ×¡": 6982, "ix": 6983, "¦×Ļ×ķ×ª": 6984, "§×Ķ×ľ": 6985, "©×ķ×¨": 6986, "Ð½": 6987, "Ö°": 6988, "×ĵ×Ķ": 6989, "Ġ!,": 6990, "Ġ×ª×Ļ": 6991, "Ġ×ł×Ļ×Ŀ": 6992, "×ķ×Ĳ×Ŀ": 6993, "×Ķ×Ļ×¤": 6994, "ľ×ĵ×ª": 6995, "ŀ×ĳ×¨": 6996, "ŀ×Ĵ×Ŀ": 6997, "Ġ×ľ×¢×Ļ×": 6998, "Ġ×ľ×ŀ×Ļ×ľ×Ļ×Ŀ": 6999, "Ġ×Ķ×Ĺ×ķ×¨": 7000, "Ġ×ĳ×ĸ": 7001, "Ġ×ĳ×¨×§": 7002, "Ġ×ĳ×ł×ª×Ļ×Ļ×Ŀ": 7003, "Ġ×ĳ×Ĺ×ķ×ľ": 7004, "ł×Ĺ×": 7005, "Ĺ×ľ×Ļ×Ŀ": 7006, "§×Ĳ×Ļ": 7007, "Ġ×Ļ×Ľ×": 7008, "Ġ×Ļ×¨×Ĺ": 7009, "Ġ×Ļ×¡×ª": 7010, "ĳ×Ļ×©×Ļ×Ŀ": 7011, "Ġ×Ĳ×Ļ×ľ×ª": 7012, "Ġ×ª×ķ": 7013, "Ľ×ķ×ĸ": 7014, "Ġ×Ĺ×Ĵ": 7015, "Ġ×Ĺ×ª×": 7016, "Ġ×¤×Ļ×Ļ×ĺ": 7017, "×Ļ×¨×Ļ×§×Ķ": 7018, "Ġ×ĵ×Ĺ×": 7019, "Ġ×ĵ×¤×ķ×§×Ļ×Ŀ": 7020, "Ø§Ø¹": 7021, "Ġ×Ľ×ķ×ľ": 7022, "Ġ×Ļ×©×Ļ×": 7023, "Ġ×Ķ×ŀ×¤×ª×Ĺ": 7024, "¡×Ļ×Ľ×Ķ": 7025, "Ġ×Ĺ×ķ×©×ļ": 7026, "¤×ķ×¨×ĺ": 7027, "Ġ×ŀ×Ķ×¨×Ĳ×©": 7028, "Ġ×ŀ×©×ľ×ķ×Ĺ": 7029, "Ġ×§×ķ×ł×Ĵ": 7030, "©×ķ×ļ": 7031, "ľ×ķ×ł×ķ×ª": 7032, "Ġ×ĸ×Ĳ×ª×Ļ": 7033, "Ġ×Ķ×©×§×": 7034, "Ġ×ŀ×¡×¨×Ļ×Ŀ": 7035, "Ġ×ĺ×¢×Ļ×": 7036, "Ġ×ĺ×Ĳ×ł×Ĵ": 7037, "Ġ×Ķ×ĳ×¢": 7038, "Ĳ×ķ×¡": 7039, "Ġ×©×Ļ×ł×ķ×Ļ": 7040, "Ġ×¡×ķ×ĳ×ĳ": 7041, "Ġ×Ķ×¨×Ĺ×ĳ×Ķ": 7042, "Ġcould": 7043, "Ġ×ľ×Ĳ×ŀ×": 7044, "Ľ×©×Ļ×¨": 7045, "Ġ×Ķ×Ĺ×Ĵ×Ļ×": 7046, "Ġ×¤×ķ×¢×Ŀ": 7047, "Ĵ×ķ×ĵ": 7048, "Ľ×Ļ×ł×ķ": 7049, "×ŀ×ª×": 7050, "Ġ×Ľ×©×ľ×Ĳ": 7051, "Ġhard": 7052, "Ġ×Ķ×Ľ×ª×¨": 7053, "Ġ×Ķ×ĸ×Ķ×ĳ": 7054, "ĠSun": 7055, "Ġ×ŀ×Ľ×Ļ×¨×Ķ": 7056, "Ġ×Ķ×ĵ×Ĵ×ľ": 7057, "×©×ľ×Ļ": 7058, "Ġ×ª×Ļ×ĸ×Ķ×¨": 7059, "Ġ×§×Ļ×ľ×Ķ": 7060, "Ġ×Ķ×Ĳ×ķ×Ļ×": 7061, "¨×ĺ×ķ×Ł": 7062, "Ġ×ĳ×¤×Ĳ×": 7063, "Ġ×Ķ×ł×§×ĳ×ķ×ª": 7064, "Ġ×ĳ×ĵ×¨×Ľ×Ļ": 7065, "×ķ×ķ×Ļ×¡×Ķ": 7066, "Ġ×Ķ×ĸ×ĵ×ŀ×ł×ķ×ª": 7067, "Ġ×Ķ×ŀ×ķ×©×": 7068, "Ġ×ľ×Ķ×Ļ×¨×Ĵ×¢": 7069, "Ġ×¤×¨×¦×ķ×£": 7070, "¨×Ĵ×©×Ķ": 7071, "Ġreally": 7072, "Ġ×Ķ×ĺ×¢×Ŀ": 7073, "Ġ×ĳ×ª×Ľ×ľ×¡": 7074, "Ġbeen": 7075, "Ġ×ª×¤×ľ×ķ": 7076, "Ġ×©×ľ×ķ×§": 7077, "Ġ×¨×Ļ×§×Ļ×Ŀ": 7078, "Ġ×Ĵ×ĳ×ķ×ľ×ķ×ª": 7079, "Ġ×©×Ĺ×¨×¨": 7080, "Ġ×Ķ×Ĵ×ķ×¨×ľ": 7081, "Ġ×ķ×Ĺ×¦×Ļ": 7082, "Ġ×ķ×§×¦×ª": 7083, "Ġ×ł×ķ×ª×ł×ķ×ª": 7084, "Ġ×ĵ×¨×Ľ×Ļ×Ŀ": 7085, "×ĳ×Ļ×ĺ×Ļ×Ŀ": 7086, "Ġ×ŀ×ĸ×ķ×Ļ×": 7087, "Ġ×§×ľ×¤×Ļ×Ŀ": 7088, "Ġ×Ĳ×Ĵ×ĵ×Ķ": 7089, "Ġ×Ķ×ľ×Ļ×ľ×ķ×ª": 7090, "Ġ×Ĺ×©×ķ×ļ": 7091, "Ġ×ĳ×ŀ×¨×Ľ×ĸ": 7092, "Ġ×ĳ×©×Ļ×¢×¨": 7093, "Ġque": 7094, "ĠÙĦÙĬØ´": 7095, "Ġ×ŀ×ľ×Ĳ×Ľ×Ļ×Ŀ": 7096, "Ġ×¡×ĳ×ª×Ĳ": 7097, "Ġ×ľ×Ķ×ĸ×Ľ×Ļ×¨": 7098, "Ġ×Ľ×¨×Ļ×©": 7099, "Ġ×¢×ķ×¦×¨×ª": 7100, "Ġ×Ľ×©×Ĳ×ł×Ĺ×ł×ķ": 7101, "!\"\",": 7102, "\"?": 7103, "aut": 7104, "hat": 7105, "ob": 7106, "ugh": 7107, "×Ĺ×ª": 7108, "×§×Ļ×Ŀ": 7109, "ĠÃ": 7110, "ľ×Ļ×ľ": 7111, "×ķ×Ĳ×ł×Ļ": 7112, "Ĳ×ľ×ķ×ª": 7113, "ľ×ł×Ļ": 7114, "ľ×ª×Ŀ": 7115, "ľ×ĳ×©": 7116, "ĳ×¢×ķ×": 7117, "ĳ×ł×ª×Ļ": 7118, "ĳ×ª×Ĳ": 7119, "Ľ×¡": 7120, "Ľ×¡×£": 7121, "¢×ł×ķ×ª": 7122, "Ġ×ĳ×ł×Ļ×ł×ķ": 7123, "Ġ×©×Ĵ": 7124, "Ġ×©×ľ×ĺ": 7125, "ł×ĵ×Ļ": 7126, "ł×ł×ķ×ª": 7127, "§×ŀ×Ł": 7128, "Ġ×Ĳ×Ļ×Ļ×ľ": 7129, "¡×Ĺ": 7130, "¡×ĺ×ķ×": 7131, "ĵ×ľ×§": 7132, "Ĵ×ľ×Ļ×Ŀ": 7133, "Ġ×ª×Ĵ": 7134, "Ġ×Ļ×ŀ×Ļ×ł×Ķ": 7135, "Ġ×©×ķ×ķ×Ļ×Ŀ": 7136, "ĳ×Ļ×Ķ": 7137, "Ġ×ł×ĵ×¢": 7138, "Ġ×ł×ª×Ĺ×": 7139, "Ġ×¨×Ĵ×Ļ×ľ×Ķ": 7140, "Ġ×Ĺ×Ľ×Ķ": 7141, "Ġ×Ĺ×Ľ×ŀ×ª": 7142, "Ġ×Ĳ×ķ×ľ×ĵ": 7143, "Ġ×¤×ķ×Ŀ": 7144, "Ġ×ĵ×Ĺ×ķ×£": 7145, "Ġ×ŀ×ķ×§×Ļ": 7146, "Ġ×Ķ×ŀ×Ľ×Ķ": 7147, "Ġsame": 7148, "Ġsomet": 7149, "Ġmove": 7150, "Ġ×¦×ĳ×Ļ×": 7151, "Ġ×¦×Ĳ×Ļ": 7152, "Ġ×§×ķ×ĳ×¨": 7153, "©×ķ×ľ×Ļ×Ŀ": 7154, "Ġwon": 7155, "Ġ×Ķ×©×§×ĺ": 7156, "§×Ļ×ł×Ļ": 7157, "Ġ×Ķ×ķ×¨×¡": 7158, "Ġ×Ķ×Ĳ×ľ×": 7159, "Ġ×Ķ×ĳ×ľ×Ĳ×Ĵ×Ł": 7160, "Ġ×ĳ×ŀ×ĺ×¨×Ķ": 7161, "Ġ×ĳ×ŀ×ĸ×¨×Ĺ": 7162, "Ġ×©×Ļ×Ĺ×ķ×ª": 7163, "Ġ×©×Ļ×¢×ķ×¨": 7164, "Ġbed": 7165, "Ġtheir": 7166, "Ġ×Ķ×ª×©×ķ×ĳ×Ķ": 7167, "Ġ×Ķ×Ĺ×ľ×": 7168, "Ġ×Ľ×©×ª×": 7169, "Ġ×Ķ×Ĵ×ľ×Ĵ×ľ": 7170, "Ġ×ľ×ķ×ŀ×ĵ×Ļ×Ŀ": 7171, "Ġ×Ķ×§×©×¨": 7172, "Ĺ×§×ķ": 7173, "Ġhad": 7174, "Ġhate": 7175, "Ġ×Ķ×ĳ×Ļ×¦": 7176, "ĠSanta": 7177, "Ġ×ķ×ľ×Ľ×ľ": 7178, "Ġ×ķ×ľ×ľ×Ĳ": 7179, "Ġ×©×ª×¨×": 7180, "Ġ×©×ª×ŀ×Ļ×ĵ": 7181, "Ġ×Ķ×ĵ×§": 7182, "×©×Ľ×ľ": 7183, "ark": 7184, "×ĳ×©×": 7185, "ĸ×Ļ×¢": 7186, "Ø¯Ø§": 7187, "Ġ×ª×¢×ĳ×ķ×ĵ": 7188, "Ġ×ŀ×ľ×ĺ×¤×ª": 7189, "ª×Ļ×ĳ": 7190, "ØŃÙĨØ§": 7191, "Ġdir": 7192, "Ġ×¤×¨×¤×¨": 7193, "Ġ×ķ×Ļ×Ĳ×ľ×ľ×Ķ": 7194, "Ġ×ł×ª×¤×¡": 7195, "ical": 7196, "Ġ×Ķ×ĺ×¨×ķ×": 7197, "Ġ×ĳ×Ķ×Ļ×¤": 7198, "Ġ×Ĵ×Ļ×©×Ķ": 7199, "Ġ×Ĵ×ĳ×ķ×Ķ×Ļ×Ŀ": 7200, "Ġ×©×¢×ķ×©×Ļ×Ŀ": 7201, "Ġ×©×©×¨×Ļ×Ŀ": 7202, "Ġ×Ķ×ĵ×Ļ×¡×§": 7203, "Ġnew": 7204, "Ġ×ª×¦×¨×ķ×ļ": 7205, "Ġ×ŀ×Ĺ×Ļ×Ļ×": 7206, "Ġ×Ĵ×ľ×Ļ×ĵ×Ķ": 7207, "Ġ×©×§×Ļ×ķ×ª": 7208, "Ġ×Ķ×©×ķ×¨×ķ×ª": 7209, "Ġ×ŀ×§×Ļ×Ĳ": 7210, "Ġ×ĳ×§×ķ×©×Ļ": 7211, "iend": 7212, "Ġ×Ķ×Ĵ×Ļ×©×Ķ": 7213, "Ġ×¡×¤×ľ×Ļ×£": 7214, "Ġ×Ĳ×ķ×¤×ĺ×Ļ×ŀ×Ļ": 7215, "Ġ×Ķ×¡×¤×§×ª×Ļ": 7216, "Ġ×ĵ×ľ×ª×ķ×ª": 7217, "ł×¡×ĺ×¨×ķ×ŀ×ł×ĺ×": 7218, "Ġ×ŀ×Ĳ×ĵ×Ĳ×¤×Ĳ×§×Ļ×ł×Ĵ": 7219, "Ġ×ľ×¨×Ļ×ĳ": 7220, "Ġ×¡×ķ×ĳ×ĳ×Ļ×Ŀ": 7221, "Ġmotherfuck": 7222, "ĠØ¨Ø§Ø¨Ø§": 7223, "¤×ª×Ļ×¢": 7224, "AM": 7225, "oc": 7226, "vol": 7227, "¡×Ļ×Ļ×": 7228, "ª×Ļ×ª": 7229, "Ð»": 7230, "×ĳ×¨×Ķ": 7231, "ĳ×Ķ×": 7232, "ĳ×ķ×Ļ": 7233, "ľ×ķ×ķ×": 7234, "Ĳ×ľ×ķ": 7235, "Ġ×Ĳ×Ĵ": 7236, "Ġ×Ĳ×©×¨": 7237, "Ġ×Ĳ×¡×ĺ×": 7238, "Ġ×ľ×ĵ×ķ×": 7239, "Ġ×ľ×Ĵ×ķ×": 7240, "Ġ×ľ×ª×Ĳ": 7241, "¢×§×ķ×ª": 7242, "ª×ł×ª": 7243, "Ġ×ŀ×¤×Ļ×": 7244, "Ġ×ŀ×Ĳ×Ļ×¨": 7245, "ł×¤×¥": 7246, "Ġ×Ľ×£": 7247, "§×¡×Ļ×": 7248, "Ġ×¢×¦×ĳ": 7249, "Ġ×¢×ŀ×ķ×ĵ": 7250, "Ġ×ķ×Ļ×Ļ×": 7251, "¡×Ĵ×Ķ": 7252, "ĵ×©×Ķ": 7253, "Ġ×ŀ×Ļ×Ĳ×ķ": 7254, "ĺ×§": 7255, "Ġ×ª×Ļ×§×ķ": 7256, "Ġ×¨×¢×Ļ×Ŀ": 7257, "Ġ×¨×¦×ķ×ª": 7258, "ĳ×ķ×ĺ": 7259, "ĳ×ķ×ł×ķ×ª": 7260, "Ġ×¢×ķ×ŀ×ĵ×ª": 7261, "Ġ×¤×ľ×Ļ": 7262, "Ġ×§×ĳ×¢": 7263, "Ġ×§×¤×ķ×¦": 7264, "Ġ×Ĺ×ŀ×ķ×¨": 7265, "Ġ(\"\"": 7266, "ł×ķ×ķ×¨": 7267, "Ġ×Ĵ×ŀ×¨×ª×Ļ": 7268, "ľ×Ĳ×Ķ": 7269, "Ġ×ľ×Ķ×¦×ľ×Ļ×Ĺ": 7270, "Ø§Ùĩ": 7271, "Ġ×Ľ×ķ×¢×¡": 7272, "ŀ×ķ×Ĺ": 7273, "¨×Ĳ×Ļ×ª": 7274, "Ġ×ĳ×ķ×©×Ķ": 7275, "¤×Ķ×ķ×¤": 7276, "ľ×Ļ×Ĵ": 7277, "¤×ķ×Ĺ": 7278, "Ġ×ŀ×Ķ×Ľ×ľ": 7279, "Ġ×¦×¤×Ļ×ª×Ļ": 7280, "Ġ×ł×ķ×Ĺ": 7281, "Ġ×§×ķ×¨×¡": 7282, "Ġ×Ķ×©×ĺ×Ł": 7283, "Ġ×ŀ×Ĺ×ľ×Ļ×§": 7284, "Ġ×Ķ×Ĳ×Ĵ×Ł": 7285, "Ġ×Ķ×ĳ×Ĺ×ķ×¨×ķ×ª": 7286, "Ġ×ĳ×ŀ×ľ×Ĺ×ŀ×Ķ": 7287, "Ġ×©×ŀ×ĵ×ĳ×¨×Ļ×Ŀ": 7288, "×Ĳ×ł×Ĺ×ł×ķ": 7289, "Ġ×Ķ×¤×¨": 7290, "Ġ×ľ×¤×Ĺ": 7291, "Ġ×ľ×¤×¨×": 7292, "Ġ×©×Ķ×¤×ľ×ķ×Ĳ×ķ": 7293, "Ġ×ŀ×ŀ×ĸ×ŀ×Ł": 7294, "Ġ×¤×ķ×§×ķ×¡": 7295, "×ŀ×¦×ĳ": 7296, "Ġ×Ľ×©×ł×": 7297, "Ġ×Ľ×©×ĸ×Ķ": 7298, "ľ×Ĳ×ĺ": 7299, "Ġ×ľ×ķ×§×Ļ": 7300, "Ġ×Ķ×§×ĳ×ķ×¦×Ķ": 7301, "Ġ×ľ×§×¦×Ķ": 7302, "Ĳ×¨×ķ×ª": 7303, "ÙĪÙģ": 7304, "ÙĪÙĦÙĬ": 7305, "Ġ×ĳ×¡×ĳ×ĳ×Ķ": 7306, "Ġ×Ĺ×Ļ×ķ×ª": 7307, "Ġ×©×Ķ×Ļ×ķ×Ŀ": 7308, "Ġ×Ĵ×ķ×ľ": 7309, "Ġ×ĳ×¢×¨×Ķ": 7310, "ŀ×ķ×Ļ×ķ×ª": 7311, "ĠAm": 7312, "ĠAy": 7313, "Ġ×©×ª×¡×": 7314, "×©×ľ": 7315, "ĠØ§ÙĦÙĨ": 7316, "Ġ×ĵ×Ļ×¡×§": 7317, "Ġ×ł×Ĵ×¢×ª×Ļ": 7318, "ÙĥØ±": 7319, "×¢×ľ×Ļ×Ļ": 7320, "Ġ×¡×ķ×ķ×Ĳ×Ĵ×Ķ": 7321, "Ġ×ŀ×ł×¦×ķ×¨": 7322, "Ġeas": 7323, "Ġ×ŀ×Ĵ×ĵ×ľ": 7324, "Ġrock": 7325, "Ġ×ĳ×Ĳ×ķ×¤×Ł": 7326, "Ġ×Ķ×ŀ×ķ×¨×Ķ": 7327, "Ġ×Ĺ×Ļ×¤×Ķ": 7328, "ĠØ¹Ø§ÙĦ": 7329, "ĠØ£ÙĬ": 7330, "Ġ×Ĳ×ķ×ķ×Ļ×¨×Ķ": 7331, "Ġ×¢×Ļ×Ļ×": 7332, "Ø¬Ø±": 7333, "Ġ×Ķ×¦×Ļ×ĵ×Ķ": 7334, "ĠJe": 7335, "Ġ×¢×©×ª×Ķ": 7336, "×ŀ×ķ×©×ķ×Ł": 7337, "Ġ×ŀ×ĸ×Ļ×¢": 7338, "Ġ×ŀ×ķ×Ľ×ł×Ķ": 7339, "Ġ×Ĺ×Ļ×Ļ×ĸ×¨": 7340, "ĠÙĨÙĪ": 7341, "Ġ×ª×ĸ×ķ×ĸ": 7342, "Ġ×ĸ×ķ×¨×§×Ļ×Ŀ": 7343, "akes": 7344, "Ġ×ª×ĵ×¢×Ļ": 7345, "Ġ×ŀ×ĵ×ķ×ŀ×Ķ": 7346, "Ġ×ŀ×ĳ×ķ×ľ×ĳ×ľ": 7347, "Ð°Ð»": 7348, "Ġ×Ķ×ŀ×¡×ļ": 7349, "Ġalone": 7350, "Ġ×ł×Ľ×ł×¡×ª": 7351, "Ġ×ĳ×§×Ļ×¨": 7352, "Ġ40": 7353, "Ġ×ľ×¡×Ļ×ĳ×ķ×ĳ": 7354, "Ġ×¢×©×ķ×¨": 7355, "Ġ×ŀ×ľ×Ĳ×ļ": 7356, "Ĺ×ķ×©×Ļ×ľ×Ļ×ł×Ĵ": 7357, "×ĺ×Ĳ×¤×©": 7358, "old": 7359, "ping": 7360, "¦×Ļ×§": 7361, "©×Ļ×Ł": 7362, "Ĳ×ķ×ĳ": 7363, "×Ļ×ĺ×Ļ×Ŀ": 7364, "ľ×ĸ×ľ": 7365, "ŀ×¤": 7366, "ŀ×ŀ×Ķ": 7367, "Ġ×Ĳ×ĸ×Ķ": 7368, "Ġ×Ĳ×¤×ķ×ľ": 7369, "Ġ×Ķ×Ļ×§×ķ×Ŀ": 7370, "Ġ×ľ×ĺ×ķ×": 7371, "Ġ×ľ×¦×Ļ×": 7372, "Ġ×ľ×Ĺ×Ļ×": 7373, "Ġ×ľ×ł×ķ×Ĺ": 7374, "Ľ×ĸ×ĳ": 7375, "¢×ł×Ļ×Ŀ": 7376, "Ġ×ŀ×ľ×Ķ×": 7377, "Ġ×ĳ×ł×Ļ×Ŀ": 7378, "Ġ×ĳ×¦×Ļ×": 7379, "Ġ×©×Ĳ": 7380, "Ġ×©×Ĺ×¨": 7381, "ł×ĳ×Ļ": 7382, "ł×¡×ª": 7383, "Ĺ×ľ×Ķ": 7384, "Ġ×Ľ×¤×Ļ×ª": 7385, "§×¨×ķ×Ł": 7386, "Ĵ×Ĳ×Ł": 7387, "Ġ×ķ×ľ×Ļ": 7388, "Ġ×Ļ×§×Ĺ": 7389, "Ľ×ķ×ł×Ļ×Ŀ": 7390, "Ġ×¤×Ł": 7391, "Ġ×¤×¡×ķ×": 7392, "Ġ×¤×ł×Ļ×": 7393, "Ġ×¤×¨×Ļ": 7394, "Ġ×¤×¨×Ĳ×©": 7395, "Ġ×Ĺ×ĸ×Ķ": 7396, "Ġ×Ĳ×ķ×ĸ×ł×Ļ×ķ×ª": 7397, "Ġ×Ľ×ľ×Ļ×Ŀ": 7398, "§×ķ×§": 7399, "§×ķ×ŀ×Ļ": 7400, "Ġ×¨×ķ×¢": 7401, "Ġ×ľ×Ķ×¨×ķ×Ĵ": 7402, "Ġ×ĺ×Ļ×Ļ×": 7403, "Ġ×ŀ×ķ×ľ×ļ": 7404, "Ġ×Ķ×ŀ×ĳ×ĺ": 7405, "Ġ×Ĳ×ľ×Ļ×Ŀ": 7406, "Ġ×ĳ×ķ×ĵ×§": 7407, "Ġ×ĳ×Ļ×¦×Ļ×Ŀ": 7408, "¡×Ļ×¡×Ļ×Ŀ": 7409, "Ġaway": 7410, "Ġ×ŀ×ª×Ĺ×Ļ×ľ×Ķ": 7411, "ª×ķ×ľ×ľ": 7412, "Ġ×©×ķ×ł×Ĳ×Ļ×Ŀ": 7413, "©×Ļ×Ĺ": 7414, "Ġ×ŀ×Ķ×ĳ×ķ×§×¨": 7415, "ÙĦØ³": 7416, "Ġ×¦×ľ×Ĺ×ª": 7417, "Ġ×¢×ĵ×Ļ×Ł": 7418, "Ġ×ł×ķ×ĸ×ľ": 7419, "©×ķ×¨×ª": 7420, "ľ×ķ×¡": 7421, "Ġ×Ķ×©×ĳ×§": 7422, "Ġ×ĳ×Ĳ×¡": 7423, "Ġ×ĳ×Ĳ×©": 7424, "Ġ×ĳ×Ĳ×ľ×": 7425, "Ġ×ŀ×Ĺ×ŀ×Ŀ": 7426, "Ġ×ľ×ŀ×¢×Ł": 7427, "Ġ×ĺ×ł×§": 7428, "Ġ×ĺ×¨×ł×": 7429, "Ġ×Ķ×ĳ×ł×§": 7430, "×Ĳ×ľ×£": 7431, "×Ĳ×Ĺ×ķ×©×Ļ×ľ×Ļ×ł×Ĵ": 7432, "Ġ×ķ×Ĳ×Ĺ×Ļ×ķ×ª": 7433, "×ķ×ķ×Ļ×ª": 7434, "Ġ×¦×ķ×¨×Ķ": 7435, "anot": 7436, "its": 7437, "itive": 7438, "Ġ×¡×ķ×¤×": 7439, "Ġ×Ķ×¨×ĵ×Ļ×ķ": 7440, "Ġ×©×Ķ×§×": 7441, "Ġ×©×Ķ×Ĺ×Ļ×Ļ×Ŀ": 7442, "Ġ×ŀ×ŀ×©×ľ×Ķ": 7443, "Ġ×ŀ×¢×¨×Ļ×": 7444, "ĵ×ĳ×¨×ķ": 7445, "¡×ĺ×Ļ×Ļ×": 7446, "Ġ×Ķ×Ļ×©×": 7447, "Ġ×Ķ×Ĵ×¢×ª": 7448, "Ġgl": 7449, "Ġ\"\"!": 7450, "Ġ×ª×ķ×§×¢": 7451, "Ġ×§×Ļ×¨×ķ×ª": 7452, "Ġnight": 7453, "ĺ×Ļ×ł×Ĵ": 7454, "ŀ×¢×Ķ": 7455, "Ġ×ĳ×¨×Ľ×Ķ": 7456, "Ġ×Ķ×¡×Ĳ×ķ×ł×ĵ": 7457, "Ø¨Ø©": 7458, "Ġ×ª×©×Ĺ×§": 7459, "orning": 7460, "Ġmed": 7461, "Ġ×ĳ×¢×ł×ł×Ļ×Ŀ": 7462, "Ġ×ŀ×Ľ×Ļ×ª×Ķ": 7463, "ł×§×ķ×ª": 7464, "Ġ×ł×ŀ×¡": 7465, "Ġ×ĺ×Ļ×¤×": 7466, "ÙĥÙĪÙĨ": 7467, "Ġ×ķ×ª×§×": 7468, "Ġ×ľ×ł×©×ŀ×Ķ": 7469, "Ġ×Ĺ×ĸ×ł×Ļ×Ŀ": 7470, "ĠÙĪØ£": 7471, "Ġ×ľ×¦×¨×ķ×Ĺ": 7472, "Ġ×¨×Ĳ×©×Ļ": 7473, "Ġ×ľ×Ĵ×¨×©": 7474, "Ġend": 7475, "Ġ×ª×ª×¤×ķ×¡": 7476, "Ġ×ł×ķ×¨×Ļ×ĵ": 7477, "×ľ×ŀ×": 7478, "×ľ×ľ×Ļ": 7479, "ÙģØ§Ø±": 7480, "ª×§×ķ×ķ×Ķ": 7481, "Ġ×ŀ×¡×ª×¤×§": 7482, "Ġ×Ķ×ĺ×ŀ×": 7483, "ĠØ¹Ø´": 7484, "×ŀ×Ļ×ľ×Ļ×Ŀ": 7485, "Ġ×©×§×©×Ķ": 7486, "ĠRight": 7487, "Ġ×ŀ×ª×§×¨×ĳ×Ļ×Ŀ": 7488, "Ġ×©×©×ľ×Ļ": 7489, "Ġ×ª×Ĳ×ŀ×¨": 7490, "Ġ×Ķ×ľ×Ľ×Ķ": 7491, "Ø§Ø±Ø©": 7492, "Ġ×ł×ĵ×¤×§": 7493, "Ġ×Ķ×¨×Ļ×Ĺ": 7494, "¨×ł×©": 7495, "Ġ×ŀ×ª×ł×¦×ľ": 7496, "Ġprom": 7497, "Ġ×ľ×Ĳ×Ļ×ĳ×ķ×ĵ": 7498, "Ġ×ķ×¢×ķ×©×Ķ": 7499, "ollow": 7500, "Ġ×ĳ×¡×ķ×¤×ķ": 7501, "Ġ×Ķ×ķ×ķ×ľ×Ļ×ķ×Ŀ": 7502, "ĠRebel": 7503, "ĠBecause": 7504, "×ŀ×Ļ×Ļ×§×Ķ": 7505, "afot": 7506, "Ġ×ĳ×¦×ķ×ŀ×ª": 7507, "Ġ×ŀ×©×ª×Ļ×Ł": 7508, "Ġ×ŀ×Ķ×ĳ×Ļ×ŀ×Ķ": 7509, "Ġ×¢×¦×ĳ×ł×Ļ×Ļ×Ŀ": 7510, "Ġ×ĳ×Ĺ×Ļ×Ļ×Ĳ×ª": 7511, "volution": 7512, "?âĢı,": 7513, "ia": 7514, "ious": 7515, "Ã©": 7516, "×¢×ķ×ľ×Ŀ": 7517, "×ĺ×ķ": 7518, "×ĵ×ķ×¨": 7519, "×ľ×Ĳ×§": 7520, "Ġother": 7521, "×ķ×ĵ×Ķ": 7522, "×Ļ×ŀ×ĳ×ķ": 7523, "Ĳ×ŀ×¨": 7524, "ľ×ł×Ļ×Ŀ": 7525, "ŀ×ľ×Ķ": 7526, "ĳ×§×Ķ": 7527, "ĳ×ľ×¡": 7528, "Ġ×Ķ×ķ×ķ×¨×¡": 7529, "Ġ×Ķ×ĺ×Ļ": 7530, "Ľ×ł×Ļ×Ŀ": 7531, "ª×ŀ×ķ×ľ": 7532, "Ġ×ŀ×ĳ×¨": 7533, "Ġ×ŀ×ľ×Ļ×": 7534, "Ġ×ŀ×¢×ķ×ľ×Ŀ": 7535, "Ġ×ŀ×ª×Ļ×": 7536, "Ġ×ŀ×¡×Ļ×§×Ķ": 7537, "Ġ×ŀ×¦×Ļ×ķ×Ł": 7538, "Ġ×ĳ×ĺ×ķ×Ł": 7539, "Ġ×©×ĺ×Ł": 7540, "¤×ł×Ķ": 7541, "Ġ×Ľ×©×¨": 7542, "§×Ĳ×ķ×ª": 7543, "Ġ×¢×ĸ×¨": 7544, "Ġ×¢×¦×ķ×ª": 7545, "ĵ×§×Ļ×Ŀ": 7546, "ĵ×ĵ×ª": 7547, "Ġ×ķ×Ĳ×Ķ": 7548, "Ġ×ķ×¦×ķ×": 7549, "Ġ×ª×§": 7550, "Ġ×ª×§×ķ×ķ×ª": 7551, "Ġ×Ļ×ł×": 7552, "ĳ×Ļ×¦×Ļ×Ŀ": 7553, "ĸ×Ŀ": 7554, "Ġ×¨×ĸ×Ķ": 7555, "Ġ×¤×¨×§": 7556, "Ġ×Ĺ×ŀ×Ļ×Ŀ": 7557, "×Ļ×ĵ×ķ×¨": 7558, "Ġ×Ĵ×¢×": 7559, "Ġ×ľ×Ķ×§×©×Ļ×ĳ": 7560, "Ø§Ùģ": 7561, "Ġ×ŀ×ķ×ł×": 7562, "Ġ×ŀ×ķ×ł×Ļ×ª": 7563, "Ġ×ŀ×ķ×¢×ĵ×ķ×Ł": 7564, "ł×ķ×ļ": 7565, "Ġ×Ķ×ŀ×ĵ×ĳ×¨": 7566, "Ġ×ŀ×ª×¤×¨×": 7567, "Ġ×Ĺ×ķ×£": 7568, "Ġ×©×ķ×ĵ": 7569, "Ġ×©×ķ×¨×ĵ": 7570, "Ġ×Ĵ×ķ×¨×Ļ": 7571, "Ġ×ĸ×Ļ×ķ×": 7572, "ŀ×Ļ×ł×Ļ": 7573, "Ġwait": 7574, "Ġ×ĸ×ŀ×Ļ×Ł": 7575, "Ġ×ĳ×Ĳ×ĵ×Ļ": 7576, "Ġ×Ķ×Ľ×ľ×Ļ×Ŀ": 7577, "Ġ×ĺ×§×": 7578, "Ġ×Ķ×ĳ×¨×Ľ×Ļ×Ļ×Ŀ": 7579, "Ġ×ĳ×ŀ×Ĳ×": 7580, "Ġ×ĳ×ŀ×ĳ×ĺ": 7581, "×Ĳ×§×": 7582, "Ġ×Ķ×¤×ľ×Ĳ×": 7583, "Ġ×ł×©×ĳ": 7584, "Ġ×ķ×Ķ×¢×ª×Ļ×ĵ": 7585, "Ġ×ľ×¤×Ĵ×ķ×©": 7586, "Ġ×Ĳ×ł×ĵ×": 7587, "Ġlyric": 7588, "Ġ×ŀ×Ļ×ĺ×Ķ": 7589, "¦×Ĳ×Ķ": 7590, "Ġ×ľ×Ĳ×ľ": 7591, "Ġ×ľ×Ĳ×ĳ×Ĳ": 7592, "Ġ×Ķ×Ļ×¨×Ĺ": 7593, "Ġ×ĳ×¨×Ĺ×ª×Ļ": 7594, "Ġ×ľ×§×¨×ĳ": 7595, "Ġ×ª×©×¢×Ļ×Ŀ": 7596, "Ġ×ķ×ľ×ĳ×": 7597, "Ġ×ķ×ľ×ŀ×¨×ķ×ª": 7598, "Ġ×ª×§×¨×Ĳ×ķ": 7599, "ets": 7600, "ĠÙħØŃ": 7601, "Ġ×Ķ×ĵ×Ĳ×": 7602, "Ġ×Ķ×ĵ×©×Ĳ": 7603, "Ġ×ĳ×Ľ×ł×Ļ×¡×Ķ": 7604, "ĠØ¨ÙĬ": 7605, "Ġ×ķ×ĳ×ł×ķ×ª": 7606, "×ĳ×ł×Ļ": 7607, "ĠØ§ÙĦÙĤ": 7608, "Ġ×Ĳ×¦×ľ×Ķ": 7609, "Ġ×¦×ķ×¢×ĵ": 7610, "Ġ×ŀ×¨×©×": 7611, "Ġeven": 7612, "Ġ×ĳ×ĳ×¢×Ļ×": 7613, "Ġ×Ķ×Ĺ×ķ×ĵ×©": 7614, "Ġ×ĳ×ł×©×ŀ×Ķ": 7615, "¡×ĺ×ľ": 7616, "Ġ×ŀ×ĺ×ŀ×ĺ×Ŀ": 7617, "Ġ×¨×Ĵ×¢×Ļ×Ŀ": 7618, "ł×ĺ×¨×ł×ĺ": 7619, "Ġ×©×¨×¤×ª×Ļ": 7620, "Ġknock": 7621, "©×ķ×ķ×Ĳ": 7622, "Ġ×Ķ×¦×Ļ×¨": 7623, "Ĳ×ł×Ĵ×": 7624, "ĠYour": 7625, "Ġ×Ķ×ľ×Ľ×ķ": 7626, "ĠThere": 7627, "Ġ×¡×Ĳ×Ĺ×Ļ": 7628, "emp": 7629, "Ġ×ķ×¨×ĳ×ķ×ª": 7630, "Ġ×ŀ×©×¤×Ĺ×ª": 7631, "Ġ×ª×ŀ×¦×Ĳ×Ļ": 7632, "Ġ×ŀ×©×ķ×Ĵ×¢×Ļ×Ŀ": 7633, "Ġ×Ķ×¨×Ĳ×©×ķ×ł×Ķ": 7634, "Ġ×Ķ×ķ×¤×¢×Ķ": 7635, "Ġ×Ĳ×¡×ľ×Ļ": 7636, "Ġ×Ķ×ł×ķ×£": 7637, "Ġ×ķ×Ľ×ķ×ľ×ł×ķ": 7638, "Ġatt": 7639, "Ġheart": 7640, "ĳ×ľ×ķ×§": 7641, "Ġ×ŀ×ľ×Ĺ×ŀ×ķ×ª": 7642, "ł×Ĵ×ķ×ľ×ĵ×Ķ": 7643, "Ġ2000": 7644, "Ġ×ĳ×Ĵ×ľ×ľ×ļ": 7645, "Ġ×ŀ×¡×ª×Ļ×¨": 7646, "Ġ×ķ×Ľ×©×Ķ×": 7647, "ĠÙĦØ§Ø²ÙħØ©": 7648, "OW": 7649, "uh": 7650, "¦×ķ×¨×Ļ×Ŀ": 7651, "×ľ×ļ": 7652, "×¡×ķ×£": 7653, "×ľ×ķ": 7654, "Ĵ×ķ×Ł": 7655, "ĵ×Ļ×Ł": 7656, "ĺ×Ļ×©": 7657, "×ķ×§×¨": 7658, "ŀ×ŀ×ª": 7659, "ĳ×ĵ×": 7660, "Ġ×Ĳ×¢×": 7661, "Ġ×Ĳ×ĺ×": 7662, "Ġ×Ķ×Ļ×ľ": 7663, "©×ľ×Ļ": 7664, "Ġ×ľ×¨×Ĳ×¤×¨×Ļ×Ŀ": 7665, "Ġ×ľ×Ĵ×ľ×ķ×ª": 7666, "Ġ×Ķ×Ľ": 7667, "¨×Ľ×Ķ": 7668, "¨×ĵ×Ķ": 7669, "¨×ĳ×Ļ×ª": 7670, "¨×©×Ŀ": 7671, "Ġ×ŀ×¡×Ļ×": 7672, "Ġ×ĳ×§×ķ": 7673, "Ġ×ĳ×¡×ĺ×Ļ×Ļ×ľ": 7674, "Ġ×ĳ×ŀ×Ļ×ľ×Ļ×Ŀ": 7675, "Ġ×©×Ľ×Ł": 7676, "Ġ×©×ĺ×ķ×ĳ": 7677, "§×ľ×Ŀ": 7678, "§×ĵ×ª": 7679, "Ġ×¢×©×ĳ": 7680, "Ġ×ľ×Ĳ×Ķ×ĳ×Ķ": 7681, "Ĵ×¨×ª×Ļ": 7682, "Ĵ×ĸ×Ļ×Ŀ": 7683, "Ĵ×ľ×Ļ×Ļ×Ŀ": 7684, "Ġ×ķ×ª×Ļ×§": 7685, "Ġ×ª×ĳ×Ļ×ĺ": 7686, "Ġ×ª×¤×§×Ļ×ĵ": 7687, "¦×¤×ª": 7688, "×Ķ×Ĺ×": 7689, "Ġ×Ļ×Ĳ×ķ×": 7690, "Ġ×Ļ×¡×ª×ĵ×¨": 7691, "Ġ×ł×¢": 7692, "ĺ×ŀ×Ł": 7693, "ĺ×¦×Ļ×Ķ": 7694, "ĳ×¨×Ļ": 7695, "Ġ×¨×ŀ×Ķ": 7696, "Ġ×¨×¦×Ķ": 7697, "Ġ×¤×Ĳ×ķ×": 7698, "Ġ×¤×Ĵ×Ļ×¢": 7699, "Ġ(...": 7700, "Ġ×Ĵ×ľ×ķ×": 7701, "Ġ×Ļ×ķ×ŀ×Ļ×Ļ×Ŀ": 7702, "Ġta": 7703, "Ġ×ľ×Ķ×ľ×Ĺ×Ŀ": 7704, "Ġ×ľ×Ķ×¤×¡×Ļ×ĵ": 7705, "Ġ×ĵ×Ĳ×ł×Ĵ": 7706, "Ġ×ŀ×ķ×¡×Ļ×§×Ķ": 7707, "Ġ×ĵ×Ļ×Ļ×": 7708, "Ġ×Ķ×ŀ×ľ×Ĺ×ŀ×Ķ": 7709, "ł×Ļ×£": 7710, "âĢİ": 7711, "âĢĿ": 7712, "Ġ×Ĺ×ķ×ŀ×Ķ": 7713, "Ġ×©×ķ×ĺ×¨×Ļ×Ŀ": 7714, "Ġ×©×ķ×Ĳ×ľ×ª": 7715, "ŀ×¨×Ķ": 7716, "©×Ļ×Ľ×ķ": 7717, "¤×ķ×©": 7718, "Ġ×Ĵ×Ļ×Ĳ": 7719, "Ġ×ŀ×Ķ×¤×¡×Ļ×Ŀ": 7720, "Ġmat": 7721, "Ġ×¦×¨×¤×ª": 7722, "Ġ×ĸ×ŀ×ł×Ļ": 7723, "Ġ×ĳ×Ĳ×ľ×Ļ": 7724, "Ġ×ĳ×Ĳ×ĵ×ŀ×Ķ": 7725, "§×Ļ×ľ×ĸ": 7726, "Ġ×Ķ×Ĳ×ľ×ĳ×ķ×Ŀ": 7727, "Ġ×ĳ×©×ŀ×Ĺ×Ķ": 7728, "Ġ×ĳ×ŀ×¡×¢": 7729, "×Ĳ×ł×¡": 7730, "×Ĳ×Ĺ×ĵ": 7731, "Ġ×©×Ļ×§×": 7732, "Ġ×Ķ×¤×Ľ×Ķ": 7733, "Ġ×ķ×Ĳ×ľ×": 7734, "Ġ×ł×©×¨": 7735, "Ġ×¦×ķ×ķ×ª": 7736, "Ġbu": 7737, "Ġ×¡×ķ×ľ": 7738, "Ġ×ľ×¤×¨×§": 7739, "Ġ×ŀ×Ļ×¥": 7740, "Ĺ×ª×ķ×Ŀ": 7741, "Ġ×¤×ķ×ª×Ĺ×ª": 7742, "ĵ×¨×ķ": 7743, "Ġ×ķ×ķ×Ĳ×ĺ": 7744, "Ø±Ùģ": 7745, "Ġ×§×Ļ×Ļ": 7746, "Ġ×ľ×ķ×¤": 7747, "ŀ×¢×ķ": 7748, "Ġ×ľ×Ĺ×ĵ×¨": 7749, "Ġ×ĳ×¨×Ĺ×ĳ×Ķ": 7750, "Ġ×Ķ×¡×ł×": 7751, "Ġ×ª×©×ŀ×ķ×¨": 7752, "Ġhit": 7753, "ĠØ¨ÙĦ": 7754, "Ġ×¤×Ļ×ł×Ĵ": 7755, "Ġ×ŀ×Ľ×ª×ķ×ĳ": 7756, "Ġ×ķ×ĳ×Ĵ×": 7757, "Ġ×Ķ×¢×¦×ĳ": 7758, "Ġ×¢×¦×ĳ×ł×Ļ": 7759, "Ġ×¦×ķ×¤×Ķ": 7760, "Ġ×¦×ķ×ĵ×§": 7761, "Ġ×©×ł×Ľ×ł×¡": 7762, "ĸ×Ļ×ľ×ł×ĵ": 7763, "Ġ×Ķ×ł×Ĳ×": 7764, "Ġ×Ļ×Ĳ×ķ": 7765, "Ġ×ľ×¨×ĵ×ª": 7766, "¦×¨×ķ": 7767, "ĠÙĪØ§ØŃ": 7768, "Ġmyself": 7769, "Ġ×ł×Ĺ×ĸ×ķ×¨": 7770, "Ġ×Ķ×Ĺ×ķ×ľ": 7771, "Ġ×Ķ×Ĺ×ķ×¤×©": 7772, "Ġ×ķ×Ļ×ĺ×ķ×Ł": 7773, "Ġ×ŀ×¡×ª×ĳ×ļ": 7774, "Ġ×ľ×¤×ł×Ļ×Ļ": 7775, "Ġ×©×Ľ×Ĳ×Ł": 7776, "Ġ×ª×¨×Ĵ×¢": 7777, "Ġ×Ļ×¢×©×Ķ": 7778, "Ġ×ŀ×ª×Ĺ×ĳ×¨": 7779, "ľ×Ķ×§×Ķ": 7780, "Ġ×Ĳ×ľ×ķ×§×Ļ×Ŀ": 7781, "Ġ×Ĵ×ĳ×ķ×ľ": 7782, "Ġgoing": 7783, "ost": 7784, "Ġ×ŀ×Ĺ×ķ×ľ": 7785, "Ġtrou": 7786, "Ġmany": 7787, "×Ĳ×Ļ×ł×¡×ĺ×¨×ķ×ŀ×ł×ĺ×": 7788, "Ġ×ª×ķ×¤×¡×Ļ×Ŀ": 7789, "Ġ×ª×Ĵ×ŀ×ķ×¨": 7790, "×¨×Ĵ×¢": 7791, "Ġ×ľ×Ķ×ķ×Ľ×Ļ×Ĺ": 7792, "Ġ×Ĺ×ķ×ľ×ŀ×ª": 7793, "Ġ×¢×¨×¡×Ļ×Ŀ": 7794, "ĺ×ķ×¡×Ļ×§": 7795, "ĳ×ľ×ł×ķ×ª": 7796, "Ġ×©×Ļ×ķ×ĵ×¢": 7797, "Ġ×Ķ×©×ª×ĳ×©": 7798, "Ġ×ľ×Ķ×©×ª×Ĵ×¢": 7799, "Ġ×§×ĳ×ľ×ķ": 7800, "Ġ×Ķ×ŀ×¡×¤×¨": 7801, "Ġ×ĳ×©×Ļ×Ĳ": 7802, "Ġ×§×¨×ķ×ĳ×Ļ×Ŀ": 7803, "ŀ×¤×Ŀ": 7804, "Ġ×Ĵ×ł×ĳ×Ļ×Ŀ": 7805, "Ġ×ª×ķ×¨×Ļ×ĵ×Ļ": 7806, "Ġwhole": 7807, "Ġ×Ĳ×ł×ķ×©": 7808, "Ġ×ĳ×ķ×ľ×¢": 7809, "iving": 7810, "Ġ×ľ×¦×Ļ×ĵ×Ļ": 7811, "Ġ×Ķ×¢×Ļ×¨×Ķ": 7812, "Ġ×ĳ×ľ×¢×ĵ×Ļ×Ļ": 7813, "¦×ĺ×¨×£": 7814, "Ġ×ĳ×©×Ļ×¨×ķ×ª×Ļ×Ŀ": 7815, "Ġ×Ķ×ŀ×¨×Ľ×ĸ": 7816, "Ġfeeling": 7817, "Ġ×ł×©×Ļ×§×Ķ": 7818, "Ġ×ŀ×Ĺ×ĸ×Ļ×¨×Ļ×Ŀ": 7819, "Ġ×Ķ×©×Ľ×ł×Ļ×Ŀ": 7820, "ĺ×ł×¦×Ļ×": 7821, "Ġ×ĵ×¨×Ļ×ł×§": 7822, "!\"\"": 7823, "pe": 7824, "¨×ķ×ķ×": 7825, "Ð²": 7826, "×ŀ×Ļ×Ŀ": 7827, "×Ľ×Ļ×": 7828, "Ľ×ķ×¨×Ļ×Ŀ": 7829, "ŀ×Ļ×ľ": 7830, "Ġ×³": 7831, "×Ļ×ľ×ĵ×Ļ×Ŀ": 7832, "Ĳ×ĳ×Ļ×Ŀ": 7833, "Ĳ×ĺ×Ļ": 7834, "ľ×§×Ļ×Ŀ": 7835, "Ġ×Ķ×ķ×Ļ": 7836, "©×ľ×ª×Ļ": 7837, "Ġ×Ķ×Ĺ×Ļ×ķ×ļ": 7838, "ª×¤×¨": 7839, "Ġ×ŀ×¦×Ļ×ª": 7840, "Ġ×ŀ×¡×Ļ×ĳ×ķ×ª": 7841, "Ġ×©×ĵ": 7842, "Ġ×©×ĳ×Ķ": 7843, "Ġ×©×¨×ķ×Ł": 7844, "Ġ×©×¢×ĵ": 7845, "Ġ×©×Ĳ×Ļ×ª×Ļ": 7846, "Ġ×©×ĸ×Ĳ×ª": 7847, "¤×¢×ľ": 7848, "§×¨×¡": 7849, "Ġ×¢×¡×§×Ļ×Ŀ": 7850, "¡×¤×ķ×": 7851, "ĵ×¨×Ļ": 7852, "ĵ×©×ª": 7853, "ĵ×ĳ×§": 7854, "Ġ×ľ×Ĳ×Ļ×©": 7855, "Ġ×ķ×¡×ķ×": 7856, "Ġ×ķ×ŀ×Ķ×": 7857, "Ġ×ª×¤×Ļ×ľ": 7858, "Ġ×ª×ł×¡×ķ": 7859, "¦×¦×Ļ×Ŀ": 7860, "×Ķ×Ł": 7861, "¨×ķ×§×Ł": 7862, "Ġ×ł×ł×": 7863, "Ġ×ł×§×¡×ĺ": 7864, "×Ļ×Ļ×ŀ×¡": 7865, "ĳ×ķ×§×": 7866, "Ĺ×ķ×ŀ×Ļ": 7867, "Ġ×Ĵ×Ĳ×Ķ": 7868, "ľ×Ĳ×ķ×ª": 7869, "Ġ×¡×ŀ×ķ×": 7870, "Ġ×¡×ĳ×Ļ×ĳ": 7871, "Ġ×¡×ĳ×Ļ×ĳ×Ļ": 7872, "Ġ×¡×ł×ĺ×Ķ": 7873, "§×ķ×¨×ª": 7874, "Ġting": 7875, "Ġtwo": 7876, "Ġ×¨×ķ×¥": 7877, "Ġ×ľ×Ķ×Ľ×ł×¡": 7878, "Ġ×ľ×Ķ×¦×ľ×Ĺ×Ķ": 7879, "¨×Ļ×¡": 7880, "Ġ×Ķ×ŀ×Ĺ×ķ×": 7881, "Ġ×Ĳ×ľ×ķ": 7882, "ł×Ļ×Ĳ×§": 7883, "×Ļ×©×ķ": 7884, "Ġafter": 7885, "Ġ×ŀ×ª×ł×Ķ": 7886, "Ġ×©×ķ×¤×ļ": 7887, "Ġsun": 7888, "Ġmillion": 7889, "Ġmorning": 7890, "Ġ×¦×ŀ×Ĳ": 7891, "Ġ×§×ķ×£": 7892, "©×ķ×§×Ķ": 7893, "ony": 7894, "Ġ×ĺ×ł×Ļ×Ķ": 7895, "Ġ×ĺ×¢×Ļ×ª": 7896, "Ġ×Ķ×ĳ×¡×ĺ": 7897, "Ġ×ĳ×ŀ×¦×": 7898, "Ġ×©×ŀ×Ĵ×Ļ×¢": 7899, "Ġ×Ķ×¤×Ĳ×£": 7900, "×ķ×ķ×Ļ×ķ×ª": 7901, "Ġbitch": 7902, "Ġ×ŀ×Ĳ×Ĺ×¨": 7903, "Ġ×ķ×Ķ×ĸ×ŀ×Ł": 7904, "Ġ×ľ×¤×Ĳ×§×Ļ×ł×Ĵ": 7905, "Ġ×Ķ×¨×Ľ×ĳ×ª": 7906, "Ġ×Ķ×ª×¨×ĳ×ķ×ª": 7907, "Ġ×ĸ×ķ×ľ×ķ×ĵ": 7908, "Ġ×ľ×Ĳ×Ĺ×¨": 7909, "¨×§×Ļ": 7910, "¨×§×ķ": 7911, "Ġ×¤×ķ×¨×¥": 7912, "Ġ×Ķ×Ļ×©×Ł": 7913, "Ġ×©×Ĳ×ł": 7914, "ĺ×Ļ×£": 7915, "Ġ×ľ×ķ×¡": 7916, "ĠØ§ÙĨØª": 7917, "Ġ×ľ×Ļ×¨×ķ×§": 7918, "Ġ×ľ×Ļ×ĵ×ļ": 7919, "ľ×Ĺ×ŀ×ķ×ª": 7920, "Ġhis": 7921, "ork": 7922, "Ġ×©×Ķ×Ļ×Ļ×ª×Ķ": 7923, "Ġ×ł×Ļ×ľ×Ĺ×Ŀ": 7924, "Ġ×Ĵ×ķ×¤×ł×Ļ": 7925, "Ġ×ķ×ľ×¤×": 7926, "Ġ×©×ª×ĳ×Ļ×": 7927, "Ġ×ŀ×¤×¦×Ļ×¥": 7928, "Ġ×Ķ×¢×©×ĳ": 7929, "Ġ×ª×Ļ×ŀ×ł×Ļ": 7930, "Ġ×ª×Ļ×¨×Ĵ×¢": 7931, "ĠØ§ÙĦØ¨": 7932, "Ġ×ĵ×Ļ×ł×Ĵ": 7933, "Ġ×ĳ×Ĺ×ľ×ķ×Ł": 7934, "Ġ×ł×ŀ×¦×Ĳ×ª": 7935, "Ġ×ª×¢×¦×ķ×¨": 7936, "ĠBoom": 7937, "ĳ×ķ×Ļ×": 7938, "ĠWant": 7939, "Ġ×ľ×Ĵ×ł×ķ×ĳ": 7940, "Ġ×Ķ×Ĺ×ķ×§": 7941, "×ľ×Ĳ×Ł": 7942, "ada": 7943, "¡×ĺ×¨×Ļ×Ŀ": 7944, "Ġ×ķ×Ľ×Ľ×Ķ": 7945, "Ġ×Ĳ×Ĺ×¨×Ļ×ķ×ª": 7946, "ĠØ£ÙĨ": 7947, "Ġ×ŀ×ĸ×ŀ×Ļ×ł×Ļ×Ŀ": 7948, "Ġ×Ĳ×©×Ľ×ł×": 7949, "Ġ×ł×¨×Ĵ×¢": 7950, "Ġ×ª×Ĳ×ŀ×Ļ×Ł": 7951, "Ġ×Ļ×Ľ×ķ×ľ×ª": 7952, "Ġ19": 7953, "Ġ×Ķ×ķ×ľ×ĵ×ª": 7954, "Ġ×Ķ×§×ķ×¤×Ķ": 7955, "×©×ķ×Ĳ×ķ": 7956, "Ġ×Ļ×Ļ×§×Ĺ": 7957, "Ġ×Ķ×Ĵ×Ļ×¢×ķ": 7958, "Ġ×Ĺ×ľ×§×Ŀ": 7959, "Ġ×ŀ×©×Ĳ×Ļ×¨×Ļ×Ŀ": 7960, "×ŀ×Ļ×ľ×Ļ×ķ×Ł": 7961, "Ġ×Ķ×Ľ×Ļ×¤×Ĳ×§": 7962, "Ġ×¢×¨×ĳ×Ļ×Ŀ": 7963, "Ġ×ł×Ĳ×ŀ×Ł": 7964, "ĠØ®Ø¶": 7965, "Ġ×Ķ×ª×§×ľ×Ļ×ĺ×Ļ×Ŀ": 7966, "Ð°Ð¼": 7967, "Ġ×Ķ×¨×Ĳ×¤×¨": 7968, "razy": 7969, "Ġ×Ĳ×ĳ×Ļ×¨×Ļ": 7970, "Ġ×ķ×ķ×Ļ×¡×§×Ļ": 7971, "Ġ×Ķ×¦×ľ×Ļ×ľ": 7972, "Ġnothing": 7973, "Ġ×ĳ×Ĳ×ķ×ª×Ķ": 7974, "Ġ×ľ×ŀ×©×Ĺ×§": 7975, "Ġ×ľ×Ķ×¡×ª×ķ×ĳ×ĳ": 7976, "Ġ×ķ×ł×ķ×©×Ŀ": 7977, "ney": 7978, "Ø±Ø¨Ùĥ": 7979, "Ġ×ŀ×ķ×ª×Ĵ": 7980, "Ġ×ł×Ļ×¦×Ĺ×ķ×Ł": 7981, "Ġ×Ķ×ŀ×ŀ×©×ľ×Ķ": 7982, "Ġ×¡×Ļ×Ĵ×¨×Ļ×ķ×ª": 7983, "ĠÙĦÙĬÙĩ": 7984, "Ġ×ł×ľ×Ĺ×ŀ×Ļ×Ŀ": 7985, "ł×ª×Ĺ×ķ×ŀ×Ļ": 7986, "Ġsky": 7987, "Ġ×©×ª×ĵ×¢×Ļ": 7988, "Ġ×ŀ×Ļ×ľ×ķ×ľ×Ļ": 7989, "Ġ×ľ×ŀ×ĵ×ķ×¨×Ķ": 7990, "gether": 7991, "Ġ×Ĵ×¨×Ĳ×¤×Ļ×ĺ×Ļ": 7992, "×Ļ×ķ×ķ×Ļ×ª×Ļ": 7993, "Ġ×Ķ×Ĺ×Ĵ×Ļ×Ĵ×Ķ": 7994, "'ve": 7995, "ied": 7996, "man": 7997, "ng": 7998, "va": 7999, "Ġ8": 8000, "Ġim": 8001, "ĠáĪ": 8002, "ł×ķ×Ĳ": 8003, "×ķ×ĸ×Ļ×ľ×ł×ĵ": 8004, "ľ×¨×Ļ×Ŀ": 8005, "ŀ×ł×Ķ": 8006, "ŀ×ł×ª": 8007, "ĳ×ĺ×": 8008, "Ġ×Ĳ×¦": 8009, "©×¨×Ķ": 8010, "Ġ×ľ×ĳ×ľ×ķ×": 8011, "Ġ×Ķ×ĳ": 8012, "Ġ×Ķ×Ľ×Ļ×ª×Ķ": 8013, "Ľ×Ĺ×Ļ": 8014, "Ľ×Ĺ×ķ×ª": 8015, "ª×§×ª": 8016, "Ġ×ŀ×ł×ª": 8017, "Ġ×ĳ×ĳ×ľ": 8018, "Ġ×ĳ×Ĺ×ķ": 8019, "Ġ×©×ŀ": 8020, "Ġ×©×Ĺ×Ļ": 8021, "Ġ×©×¦×ķ×": 8022, "Ġ×©×ŀ×ķ×§": 8023, "Ġ×©×Ĳ×Ķ×": 8024, "ł×Ĳ×ŀ×Ļ": 8025, "Ĺ×¨×ª×Ļ": 8026, "¤×ĺ×": 8027, "§×ĺ×Ļ×Ŀ": 8028, "×ķ×ª×ķ": 8029, "Ġ×¢×ĳ": 8030, "Ġ×¢×¤×Ķ": 8031, "Ġ×¢×ł×Ļ×ª×Ļ": 8032, "ł×Ļ×Ļ×¨": 8033, "¡×§×ķ×ľ": 8034, "Ġ×ķ×¨×Ļ×": 8035, "Ġ×ª×Ĳ": 8036, "Ġ×ª×ŀ×Ļ×Ŀ": 8037, "Ġ×ª×©×ķ×ĳ×ķ×ª": 8038, "¦×¢×Ļ×Ŀ": 8039, "×Ķ×ª×": 8040, "Ġ×ł×ĳ×Ļ×ĺ": 8041, "ĸ×ŀ×Ķ": 8042, "Ġ×¨×ĳ×ķ×ª": 8043, "Ġ×¨×Ĳ×Ļ×": 8044, "ĳ×ķ×¢×Ļ×Ŀ": 8045, "Ġ×¢×ķ×ŀ×¨": 8046, "Ġ×§×¡×Ŀ": 8047, "Ġ×Ĳ×ķ×¤": 8048, "Ġ×¤×Ļ×ª×Ķ": 8049, "ł×ķ×ķ×": 8050, "Ġ×Ĵ×ĳ×Ļ": 8051, "Ġ×¡×§": 8052, "Ġ×¡×¨×": 8053, "Ġ×¡×ĳ×ľ": 8054, "Ġ×¡×ł×ĵ": 8055, "Ġ×¡×Ĳ×ķ×ł×ĵ": 8056, "§×ķ×¥": 8057, "ĳ×ľ×Ļ×ľ×ķ×ª": 8058, "Ġ×Ļ×ķ×Ĳ×ĳ": 8059, "Ġtimes": 8060, "Ġ×ľ×Ķ×§×Ķ": 8061, "Ġ×ľ×Ķ×ĳ×ķ×ª": 8062, "Ġ×ĵ×Ĳ×ĳ": 8063, "Ø§ÙĬÙĨ": 8064, "Ġ×Ĳ×Ĺ×¨×ķ×ł×Ķ": 8065, "Ġ×ĵ×Ļ×ķ": 8066, "Ġ×ĳ×ķ×¡": 8067, "hed": 8068, "hes": 8069, "¨×Ĳ×Ŀ": 8070, "Ġ×ŀ×Ķ×ĵ×¨×ļ": 8071, "Ġmar": 8072, "ÙĦØ©": 8073, "Ġ×ŀ×©×ŀ×¢": 8074, "Ġ×§×ķ×ŀ×¤×": 8075, "Ġ×Ķ×©×¤×Ķ": 8076, "Ġ×Ķ×©×ĵ×Ļ×Ŀ": 8077, "§×Ļ×¢×Ķ": 8078, "Ġ×Ķ×ķ×ĸ×Ķ": 8079, "Ġ×ŀ×¡×Ľ×Ł": 8080, "Ġ×ŀ×Ĺ×ĳ×Ļ×Ĳ": 8081, "Ġ×ŀ×Ĺ×ĳ×¨×ª": 8082, "Ġ×ľ×ŀ×¦×ĳ": 8083, "Ġ×ľ×ŀ×Ĵ×Ļ×¨×Ķ": 8084, "Ġ×ĳ×©×ĵ×Ķ": 8085, "Ġ×ĳ×©×ĺ×Ĺ": 8086, "Ġ×ĳ×ŀ×ĺ×ĳ×Ĺ": 8087, "×Ĳ×ª×Ŀ": 8088, "red": 8089, "Ġbody": 8090, "¨×Ĵ×Ļ×ķ×ª": 8091, "ĺ×ķ×ł×Ļ": 8092, "Ġ×ķ×Ķ×¢×ķ×ľ×Ŀ": 8093, "Ġ×ľ×¤×ł×ķ×ª": 8094, "Ġ×Ķ×¨×ŀ×": 8095, "Ġface": 8096, "...\"": 8097, "Ġ×ľ×Ĳ×ŀ×¨": 8098, "¢×Ļ×ĸ": 8099, "Ġ×¢×ľ×Ļ×ķ×ª": 8100, "¨×§×Ķ": 8101, "×ŀ×ª×Ĺ×¨×Ļ×Ŀ": 8102, "Ġ×Ķ×Ļ×Ľ×Ł": 8103, "Ġ×©×Ĳ×¤×©×¨": 8104, "Ġ×ª×ķ×¦×Ļ×Ĳ": 8105, "Ġ×¡×Ļ×ł×Ĵ×ķ×ľ×ĵ×Ķ": 8106, "Ġ×ľ×ķ×ĳ×©×ª": 8107, "Ġ×Ķ×§×Ĳ×©": 8108, "Ġ×ľ×Ľ×¡×£": 8109, "Ķ×ĺ": 8110, "ĸ×ķ×ŀ×Ķ": 8111, "Ġ×ľ×Ļ×¦×ķ×¨": 8112, "Ġ×Ķ×Ľ×ª×": 8113, "Ġ×Ķ×Ľ×ľ×ĳ×Ķ": 8114, "Ġ×ĳ×¢×ĳ×ķ×ĵ×Ķ": 8115, "Ġ×©×ª×ĳ×ķ×Ĳ": 8116, "Ġ×¤×Ļ×§×": 8117, "ĠTry": 8118, "×ĳ×ł×ł×Ķ": 8119, "Ġ×ĳ×¤×Ĳ×§×Ļ×ł×Ĵ": 8120, "Ø¯Ùĩ": 8121, "Ġ×Ķ×ł×¤×©": 8122, "Ġ×ª×¢×©×ķ": 8123, "Ġ×¡×ķ×¨×Ļ": 8124, "¨×ĵ×ķ": 8125, "Ġ×ª×Ĺ×ľ×Ļ×£": 8126, "aybe": 8127, "Ġ×ŀ×ł×§×Ķ": 8128, "Ġ×ŀ×ł×Ĺ×Ļ×ª": 8129, "Ġ×Ķ×¦×ľ×Ĺ×ª×Ļ": 8130, "Ġsty": 8131, "Ġstay": 8132, "Ġstand": 8133, "Ġ×ª×ª×§×¢×ķ": 8134, "Ġ×ŀ×Ĵ×ľ×Ķ": 8135, "ĠNin": 8136, "Ġ×Ķ×ĺ×ĳ×¢": 8137, "Ġ×ŀ×©×ķ×ł×Ķ": 8138, "×§×ķ": 8139, "Ġ×Ķ×Ĳ×ķ×¤×§": 8140, "Ġ×Ķ×Ĳ×ķ×ľ×¤×Ł": 8141, "Ġ×¨×ķ×ķ×Ĺ": 8142, "Ġshake": 8143, "ĠÙĥØ§ÙĨ": 8144, "ł×Ķ×ł×Ķ": 8145, "Ġ×ł×¡×Ĺ×¤×Ļ×Ŀ": 8146, "ĠFrom": 8147, "Ġ×Ĳ×¡×ķ×Ł": 8148, "Ġ×ª×Ĳ×Ľ×ľ": 8149, "Ġ×ľ×ĺ×¨×ķ×£": 8150, "Ġ×ª×ĳ×¨×Ĺ": 8151, "¡×ĺ×¨×ķ": 8152, "Ġ×§×¨×Ł": 8153, "Ġ×Ļ×Ļ×Ĵ×ŀ×¨": 8154, "Ġ×Ķ×Ĳ×Ĺ×¨×ķ×ł×Ķ": 8155, "Ġ×Ľ×©×Ķ×Ļ×Ļ×ª×Ļ": 8156, "Ġ×Ķ×¤×¡×Ĵ×Ķ": 8157, "Ġ×ª×Ľ×ľ×¡": 8158, "Ġ×ĳ×Ľ×ķ×Ľ×ĳ×Ļ×Ŀ": 8159, "Ġ×Ķ×¤×¨×¡×Ļ": 8160, "ĠØ´Ø¹": 8161, "Ġfear": 8162, "Ġ×Ĵ×ł×ĳ×ª×Ļ": 8163, "Ġ×©×ŀ×Ĺ×¤×©": 8164, "Ġflow": 8165, "Ġdrop": 8166, "×¤×Ļ×ª×Ķ": 8167, "Ġ×ľ×¦×Ļ×Ļ×¨": 8168, "ł×¡×ĺ×¨×Ļ×Ŀ": 8169, "Ġ×Ķ×©×Ĳ×¨×ª×Ļ": 8170, "×ª×ķ×ĵ×Ķ": 8171, "ĠĠĠĠĠĠĠĠĠĠĠĠĠĠĠĠĠĠĠĠĠĠĠĠĠĠĠĠĠĠĠĠ": 8172, "ween": 8173, "ŀ×¨×ŀ×ķ×¨×ª": 8174, "Ġ×©×¨×Ļ×ĺ×Ķ": 8175, "Ġ×ĳ×ª×Ĺ×ª×Ļ×ª": 8176, "Ġ×ŀ×ł×¦×Ĺ×Ļ×Ŀ": 8177, "Ġ×ŀ×ĳ×§×©×Ļ×Ŀ": 8178, "ł×ĵ×¨×ľ×Ķ": 8179, "Ġ×Ĺ×ĸ×Ļ×¨×Ļ": 8180, "¤×Ķ×¤×Ķ×": 8181, "Ġ×ł×¨×§×ķ×ŀ×Ł": 8182, "Ġ×§×¤×ķ×Ĳ": 8183, "Ġ2026": 8184, "ĳ×Ļ×ł×Ļ×ŀ×ĺ": 8185, "Ġdirty": 8186, "Ġtrouble": 8187, "ĺ×ł×¦×Ļ×Ĳ×ľ": 8188, "!\"": 8189, "og": 8190, "side": 8191, "tim": 8192, "¡×Ļ×§": 8193, "Ĳ×Ļ×¨×Ķ": 8194, "Ľ×ķ×Ŀ": 8195, "×ķ×ł×¨": 8196, "×Ķ×ķ×ķ": 8197, "Ĳ×ŀ×Ļ×Ł": 8198, "ľ×§×ķ×": 8199, "ĳ×¨×Ĺ": 8200, "Ġ×Ķ×ķ×¨×Ļ×Ŀ": 8201, "Ġ×Ķ×ķ×Ļ×": 8202, "©×ŀ×Ļ×Ŀ": 8203, "©×ŀ×ķ×ª": 8204, "Ġ×ľ×Ĵ×Ł": 8205, "Ġ×ľ×Ĺ×ķ": 8206, "Ġ×Ķ×ľ×Ļ": 8207, "Ġ×Ķ×ĵ×Ļ": 8208, "Ġ×Ķ×Ľ×ķ×ķ×": 8209, "Ġ×ŀ×ľ×Ļ": 8210, "Ġ×ŀ×Ĵ×Ł": 8211, "Ġ×ŀ×ľ×ķ×Ł": 8212, "Ġ×ĳ×Ĳ×Ł": 8213, "Ġ×ĳ×Ľ×ķ×ķ×ł×Ķ": 8214, "¤×Ĵ×": 8215, "Ġ×Ľ×Ĺ×ķ×": 8216, "Ġ×Ľ×ĵ×ķ×": 8217, "§×Ĺ×ª": 8218, "§×§×Ļ×Ŀ": 8219, "Ġ×¢×ŀ×Ļ": 8220, "Ġ×¢×©×ĳ×Ļ×Ŀ": 8221, "¡×ľ×Ļ": 8222, "ĵ×ľ×Ļ": 8223, "ĵ×ľ×ª×Ļ": 8224, "Ġ×ŀ×ķ×ķ×": 8225, "Ġ×ŀ×ķ×¨×Ķ": 8226, "Ġ×ķ×¨×ķ×ĵ": 8227, "×Ķ×ł×Ķ": 8228, "¨×ķ×§×Ļ×Ŀ": 8229, "Ġ×ł×©×Ļ×¨": 8230, "ĺ×Ŀ": 8231, "ĺ×¨×ª": 8232, "ĸ×ľ×Ļ×Ŀ": 8233, "Ġ×Ĳ×Ļ×ĸ": 8234, "Ġ×¨×¢×Ķ": 8235, "Ġ×¨×§×¢": 8236, "Ġ×¨×ĳ×Ļ×ĵ": 8237, "Ġ×¤×§": 8238, "Ġ×¤×Ĺ×": 8239, "Ġ×¤×¦×¢": 8240, "Ġ×§×ł×Ķ": 8241, "Ġ×§×ĳ×ķ×¢": 8242, "Ġ×§×¡×ŀ×Ļ×Ŀ": 8243, "Ġ×Ĳ×ķ×ľ×": 8244, "Ġ×Ĳ×ķ×§×Ļ": 8245, "×Ļ×¨×Ļ×Ļ×Ķ": 8246, "Ġ×Ĵ×¨×Ļ×": 8247, "Ġ×Ĵ×Ĳ×Ł": 8248, "Ġ×ŀ×Ķ×ķ×": 8249, "×Ļ×Ķ×Ŀ": 8250, "Ġ×Ļ×ķ×ł×Ļ×ª": 8251, "Ġ×¨×ķ×ĳ×Ļ×Ŀ": 8252, "Ġ×ĵ×ľ×ķ×§": 8253, "Ø§Ø³": 8254, "Ġ×ŀ×ķ×ĳ×Ļ×ľ": 8255, "Ġ×Ľ×ķ×ĳ×©": 8256, "ŀ×ķ×¤": 8257, "....": 8258, "Ġ×Ķ×ŀ×ª×Ĺ": 8259, "Ġ×Ķ×ŀ×ł×Ļ×Ļ×§": 8260, "Ġah": 8261, "Ġ×ŀ×ª×ľ×ķ×ł×Ł": 8262, "Ġ×©×ķ×§": 8263, "Ġma": 8264, "Ġmine": 8265, "Ġmiddle": 8266, "Ġ×Ĳ×ķ×Ļ×ĳ×Ļ×Ŀ": 8267, "Ġ×¦×Ĺ×ķ×§×Ļ×Ŀ": 8268, "Ġ×¦×¤×ķ×£": 8269, "Ġ×ł×ķ×£": 8270, "Ġ×ł×ķ×¢×": 8271, "Ġ×§×ķ×©": 8272, "Ġ×§×ķ×ľ×Ķ": 8273, "Ġ×§×ķ×¤×Ķ": 8274, "ľ×ķ×ł×Ķ": 8275, "Ġ×Ķ×©×ľ": 8276, "Ġ×Ķ×ķ×ŀ×": 8277, "Ġ×ŀ×¡×ĵ×¨": 8278, "Ġ×ŀ×¡×Ľ×Ļ×Ŀ": 8279, "Ġ×ľ×ŀ×ĵ×ł×ķ": 8280, "Ġdream": 8281, "Ġ×ĳ×©×§": 8282, "Ġ×ĳ×©×§×ľ": 8283, "Ġ×©×ŀ×ļ": 8284, "Ġ×©×Ļ×Ĵ×Ļ×ĵ×ķ": 8285, "ĵ×ķ×£": 8286, "Ġ×¦×Ļ": 8287, "¨×Ĵ×Ļ": 8288, "Ġ×ķ×Ķ×§×": 8289, "Ġ×ķ×Ķ×ĳ×Ļ×ĺ": 8290, "Ġ×¡×ķ×ª×Ŀ": 8291, "Ġ×Ķ×¨×¢×©": 8292, "Ġfollow": 8293, "Ġcount": 8294, "Ġ×ŀ×ŀ×ĺ×¨": 8295, "Ġ×ĸ×ķ×ľ": 8296, "Ġ×ľ×Ĳ×ľ×ķ×Ķ×Ļ×Ŀ": 8297, "¡×ĺ×ķ": 8298, "Ġ×ķ×ŀ×ĳ×": 8299, "×ŀ×ĺ×": 8300, "Ĵ×Ļ×ĸ": 8301, "Ġ×Ķ×Ĵ×¢×ª×Ŀ": 8302, "Ġgun": 8303, "Ġ×ª×ķ×Ľ×ł×Ļ×ķ×ª": 8304, "Ġ×§×Ļ×ĵ": 8305, "ĺ×Ļ×¤×ķ×Ł": 8306, "Ġ×¡×Ļ×§×¡": 8307, "Ġ×ľ×Ĺ×©×ķ×©": 8308, "Ġ×ĳ×¨×Ĵ×ľ": 8309, "Ġpre": 8310, "Ġ×Ķ×Ļ×Ļ×ĺ×¨×Ļ×Ŀ": 8311, "Ķ×ľ": 8312, "Ġ×ľ×Ļ×ĺ": 8313, "Ġ×ª×©×Ĳ×ľ×Ļ": 8314, "Ġ×©×Ķ×Ļ×Ļ×ª": 8315, "Ġ×ĳ×¢×ĺ": 8316, "Ġ×©×ª×¢×": 8317, "Ġ×ŀ×¤×Ĵ×¨": 8318, "Ġ×Ķ×ĵ×ŀ×¢×ķ×ª": 8319, "Ġ×ĳ×§×¨×ķ×ĳ": 8320, "ĠTell": 8321, "Ġ×ŀ×Ľ×¡×Ķ": 8322, "Ġ×ķ×ĳ×ŀ×": 8323, "Ġ×ķ×ĳ×ĺ×Ĺ": 8324, "Ġ×Ĳ×Ķ×ķ×": 8325, "Ġ×ĵ×Ļ×¡×": 8326, "Ġ×ĵ×Ļ×¡×Ļ×Ŀ": 8327, "Ġ×ľ×ª×ľ": 8328, "Ġ×Ķ×ł×©×Ļ×ŀ×Ķ": 8329, "Ġ×Ķ×ł×¨×Ĵ×Ļ×ľ×Ķ": 8330, "ĠBack": 8331, "×ª×©×¢": 8332, "Ġ×ķ×ł×¨×Ĳ×Ķ": 8333, "Ġ×ķ×ł×ª×Ĺ×Ļ×ľ": 8334, "Ġweh": 8335, "Ġel": 8336, "Ġ×Ķ×ĸ×¨×Ŀ": 8337, "Ġstart": 8338, "Ġ×ł×¢×ľ": 8339, "Ġ×ĳ×Ĳ×ķ×¤×§": 8340, "Ġ×ķ×©×ª×Ļ×Ļ×Ŀ": 8341, "ĠØ¹ÙĨØ§": 8342, "Ġ×Ľ×©×Ķ×Ľ×ľ": 8343, "ľ×Ļ×ĺ×Ļ×§×Ķ": 8344, "Ġ×¢×Ļ×ª×ķ×Ł": 8345, "Ġ×ĳ×Ļ×Ļ×¤": 8346, "ird": 8347, "Ġ×ł×¨×ĵ×": 8348, "ĠFor": 8349, "Ġ×ľ×ĸ×Ľ×ķ×¨": 8350, "Ġ×ŀ×ĺ×ķ×¨×¤×Ļ×Ŀ": 8351, "ĵ×¨×Ľ×Ķ": 8352, "Ġ×ŀ×Ľ×ķ×ł×Ļ×ª": 8353, "Ġ×§×¨×Ļ×Ļ×¨×Ķ": 8354, "ł×Ĵ×¡×ĺ×ķ×Ł": 8355, "×Ķ×Ķ×Ķ": 8356, "Ġ×¢×ĸ×ĳ×ª×Ļ": 8357, "Ġ×ľ×Ķ×ķ×ĵ×ķ×ª": 8358, "Ġ×ł×ĵ×ľ×§": 8359, "Ġ×Ĺ×Ļ×Ļ×ĳ×ª": 8360, "ĠWell": 8361, "Ġvo": 8362, "ĠØ®Ø§ÙĬÙĨ": 8363, "Ġ×Ķ×¨×Ĳ×¤×¨×Ļ×Ŀ": 8364, "Ġ×ķ×Ľ×©×Ĳ×ł×Ļ": 8365, "ought": 8366, "Ġ×ĳ×ŀ×Ĺ×©×ĳ×ķ×ª": 8367, "Ġ×Ĺ×¨×ŀ×Ł": 8368, "Ġ×Ĳ×¨×Ļ×Ķ": 8369, "Ġ×ª×Ĵ×ĳ×Ļ×¨×ķ": 8370, "Ġ×Ķ×ķ×ķ×Ĳ×Ł": 8371, "Ġ×ķ×Ļ×ķ×¦×Ĳ": 8372, "Ġ×Ķ×¢×Ļ×Ł": 8373, "Ġdays": 8374, "Ġ×ŀ×ķ×ª×©": 8375, "×ĳ×Ĳ×¡×Ļ×Ŀ": 8376, "Ġ×ľ×©×Ļ×ł×ķ×Ļ×Ļ×Ŀ": 8377, "Ġ×Ĺ×ŀ×ķ×©": 8378, "Ġ×¤×ª×ķ×Ĺ×ķ×ª": 8379, "Ġ×Ĺ×Ļ×ķ×Ľ×Ļ×Ŀ": 8380, "FFFF": 8381, "Ġgirls": 8382, "Ġ×Ĳ×ĳ×ķ×ª×Ļ×ł×ķ": 8383, "hetto": 8384, "Ġ×ŀ×Ķ×ŀ×Ļ×ĺ×Ķ": 8385, "Ġ×§×¢×§×ķ×¢": 8386, "ĠÙĨÙĪÙĬÙĦ": 8387, "Ġ×ĳ×ĳ×¢×Ļ×ĺ×Ķ": 8388, "×Ĳ×Ļ×ł×¡×ĺ×¨×ķ×ŀ×ł×ĺ×ľ×Ļ": 8389, "ĠØ®Ø¶Ø±Ø§": 8390, "\"(": 8391, "'!": 8392, "Ca": 8393, "hh": 8394, "ky": 8395, "ma": 8396, "sh": 8397, "ves": 8398, "×¨×Ĳ×": 8399, "×ĺ×Ķ": 8400, "ŀ×Ļ×©×Ļ": 8401, "×ķ×ĸ×": 8402, "×Ļ×¢×Ķ": 8403, "×Ļ×Ĵ×Ļ×Ŀ": 8404, "×Ļ×©×¨×Ĳ×ľ×Ļ×Ŀ": 8405, "ľ×§×ª×Ļ": 8406, "ŀ×ĳ×Ł": 8407, "ĳ×ł×ķ×ª": 8408, "Ġ×Ĳ×§×ķ×Ŀ": 8409, "Ġ×Ĳ×Ĵ×ĳ": 8410, "©×ŀ×ķ": 8411, "©×ľ×ķ×Ł": 8412, "Ġ×ľ×ĳ×Ļ×ĺ": 8413, "Ġ×ľ×ĵ×ķ×¨": 8414, "Ġ×Ķ×ĺ×ķ×¤": 8415, "¨×¨×Ķ": 8416, "Ġ×ŀ×©×ķ": 8417, "Ġ×ĳ×ł×Ļ×Ļ×Ł": 8418, "Ġ×©×Ĳ×ķ×ª": 8419, "ł×¨×ª": 8420, "ł×ł×ª": 8421, "Ġ×Ľ×¤×": 8422, "Ġ×Ľ×©×Ļ×": 8423, "Ġ×Ľ×ĸ×ķ": 8424, "Ġ×¢×ĳ×ĵ×Ļ×Ŀ": 8425, "Ġ×ľ×Ļ×Ķ": 8426, "Ġ×ķ×¤×ķ×": 8427, "Ġ×ª×ĵ×Ĳ×": 8428, "Ġ×Ļ×¨×ķ×©×": 8429, "ĳ×Ļ×ľ×Ķ": 8430, "¨×ķ×ľ": 8431, "ĸ×ĳ×ķ×ª": 8432, "Ġ×Ĳ×Ļ×ĳ×ĵ": 8433, "Ġ×ª×ķ×¨": 8434, "Ġ×¨×Ľ×Ķ": 8435, "×Ļ×Ļ×ĵ": 8436, "Ġ×§×ŀ×ª×Ļ": 8437, "Ġ×Ĺ×¦×ķ×£": 8438, "Ġ×Ĳ×ķ×ŀ×Ł": 8439, "Ġ×Ĳ×ķ×ĸ×Ł": 8440, "Ġ×¤×Ļ×Ļ×Ł": 8441, "Ġ×Ĵ×Ĵ": 8442, "§×ķ×¤×ª": 8443, "Ġ×ľ×Ķ×¨×©×Ļ×Ŀ": 8444, "Ġ×ĵ×¢×ķ×ª": 8445, "Ġ×ĺ×Ļ×§": 8446, "Ġ×ŀ×ķ×§": 8447, "Ġ×ŀ×ķ×¡×Ļ×£": 8448, "Ġ×ĳ×ķ×ķ×": 8449, "Ġ×Ķ×ŀ×Ĺ×Ļ×¨": 8450, "Ġ×ĳ×ķ×Ĵ×Ķ": 8451, "Ġ×ĳ×ķ×ľ×ĺ": 8452, "Ġ×ĳ×ķ×¨×Ĺ×Ļ×Ŀ": 8453, "Ġ×ŀ×ª×ĳ×Ļ×Ļ×©": 8454, "Ġ×Ĺ×ķ×¨×ĸ": 8455, "Ġ×©×ķ×ĳ×¨×Ļ×Ŀ": 8456, "Ġswe": 8457, "©×Ļ×Ľ×Ķ": 8458, "Ġ×ŀ×Ķ×¦×¨×ķ×ª": 8459, "Ġ×Ĳ×ķ×Ļ×Ķ": 8460, "Ġ×ĸ×Ļ×ª": 8461, "Ġ×ŀ×©×ŀ×Ķ": 8462, "Ġ×ŀ×©×§×¨": 8463, "Ġ×ŀ×©×ŀ×¢×ķ×ª": 8464, "Ġ×§×ķ×ľ×Ļ": 8465, "ŀ×Ļ×ĸ": 8466, "ŀ×Ļ×§×¡": 8467, "Ġwine": 8468, "Ġ×ĸ×Ľ×¨×ķ×ł×ķ×ª": 8469, "Ġ×Ķ×ķ×ĵ×¢×ķ×ª": 8470, "Ġ×Ķ×Ĳ×ľ": 8471, "Ġ×Ķ×Ĳ×Ĺ×ĵ": 8472, "Ġ×Ķ×ĳ×¡": 8473, "Ġ×©×ŀ×Ĳ×ľ×Ķ": 8474, "×Ĳ×ł×©×Ļ×Ŀ": 8475, "Ġ×ĺ×ķ×ĳ×Ļ": 8476, "Ġ×ł×©×¨×ķ×£": 8477, "Ġ×ŀ×Ĳ×Ĺ×ķ×¨×Ķ": 8478, "ana": 8479, "Ġ×ľ×¤×¨×ķ×©": 8480, "Ġlow": 8481, "Ġ×Ķ×ª×¨×": 8482, "Ġ×©×Ķ×¢×ķ×ľ×Ŀ": 8483, "Ġ×ľ×ĳ×ĵ×Ļ": 8484, "Ġ×ķ×ŀ×ª×Ĺ×": 8485, "Ġ×ķ×ŀ×Ĺ×¨": 8486, "Ĵ×ķ×¡×ĺ": 8487, "×ŀ×ª×Ļ": 8488, "§×¨×Ļ×Ļ×¨×Ķ": 8489, "Ġ×Ķ×Ļ×©×ĳ×Ł": 8490, "Ġgone": 8491, "Ġgame": 8492, "Ġ×©×Ĳ×ľ": 8493, "Ġ×©×Ĳ×§×Ķ": 8494, "Ġ×ª×ķ×Ľ×ł×Ļ×ª": 8495, "Ġ×§×ķ×ĳ×Ļ": 8496, "Ġ×ľ×ķ×Ķ×ĺ": 8497, "Ġ×Ķ×§×¨×Ĺ": 8498, "Ġ×Ķ×§×ĳ×Ļ×ł×ĺ": 8499, "ª×Ķ×Ļ×ľ×Ķ": 8500, "ľ×ĵ×ķ×ª": 8501, "Ġpas": 8502, "Ø¨ÙĪ": 8503, "Ġ×ª×©×Ĵ×¢": 8504, "Ġ×Ķ×Ľ×ĵ×ķ×¨": 8505, "orn": 8506, "Ġ×©×Ķ×Ļ×ķ": 8507, "Ġ×ł×Ļ×ł×Ĵ": 8508, "Ġ×ª×§×ľ×Ļ×ĺ×Ļ×Ŀ": 8509, "Ġ×©×ª×ĳ×Ļ×Ł": 8510, "×©×ª×Ļ": 8511, "Ġ×¤×Ļ×§×¡": 8512, "ĠTake": 8513, "Ġ×Ķ×¢×¥": 8514, "ĠØ§ÙĦÙĪ": 8515, "Ġ×ŀ×¨×Ĺ×§": 8516, "Ġ×Ķ×Ľ×Ļ×ķ×ķ×Ł": 8517, "×Ľ×Ľ×Ķ": 8518, "ami": 8519, "ĠÙĪØ±": 8520, "Ġ×ª×Ĺ×¨×ķ×ª": 8521, "Ġ×ª×Ĺ×ĸ×¨×Ļ": 8522, "ØŃØª": 8523, "Ġ×ª×ª×¢×ķ×¨×¨": 8524, "Ġ×Ķ×Ĺ×ķ×ľ×¦×Ķ": 8525, "Ġ×ľ×ĵ×¨×ķ×©": 8526, "Ġ×ľ×ĵ×Ĺ×ķ×£": 8527, "add": 8528, "Ġ×ķ×Ļ×ľ×¦": 8529, "Ġ×ł×¢×ľ×ŀ×Ļ×Ŀ": 8530, "Ġrhy": 8531, "Ġ×Ķ×ŀ×Ļ×Ļ×": 8532, "ĠDe": 8533, "ĠDi": 8534, "Ġ×Ļ×ľ×ĵ×ķ×": 8535, "Ġhel": 8536, "ĠHip": 8537, "Ġ×Ĺ×©×©": 8538, "Ġbeaut": 8539, "ĠLord": 8540, "ĠLook": 8541, "ł×ĵ×ķ×Ł": 8542, "ĠØ£ÙĨØª": 8543, "¤×¨×¤": 8544, "Ġ×Ĵ×Ļ×ĳ×ķ×¨×Ļ×Ŀ": 8545, "ĠÙĥÙĬÙģ": 8546, "Ġ×Ķ×Ĵ×Ļ×Ķ×ł×ķ×Ŀ": 8547, "Ġ×©×Ĺ×ĳ×ľ": 8548, "ĠPl": 8549, "Ġ×ŀ×Ļ×Ļ×§×ľ": 8550, "Ġ×Ķ×ĳ×ķ×ľ×": 8551, "Ġ×ŀ×©×ª×Ĵ×¢": 8552, "Ġ×Ķ×ª×Ĺ×ľ×ª": 8553, "Ð°ÑĤ": 8554, "Ġ×ŀ×Ķ×ŀ×¦×Ļ×Ĳ×ķ×ª": 8555, "ĵ×¨×¤×": 8556, "¨×Ĵ×Ļ×¢": 8557, "Ġ×ĳ×ĵ×ķ×Ĵ×¨×Ļ": 8558, "Ġ×ķ×Ĳ×ķ×ª×ļ": 8559, "×¨×¡×§×Ļ": 8560, "Ġ×ľ×Ķ×ķ×¤×¢×Ķ": 8561, "Ġ×ł×Ķ×ĵ×¨×ª": 8562, "Ġ×ł×§×¨×Ĳ": 8563, "Ġ×Ķ×¤×¡×§×Ķ": 8564, "Ġ×ľ×Ĳ×ķ×ľ×¤×Ł": 8565, "Ġ×ľ×©×ŀ×ķ×Ĺ": 8566, "Ġ×§×ľ×Ĳ×Ł": 8567, "Ġ36": 8568, "ĠØ®ÙĦÙĬ": 8569, "Ġ×ĳ×Ĺ×ķ×©×ļ": 8570, "Ġ×Ĳ×Ļ×¦×Ļ×§": 8571, "Ġchild": 8572, "Ġ×§×¨×Ļ×ŀ×Ļ×": 8573, "Ġ×ľ×ŀ×ķ×ĸ×Ļ×§×Ķ": 8574, "Ġ×ŀ×¨×ķ": 8575, "ĠØ¬ÙĨ": 8576, "Ġ×Ķ×ľ×Ļ×¨×Ļ×§×¡": 8577, "Ġ×ŀ×Ļ×ĵ×Ļ×Ļ": 8578, "Ġ×ķ×Ĺ×ķ×©×ĳ": 8579, "Ġ×ŀ×¦×ķ×ķ×Ķ": 8580, "Ġ×Ĺ×¨×ĺ×Ĳ": 8581, "ĠØ·ÙĦØ¹": 8582, "Ġ×Ĺ×©×ķ×ĵ": 8583, "Ġ×ª×ĳ×Ļ×ł×ķ": 8584, "ude": 8585, "Ġbetween": 8586, "Ġcont": 8587, "iful": 8588, "Ġ×ľ×Ķ×¢×ĳ×Ļ×¨": 8589, "Ġ×Ļ×¦×Ļ×ĳ": 8590, "Ġ×ł×¡×Ļ×Ľ×Ķ": 8591, "Ġ×ª×ĸ×Ļ×ĸ×ķ": 8592, "Ġ×©×ª×Ķ×Ļ×Ķ": 8593, "Ġ×©×ª×Ķ×Ļ×Ļ": 8594, "Ġ×¦×Ļ×¤×Ļ×ķ×ª": 8595, "Ġ×Ĺ×©×ĳ×ķ": 8596, "Ġ×¨×¦×ª×Ķ": 8597, "Ġpositive": 8598, "Ġspeak": 8599, "Ġ×Ķ×Ĵ×ĵ×ķ×ľ×Ķ": 8600, "Ġ×Ķ×ª×¢×ķ×¨×¨×ª×Ļ": 8601, "Ġyears": 8602, "Ġ×Ĳ×ĸ×Ķ×¨×Ķ": 8603, "Ġlyrics": 8604, "Ġ×¤×Ĵ×Ļ×¢×Ķ": 8605, "Ġstyle": 8606, "!âĢı,": 8607, "aire": 8608, "lim": 8609, "ro": 8610, "¦×ķ×Ļ": 8611, "×ĳ×Ķ": 8612, "×ĳ×ķ×§×¨": 8613, "Ľ×Ļ×Ļ×Ł": 8614, "×ķ×ŀ×Ļ": 8615, "Ĳ×¦": 8616, "ľ×ł×Ĵ": 8617, "ŀ×ľ×Ĳ": 8618, "ŀ×ĳ×ľ": 8619, "Ġ×ľ×ŀ×Ļ×Ŀ": 8620, "Ľ×Ĺ×ķ": 8621, "¨×¤×": 8622, "¨×ł×ķ×ª": 8623, "ª×ľ×Ļ×Ŀ": 8624, "Ġ×ŀ×Ĺ×ķ": 8625, "Ġ×ŀ×ŀ×Ķ×": 8626, "Ġ×ĳ×¢×ª×Ļ×ĵ": 8627, "Ġ×ĳ×Ĺ×ķ×Ŀ": 8628, "Ġ×ĳ×Ĺ×Ļ×ľ×Ķ": 8629, "Ġ×©×¡×": 8630, "Ġ×©×ĸ×ķ": 8631, "ł×ĳ×ª": 8632, "ł×ĳ×Ļ×Ŀ": 8633, "ł×Ĵ×ľ": 8634, "¤×Ĵ×©": 8635, "§×ł×Ķ": 8636, "§×¨×Ĳ": 8637, "Ġ×¢×¦×ķ×": 8638, "Ġ×ľ×Ļ×¨×ķ×ª": 8639, "¡×ĵ": 8640, "Ġ×ķ×ľ": 8641, "Ġ×ķ×ĸ×": 8642, "Ġ×ķ×§×Ļ×": 8643, "Ġ×ķ×Ĵ×Ļ×": 8644, "Ġ×ķ×¤×Ļ×": 8645, "Ġ×ķ×©×Ŀ": 8646, "Ġ×ª×ł×¡×Ļ": 8647, "Ġ×ª×¡×ª×ķ×Ŀ": 8648, "¦×ĳ×Ł": 8649, "Ġ×Ļ×ª×¨": 8650, "Ġ×ł×ĺ×ķ": 8651, "Ġ×ł×ĵ×ŀ×Ķ": 8652, "Ġ×ł×ĳ×ł×Ķ": 8653, "ĺ×¨×ļ": 8654, "ĺ×Ĵ×Ĳ×Ł": 8655, "ĸ×ŀ×ķ×ł×Ļ×Ŀ": 8656, "Ġ×¨×Ĳ×Ķ": 8657, "Ľ×ķ×¤×£": 8658, "Ġ×¤×¨×Ĳ×": 8659, "Ġ×§×ŀ×Ķ": 8660, "Ġ×Ĺ×¤×¥": 8661, "Ġ×Ĳ×ķ×ł×ķ": 8662, "Ġ×Ĳ×ķ×¨×Ĵ×": 8663, "Ġ×¡×Ĺ×Ļ": 8664, "§×ķ×ľ×Ļ×Ŀ": 8665, "Ġ×ľ×Ķ×ŀ×": 8666, "Ġ×ľ×Ķ×ª×Ļ×Ļ×": 8667, "Ġ×ľ×Ķ×ĸ×Ļ×¢": 8668, "Ġ×ĵ×Ĵ×ľ": 8669, "Ġ×ĵ×Ĵ×Ļ×Ŀ": 8670, "Ġ×ĺ×Ļ×ľ×Ļ×Ŀ": 8671, "Ġ×ŀ×ķ×Ĵ×": 8672, "ł×ķ×¤": 8673, "Ġ×ĵ×Ļ×ľ": 8674, "Ġ×Ķ×ŀ×Ľ×ł×¡": 8675, "Ġ×Ķ×ŀ×ł×Ĵ×Ļ×ł×ķ×ª": 8676, "Ġ×ĳ×ķ×©×ķ×ª": 8677, "Ġ×ŀ×ª×¨×Ĵ×": 8678, "Ġ×Ĺ×ķ×§×Ļ×Ŀ": 8679, "Ġ×©×ķ×£": 8680, "Ġson": 8681, "Ġsick": 8682, "Ġ×ŀ×Ķ×ĺ×": 8683, "Ġ×ŀ×Ķ×Ĳ×ķ×": 8684, "Ġmiss": 8685, "ouch": 8686, "Ġ×¦×¨×Ķ": 8687, "Ġ×Ķ×©×ľ×ķ×Ŀ": 8688, "Ġ×Ķ×ķ×ľ×Ķ": 8689, "Ġ×Ķ×ķ×¦×Ĳ×ª": 8690, "Ġ×ŀ×Ĺ×ĳ×¨×Ļ×Ŀ": 8691, "Ġ×Ķ×Ĳ×Ĺ": 8692, "Ġ×Ķ×Ĳ×ĵ×": 8693, "Ġ×ľ×ŀ×ľ×Ĳ": 8694, "Ġ×ĺ×ľ×¤×ķ×Ł": 8695, "Ġ×ĳ×ŀ×§×¨×Ķ": 8696, "×Ĳ×ŀ×Ĳ": 8697, "Ġ×Ķ×¤×ľ×": 8698, "Ġ×ľ×©×ľ×ķ×ĺ": 8699, "Ġ×ľ×¤×¨×ķ×¥": 8700, "Ġ×ľ×¤×¡×¤×¡": 8701, "Ġ×ľ×¤×¢×ķ×Ŀ": 8702, "Ġ×Ķ×¨×Ĺ×ķ×ĳ×ķ×ª": 8703, "Ġ×ľ×ĳ×Ĳ×": 8704, "Ġcause": 8705, "Ġ×ŀ×ŀ×Ľ×¨": 8706, "Ġ×ŀ×ŀ×ľ×Ĳ×Ļ×Ŀ": 8707, "Ġ×ĸ×ķ×Ľ×¨×Ļ×Ŀ": 8708, "Ġ×¤×ķ×ĺ×ł×¦×Ļ×Ĳ×ľ": 8709, "Ġ×Ĺ×Ļ×ľ×ķ×": 8710, "ĳ×¢×ķ×ª": 8711, "Ġ×Ľ×©×Ĺ×": 8712, "Ġ×Ĳ×ŀ×¨×Ļ×": 8713, "Ġ×ľ×ķ×ĵ": 8714, "Ġ×ľ×Ľ×ĳ×ķ×ª": 8715, "Ġ×Ķ×¡×Ŀ": 8716, "¤×Ļ×¡×ĺ": 8717, "ľ×ľ×ķ×ª": 8718, "Ġplease": 8719, "Ġpretty": 8720, "Ľ×ķ×ľ×ķ×ª": 8721, "Ġ×ĳ×©×ĳ×Ļ×ľ×Ķ": 8722, "Ġ×ľ×Ķ×ª×Ĳ×Ķ×ĳ": 8723, "Ġhas": 8724, "Ġtop": 8725, "Ġtogether": 8726, "Ġ×ĳ×¢×¨×ĳ": 8727, "Ġ×ĳ×¢×ł×Ļ×Ļ×ł×Ļ×Ŀ": 8728, "Ġ×ķ×ľ×¦×": 8729, "Ġ×©×ª×ĸ×": 8730, "Ġ×ŀ×¤×ł×§": 8731, "Ġ×ĳ×§×ĺ×ł×Ķ": 8732, "ĠØ¨ÙĤ": 8733, "ĠØ¨ÙĦØ§": 8734, "Ġ×ŀ×Ľ×ĳ×Ķ": 8735, "Ġ×ķ×ĳ×¢×": 8736, "ary": 8737, "Ġ×ª×Ļ×©×": 8738, "Ġ×Ķ×Ĳ×Ļ×ĵ×Ļ×ķ×ĺ×Ļ×Ŀ": 8739, "ĠØ§ÙĦÙģ": 8740, "ĠØ§ÙĦØ¬": 8741, "Ġ×Ĳ×¦×ľ×Ļ×Ĺ": 8742, "Ġ×©×ł×ª": 8743, "Ġ×ŀ×¨×Ľ×ĸ": 8744, "Ġ×Ļ×©×ł×Ķ": 8745, "Ġ×Ĳ×ľ×ŀ×": 8746, "¨×ĳ×ķ": 8747, "Ġ×ķ×ª×Ĺ×": 8748, "Ġ×ŀ×ľ×ŀ×ĵ": 8749, "Ġ×Ľ×Ļ×¡×Ĳ": 8750, "×¢×Ľ×©×Ļ×ķ": 8751, "×Ľ×Ĳ×Ł": 8752, "Ġ×Ĳ×ŀ×¨×Ļ×§×Ķ": 8753, "Ġ×ľ×¦×ľ×ķ×ľ": 8754, "Ġ×ľ×Ĵ×ŀ×¨×Ļ": 8755, "Ġwere": 8756, "Ġ×ł×Ĺ×©×Ļ×Ŀ": 8757, "Ġ×ł×ķ×Ł": 8758, "Ġliving": 8759, "Ġ×¤×¨×¡×Ķ": 8760, "¡×ĺ×¨×Ķ": 8761, "Ġ×ł×¢×ĳ×ķ×¨": 8762, "Ġ×ĳ×ľ×¢×ª×Ļ": 8763, "Ġ×ĳ×ĺ×ľ×ķ×ķ×Ļ×ĸ×Ļ×Ķ": 8764, "Ĺ×Ļ×ł×Ķ": 8765, "Ġrel": 8766, "Ġ×ĳ×Ķ×ķ×": 8767, "Ġ×©×ľ×©×ķ×Ŀ": 8768, "Ġ×Ķ×Ķ×©×": 8769, "Ġ×Ķ×Ķ×¦×ľ×Ĺ×Ķ": 8770, "ĠØ£ÙĦ": 8771, "×¡×ľ×ķ×": 8772, "×ł×©×ŀ×Ķ": 8773, "ĠÙĦÙĦ": 8774, "ł×ĺ×ĸ": 8775, "×ŀ×Ķ×": 8776, "Ġ×©×Ĺ×©×ķ×ĳ": 8777, "§×ķ×ĵ×ķ×ª": 8778, "Ġ×Ķ×Ļ×ĵ×Ļ×¢×Ķ": 8779, "Ġ×ł×¨×§×ķ×ĵ": 8780, "ĠÙģØ§": 8781, "Ġ×Ķ×Ĺ×ĳ×¨×ķ×ª": 8782, "Ġ×ŀ×Ķ×ŀ×Ĺ×": 8783, "Ġ×Ķ×Ľ×ķ×Ľ×ĳ×Ļ×Ŀ": 8784, "Ġtrue": 8785, "Ġ×ª×Ĵ×ľ×Ļ": 8786, "Ġ×ł×©×Ĳ×¨×Ķ": 8787, "Ġ×ŀ×ł×ķ×Ĺ×Ķ": 8788, "Ġ×Ĳ×ĳ×©×Ķ": 8789, "Ġ×Ĳ×ĳ×ł×Ļ×Ŀ": 8790, "Ġ×ĵ×¨×Ľ×Ļ": 8791, "ŀ×ķ×¡×Ļ×§×Ķ": 8792, "Ġ×ľ×ľ×ŀ×ĵ": 8793, "Ġ×Ľ×Ķ×ł×ķ×ĳ": 8794, "Ġ×¡×ķ×ķ×Ļ×¡×Ļ": 8795, "Ġ×ĳ×ľ×ķ×¤": 8796, "×ľ×Ķ×Ļ×ķ×ª": 8797, "Ġ×¤×¨×Ļ×¡×ĺ×Ļ×Ļ×ľ": 8798, "Ġ×Ļ×¦×Ĳ×ķ": 8799, "Ġ×ĳ×ĳ×Ļ×ľ×ķ×Ł": 8800, "Ġ×ľ×Ķ×Ĺ×ĸ×Ļ×¨": 8801, "Ġ×Ķ×¨×Ĵ×¢×Ļ×Ŀ": 8802, "Ġ×ĳ×Ĳ×ł×Ĵ×Ļ×Ŀ": 8803, "Ġ×©×Ķ×©×ŀ×©": 8804, "Ġ×ľ×ŀ×Ļ×ĺ×Ķ": 8805, "ize": 8806, "Ġ×ĳ×ķ×ľ×ĵ×ķ×": 8807, "×Ķ×¤×Ľ×Ķ": 8808, "Ġ×¨×Ĵ×Ļ×©": 8809, "Ġ×©×ŀ×¢×ª×Ŀ": 8810, "ĠHey": 8811, "Ġ×§×ķ×ŀ×ĳ×Ļ×ł×Ķ": 8812, "×ĵ×Ĳ×ĳ×ľ": 8813, "Ø§ÙĬÙģ": 8814, "Ġ×ª×ª×§×©×¨": 8815, "Ġ×ł×ľ×Ĺ×ŀ×ª×Ļ": 8816, "×ķ×¤×¢×ķ×ª": 8817, "Ġ×Ĳ×ĵ×ķ×ł×Ļ": 8818, "Ġ×ľ×¢×Ļ×ĵ×ķ": 8819, "Ġ×ĳ×ĺ×Ļ×¨×ķ×£": 8820, "Ġ×Ļ×Ķ×ľ×ķ×Ŀ": 8821, "Ġyuh": 8822, "Ġ×ĸ×¨×§×ª×Ļ": 8823, "Ġbreak": 8824, "Ġ×Ķ×¤×Ĳ×ł×§": 8825, "×Ļ×ķ×ķ×¨×ª": 8826, "Ġ×©×ŀ×©×ª×ŀ×©": 8827, "ĠLegal": 8828, "Ġ×ŀ×Ľ×ł×¡×Ļ×Ļ×Ŀ": 8829, "Ġ×ĺ×Ļ×ķ×ľ": 8830, "Ġ×ĳ×ķ×¡×§×Ļ×ľ×ĸ": 8831, "Ġ×ł×ķ×Ķ×Ĵ": 8832, "Ġ×ŀ×¤×ķ×¨×¡×Ŀ": 8833, "Ġscreaming": 8834, "Ġ×Ļ×ľ×ĵ×ķ×ł×ª": 8835, "low": 8836, "oah": 8837, "ug": 8838, "uz": 8839, "¡×ķ×Ļ": 8840, "¦×ķ×Ŀ": 8841, "×ľ×Ļ×": 8842, "×Ĵ×Ł": 8843, "×ª×Ļ×": 8844, "áĮ": 8845, "Ĳ×Ļ×Ļ×§": 8846, "Ĵ×Ļ×Ķ": 8847, "×ķ×ľ×": 8848, "Ĳ×ł×¡": 8849, "©×ĳ×ª×Ŀ": 8850, "Ġ×ľ×ĸ×ķ": 8851, "Ġ×ľ×ĺ×ķ×¡": 8852, "Ġ×ľ×Ĵ×ķ×£": 8853, "Ġ×Ķ×¨×Ĵ×Ļ×©": 8854, "Ġ×Ķ×ĺ×ķ×¡×Ļ×§": 8855, "Ľ×ĳ×Ļ": 8856, "¨×¡×Ķ": 8857, "Ġ×ŀ×ľ×Ķ": 8858, "Ġ×ĳ×ł×ķ×": 8859, "Ġ×©×ŀ×Ļ": 8860, "Ġ×©×¤×ķ×": 8861, "Ġ×©×©×¨": 8862, "Ġ×©×¤×ķ×ļ": 8863, "Ġ×©×ľ×Ĺ×ª×Ļ": 8864, "Ĺ×¨×": 8865, "Ĺ×ľ×ĺ": 8866, "¤×Ĳ×Ļ×Ŀ": 8867, "§×ĳ×ķ×§": 8868, "Ġ×ķ×Ļ×§": 8869, "¡×ľ×Ķ": 8870, "ĵ×¨×Ĵ×ķ×ª": 8871, "Ġ×ª×¤×Ļ×": 8872, "Ġ×ª×ľ×Ĺ×¥": 8873, "¦×¨×ª": 8874, "¨×ķ×ł×Ļ": 8875, "ĺ×¤×ķ": 8876, "ĸ×ł×¡": 8877, "Ġ×¨×Ľ×": 8878, "Ġ×¢×ķ×ĳ×ĵ×Ķ": 8879, "Ġ×§×ľ×ĺ×ª×Ļ": 8880, "Ġ×Ĳ×ķ×ĺ×ķ": 8881, "Ġ×Ĳ×ķ×ľ×¤×Ł": 8882, "Ġ×¤×Ļ×Ļ×Ķ": 8883, "×ķ×ĳ×Ļ×ķ×ª": 8884, "Ġ×¡×ľ×ĺ": 8885, "Ġ×¨×ķ×ª×Ĺ×ª": 8886, "Ġ×ĵ×¨×ķ×ļ": 8887, "Ġ×ĵ×ŀ×Ļ×ķ×Ł": 8888, "Ġ×ĺ×ķ×¨×ķ": 8889, "Ġ×ĵ×ķ×Ŀ": 8890, "Ġ×ĵ×Ļ×§": 8891, "Ġ×Ķ×ŀ×Ĵ×Ļ×¨×Ķ": 8892, "Ġ×ĳ×Ļ×£": 8893, "Ġ×ĳ×Ļ×ĳ×Ļ": 8894, "Ġ×Ľ×Ļ×ķ×ķ×ł×Ļ×Ŀ": 8895, "Ġ×ĳ×Ĳ×Ļ": 8896, "Ġ×ĳ×Ĳ×ķ×¨": 8897, "Ġ×ŀ×ª×ŀ×ķ×": 8898, "Ġ×ŀ×ª×ŀ×ķ×ĵ×ĵ": 8899, "Ġ×ŀ×ª×ł×Ķ×Ĵ": 8900, "ĠØ«": 8901, "ĠØ¶": 8902, "Ġ×Ĺ×ķ×ĺ": 8903, "Ġ×Ĺ×ķ×¦×Ķ": 8904, "ª×ķ×ľ": 8905, "Ġ×©×ķ×ł×Ļ×Ŀ": 8906, "Ġ×©×ķ×ª×§": 8907, "Ġ×©×ķ×ŀ×¢×ª": 8908, "\"\"!,": 8909, "Ġ×ŀ×Ķ×Ĵ": 8910, "Ġ×ŀ×Ķ×Ĵ×": 8911, "Ġ×ŀ×Ķ×Ĵ×ĳ": 8912, "Ġmus": 8913, "Ġ×¦×¨": 8914, "Ġ×ł×ķ×¦×¥": 8915, "ŀ×Ļ×ľ×Ķ": 8916, "Ġ×Ķ×©×ĳ×ĺ": 8917, "Ġ×Ķ×©×Ĺ×Ļ×ª×ķ×ª": 8918, "Ġ×ĳ×Ĳ×§×": 8919, "Ġ×ĳ×Ĳ×ŀ×ķ×ł×Ķ": 8920, "Ġ×Ķ×Ĳ×Ĺ×ª": 8921, "Ġ×Ķ×Ĳ×ĵ×Ŀ": 8922, "Ġ×ĳ×ŀ×Ľ×ķ×ł×Ļ×ª": 8923, "×Ĳ×ŀ×": 8924, "Ġ×©×Ļ×¡×Ĵ×¨": 8925, "Ġ×Ķ×¤×©×¢": 8926, "Ġbel": 8927, "Ġ×ŀ×Ĳ×¡×ĺ×¨": 8928, "ĺ×ķ×Ĳ×": 8929, "Ġ×ķ×Ķ×¨×Ĳ×©": 8930, "¤×¨×Ļ×Ļ×Ŀ": 8931, "Ġ×Ķ×ª×¡×": 8932, "Ġ×ľ×¢×Ľ×ľ": 8933, "Ġ×ľ×Ĳ×Ĺ×ĵ": 8934, "Ġ×ľ×Ĳ×¨×¥": 8935, "Ġ×Ķ×Ĺ×ĵ×©×Ķ": 8936, "Ġ×¤×ķ×ĸ×Ķ": 8937, "Ġ×ĵ×ķ×ĵ×Ķ": 8938, "Ġ×ĵ×ķ×¨×¡": 8939, "Ĵ×Ļ×ĳ": 8940, "Ġ×Ķ×Ļ×ľ×ĵ×Ķ": 8941, "ath": 8942, "Ġpick": 8943, "¡×Ļ×ķ×": 8944, "Ġ×ľ×Ķ×ª×¤×ķ×¦×¥": 8945, "ÙħØ³": 8946, "ÙħØ§ÙĨ": 8947, "ØªÙĥ": 8948, "Ġ×ĳ×¡×¦×ł×Ķ": 8949, "Ġ×ŀ×§×ľ": 8950, "Ġ×ŀ×§×©×Ļ×": 8951, "Ġ×ª×©×Ĳ×ľ×ķ": 8952, "ĺ×¨×Ļ×Ķ": 8953, "Ġ×ŀ×ĳ×ĺ×Ļ×Ŀ": 8954, "Ġ×ŀ×ĳ×¢×ĵ": 8955, "Ġ×ŀ×ĳ×Ĺ×Ł": 8956, "Ġ×ł×Ļ×¡×¢": 8957, "Ġ×Ĵ×ķ×¨×ľ": 8958, "Ĳ×Ļ×ĳ": 8959, "ĠAl": 8960, "ĠAre": 8961, "Ġ×ĳ×§×¦×Ķ": 8962, "ars": 8963, "Ġ×ª×Ļ×ł×ķ×": 8964, "Ġ×ª×Ļ×¤×ķ×ľ": 8965, "ĠØ§ÙĦØ³": 8966, "Ġ×ĵ×Ļ×Ĵ×Ļ×": 8967, "Ġinto": 8968, "ľ×ĺ×ķ": 8969, "Ġ×ĳ×Ĺ×ľ×ķ×Ŀ": 8970, "Ġ×ĳ×¤×¡×Ĵ×Ķ": 8971, "Ġ×ĺ×Ļ×¨×ķ×£": 8972, "Ġ×ľ×¡×ĵ×¨": 8973, "Ġ×ķ×ª×¢×": 8974, "Ġ×©×Ļ×¨×ķ×ª": 8975, "Ġ×ª×¢×ľ×Ķ": 8976, "Ġ×ķ×ł×¢×": 8977, "Ġ×ŀ×ľ×Ľ×ķ×": 8978, "Ġ×ľ×¨×©×ķ×Ŀ": 8979, "Ġ×Ľ×Ļ×¡×Ļ×Ŀ": 8980, "Ġ×ŀ×ł×ĺ×": 8981, "Ġ×ŀ×ł×Ĳ×Ļ×Ļ×§": 8982, "Ġwej": 8983, "ĠMr": 8984, "Ġ×Ĳ×¤×©×¨×Ļ": 8985, "×ľ×¢×": 8986, "ence": 8987, "Ġ×ĳ×ĺ×ĳ×¢": 8988, "ĠÐº": 8989, "Ġ×Ķ×ĸ×Ļ×ķ×ª": 8990, "Ġ×©×ľ×ŀ×Ļ×Ŀ": 8991, "ĠØ¹ÙĬÙĨÙĬ": 8992, "Ġ×ª×¨×¦×Ķ": 8993, "Ġ×ŀ×¡×ķ×ĳ×ļ": 8994, "Ġ×ķ×Ľ×ľ×ķ×Ŀ": 8995, "Ġ×¢×ĳ×¨×Ķ": 8996, "Ġ×¢×ĳ×¨×Ļ×Ļ×Ł": 8997, "irst": 8998, "ĠÙĬÙĪÙħ": 8999, "Ġ×Ķ×¦×ķ×¨×Ķ": 9000, "Ġ×Ķ×¦×ķ×ķ×ª": 9001, "Ġ×Ķ×ª×Ĺ×ľ×Ķ": 9002, "Ġ×Ļ×Ľ×ķ×ľ×ª×Ļ": 9003, "Ġ×ŀ×Ķ×ŀ×©×": 9004, "Ġ10": 9005, "Ġ15": 9006, "¦×ľ×Ļ×Ķ": 9007, "Ġ×ĳ×ĸ×Ľ×ķ×ª": 9008, "Ġ×ĳ×Ĳ×Ļ×ĸ×Ļ": 9009, "Ø§Ø±ÙĬ": 9010, "Ġ×¢×ĸ×¨×Ķ": 9011, "Ġ×Ĺ×ľ×ľ×Ļ×ª": 9012, "Ġ×¡×Ĳ×ĳ×ľ×Ļ×ŀ×Ļ×": 9013, "Ġ×Ĳ×¨×ĳ×¢×Ļ×Ŀ": 9014, "ÙĦØ§Ùħ": 9015, "ĳ×ľ×Ļ×ł×Ĵ": 9016, "Ġ×ĳ×ŀ×ķ×Ĺ": 9017, "Ĳ×ĺ×Ļ×§×Ķ": 9018, "Ġ×ª×Ľ×£": 9019, "Ġ×ª×§×ķ×¤×ķ×ª": 9020, "Ġ×©×¨×ķ×¦×Ļ×Ŀ": 9021, "Ġ×©×Ĳ×ķ×ľ×Ļ": 9022, "Ġvib": 9023, "ĠÙĤØ¨": 9024, "Ġ×ĵ×¤×§×Ķ": 9025, "Ġ×Ĳ×ĳ×Ļ×¨×Ļ×Ŀ": 9026, "Ð¾Ð²": 9027, "Ð¾Ð´": 9028, "ØºÙĬØ±": 9029, "Ġ×Ĺ×ª×ķ×ľ×Ķ": 9030, "Ġ×Ļ×Ķ×ķ×ĵ×Ķ": 9031, "ange": 9032, "ł×ĵ×¨×Ļ×§": 9033, "Ġ×Ĳ×ł×ķ×©×Ļ×ª": 9034, "×¤×Ļ×Ļ": 9035, "Ġ×ŀ×Ķ×Ĺ×ľ×ķ×Ł": 9036, "Ġ×¤×ł×Ĳ×Ł": 9037, "Ġ×ĺ×¨×ķ×¨": 9038, "Ġ×ĳ×¢×ķ×ĸ×Ļ": 9039, "Ġ×¢×©×ķ×Ļ": 9040, "Ġ×¨×Ĳ×ķ×Ļ": 9041, "Ġ×ª×¢×ĸ×ĳ×Ļ": 9042, "Ġ×ł×¦×ŀ×ĵ": 9043, "Ġ×Ĺ×ª×Ļ×Ľ×ª": 9044, "Ġ×ľ×¢×Ļ×Ł": 9045, "Ġsmoke": 9046, "Ġ×ĳ×¢×¦×ŀ×ļ": 9047, "Ġ×ĳ×ŀ×Ļ×ķ×Ĺ×ĵ": 9048, "Ġ×ķ×ľ×Ĺ×©×ķ×ĳ": 9049, "Ġ×ŀ×¡×ª×ķ×ĳ×ĳ×Ļ×Ŀ": 9050, "Ġ×Ĵ×ķ×¨×ŀ×ª": 9051, "×¤×Ĳ×§×Ļ×Ł": 9052, "Ġ×Ķ×ĺ×§×¡×ĺ×Ļ×Ŀ": 9053, "Ġ×ŀ×¡×ķ×ĳ×ĳ×ª": 9054, "Ġ×ŀ×ĳ×Ĺ×Ļ×ł×ª×Ļ": 9055, "Ġ×¤×ł×ķ×ŀ×": 9056, "rophone": 9057, "Ġ×ŀ×ĸ×ķ×Ļ×£": 9058, "Ġ×¤×¡×ķ×ľ×ª": 9059, "Ġpromise": 9060, "Ġ×ķ×¨×ĳ×ķ×ª×Ļ×Ļ": 9061, "20": 9062, "Boom": 9063, "bout": 9064, "day": 9065, "¤×Ļ×ľ×Ļ×Ŀ": 9066, "Ð¿": 9067, "ÑĪ": 9068, "×Ĵ×ķ×": 9069, "×§×¡": 9070, "×ª×ķ": 9071, "×¤×Ļ×ł×Ķ": 9072, "×Ĵ×ķ×£": 9073, "ĠZ": 9074, "Ķ×Ļ×Ļ": 9075, "ł×Ļ×Ł": 9076, "×ķ×¢": 9077, "×ķ×¦": 9078, "×ķ×Ĵ×Ŀ": 9079, "ľ×§×ĺ": 9080, "ľ×Ĵ×ķ×ª": 9081, "ŀ×ľ×Ľ×Ķ": 9082, "ĳ×Ŀ": 9083, "Ġ×Ĳ×Ł": 9084, "Ġ×Ĳ×Ĵ×Ļ×¢": 9085, "Ġ×Ķ×ķ×Ł": 9086, "©×ª×ķ×ł×ķ×ª": 9087, "Ġ×ľ×ĸ": 9088, "¨×ĵ×Ļ×Ŀ": 9089, "ª×¨×ª×Ļ": 9090, "Ġ×ŀ×¨×Ĺ": 9091, "Ġ×©×Ĺ": 9092, "Ġ×©×Ĺ×Ļ×Ļ×Ŀ": 9093, "Ġ×©×Ľ×Ļ×¨": 9094, "Ĺ×ª×Ŀ": 9095, "Ĺ×ł×ķ×ª": 9096, "Ĺ×ĸ×ķ×ª": 9097, "¤×ľ×ª": 9098, "¤×ľ×Ļ×Ļ": 9099, "Ġ×ķ×ķ×Ļ": 9100, "¡×ł×Ļ×ª": 9101, "ĵ×¨×ª×Ļ": 9102, "ĵ×¨×ķ×¡": 9103, "Ĵ×¨×Ŀ": 9104, "Ġ×ķ×§×Ĺ": 9105, "Ġ×ª×Ĺ": 9106, "Ġ×ª×©×ĳ": 9107, "¦×Ĺ×ª": 9108, "¦×Ĵ×Ķ": 9109, "×Ķ×ĳ": 9110, "Ġ×Ļ×ª×Ł": 9111, "Ġ×Ļ×¢×ľ×Ķ": 9112, "Ġ×Ļ×¨×Ĳ×ķ": 9113, "Ġ×©×ķ×¨": 9114, "ĳ×Ļ×ľ×Ł": 9115, "ľ×Ļ×Ļ×ļ": 9116, "Ġ×ł×Ĳ×ŀ×": 9117, "ĺ×ª×Ļ": 9118, "×ķ×¨×Ļ×§×ķ": 9119, "Ġ×Ĳ×Ļ×Ľ×": 9120, "×Ļ×Ļ×ł×ª": 9121, "×Ļ×Ļ×ĺ×¨×Ļ×Ŀ": 9122, "ĳ×ķ×ĸ": 9123, "Ġ×¢×ķ×ľ×ŀ×ķ×ª": 9124, "Ġ×¤×©×ķ×": 9125, "Ġ×¤×ł×Ļ×ª": 9126, "Ġ×¤×ª×Ļ×": 9127, "Ġ×Ĺ×Ľ×Ļ": 9128, "Ġ×Ĺ×ľ×Ļ×¤×Ķ": 9129, "Ġ×Ĳ×ķ×¤×Ļ": 9130, "Ġ×Ĳ×ķ×¨×ĳ×": 9131, "×ķ×ĳ×ķ": 9132, "Ġ×¡×Ĳ×Ł": 9133, "§×ķ×ĵ×ª": 9134, "Ġ×¨×ķ×ĳ×Ķ": 9135, "Ġ×ĵ×¨×ķ×Ŀ": 9136, "Ġ×ĵ×ĳ×ķ×¨×Ķ": 9137, "Ġ×Ĳ×Ĺ×ĸ×ķ×¨": 9138, "¡×ķ×¨×ª": 9139, "¨×Ĳ×Ļ×ª×Ļ": 9140, "Ġ×Ķ×ŀ×¦×Ĺ": 9141, "Ġ×Ķ×ŀ×¦×Ĳ×ª×Ļ": 9142, "Ġ×ĳ×ķ×Ĵ×ĵ": 9143, "Ġ×ĳ×Ļ×¤": 9144, "Ġ×ĳ×Ļ×ł×Ļ": 9145, "Ġ×ĳ×Ļ×¨×ķ×©×ľ×Ļ×Ŀ": 9146, "Ġ×ĳ×Ĳ×Ļ×Ļ×": 9147, "ĠØŁ": 9148, "ľ×Ļ×Ĺ×Ļ×Ŀ": 9149, "Ġ×©×ķ×ŀ×Ł": 9150, "Ġsong": 9151, "\"\"),": 9152, "ÙĦÙĥ": 9153, "Ġ×ĸ×ķ×¨×Ļ×§×ķ": 9154, "Ġ--": 9155, "ľ×ķ×¤": 9156, "Ġ×ĸ×¨×Ļ×Ŀ": 9157, "Ġ×ĸ×Ľ×¨": 9158, "Ġ×Ķ×©×ŀ×Ĺ×Ķ": 9159, "Ġ×ĳ×Ĳ×ĳ×Ļ×ľ×ķ×Ł": 9160, "ł×¡×Ļ×Ķ": 9161, "Ġ×Ķ×Ĳ×ŀ×Ļ×ª×Ļ": 9162, "Ġ×ĳ×©×ŀ×©": 9163, "Ġ×Ķ×ĳ×Ĺ×ķ×¨": 9164, "×Ĳ×ł×¨": 9165, "Ġ×©×Ļ×Ĺ×Ķ": 9166, "Ġ×ķ×Ĳ×Ĺ×¨": 9167, "Ġ×ķ×Ĳ×Ĺ×¨×Ļ": 9168, "Ġ×¦×Ļ×ķ×Ł": 9169, "Ġ×ŀ×Ĳ×ľ×": 9170, "©×ĳ×ķ": 9171, "Ġ×ľ×¤×Ĳ×": 9172, "ĵ×Ļ×Ĺ×Ķ": 9173, "Ġ×Ķ×ª×ľ": 9174, "×Ĳ×ķ×Ļ": 9175, "Ġ×ľ×ĳ×ł×Ķ": 9176, "Ġcame": 9177, "Ġ×ŀ×ŀ×©×": 9178, "...âĢı,": 9179, "Ġ×ĸ×ķ×Ķ×Ļ": 9180, "Ġ×ĸ×ķ×ľ×Ĵ×ķ×ª": 9181, "Ġ×ŀ×¢×¦×ŀ×Ļ": 9182, "Ġ×¤×ķ×¢×ľ": 9183, "Ġ×¤×ķ×Ĺ×ĵ×Ļ×Ŀ": 9184, "Ġ×¨×Ĳ×ĳ×§": 9185, "¡×ĺ×Ļ×ª": 9186, "Ġ×ķ×ŀ×ł×": 9187, "Ġ×ķ×ŀ×¤×": 9188, "Ĵ×ķ×ĸ×Ļ×Ŀ": 9189, "Ġ×ĵ×ķ×ł×Ĵ": 9190, "inging": 9191, "Ġ×Ķ×Ĵ×ĸ×": 9192, "Ġ×Ķ×Ĵ×ł×Ķ": 9193, "Ġ×Ķ×Ĵ×ľ×Ļ×Ŀ": 9194, "Ġ×©×Ĳ×ĳ×Ĳ": 9195, "Ġ×©×Ĳ×ŀ×¨×ª×Ļ": 9196, "Ġ×ª×ķ×ª×Ĺ": 9197, "ĺ×Ļ×Ĺ×Ļ×Ŀ": 9198, "Ġ×ľ×§×ľ×ķ×ĺ": 9199, "ÙĪÙĤ": 9200, "Ķ×¨×ª": 9201, "Ġ×ŀ×§×¨×Ķ": 9202, "Ġ×ŀ×§×ľ×ĺ": 9203, "Ġhot": 9204, "Ġ×Ķ×Ľ×ł×ª×Ļ": 9205, "Ġ×ł×Ļ×©×Ĳ×¨": 9206, "Ġ×Ĵ×ķ×¤×Ķ": 9207, "Ġ×Ĵ×ķ×¤×Ļ": 9208, "Ġ×Ķ×ĳ×Ļ×ĺ×Ĺ×ķ×Ł": 9209, "ĠAin": 9210, "ľ×Ľ×ª×Ļ": 9211, "Ġ×Ĳ×ķ×ŀ×ł×ķ×ª": 9212, "Ġ×Ķ×ĵ×¨×ŀ×Ķ": 9213, "×©×ļ": 9214, "×Ļ×ķ×ª×¨": 9215, "Ġ×ĳ×Ľ×ŀ×Ķ": 9216, "Ġ×ĳ×Ľ×ĳ×Ļ×©": 9217, "Ġ×¤×Ļ×¨×Ĳ×": 9218, "Ġ×¤×Ļ×¦×Ķ": 9219, "ľ×ķ×Ļ×ķ×ª": 9220, "©×Ļ×¨×Ļ×Ŀ": 9221, "Ġ×ĺ×Ļ×¤×ķ×¡": 9222, "Ġ×ľ×¡×©×ł×Ļ×Ŀ": 9223, "Ġ×Ļ×©×ŀ×¢×ķ": 9224, "Ġ×ª×¢×©×Ļ×Ļ×Ķ": 9225, "ĠBet": 9226, "Ĵ×¨×ķ×ª": 9227, "Ġ×ĺ×ķ×ĵ×ķ": 9228, "Ġ×ķ×ł×©×Ĳ×¨": 9229, "Ġ×ŀ×ľ×Ľ×Ķ": 9230, "uss": 9231, "ł×¡×Ķ×ķ×ľ": 9232, "Ġ×ª×Ĺ×ª×ķ×ļ": 9233, "ľ×§×Ļ": 9234, "Ġ×ŀ×ł×Ĵ×ĳ": 9235, "Ġstre": 9236, "Ġ×Ķ×Ĺ×ķ×ŀ×ķ×ª": 9237, "Ġdead": 9238, "ens": 9239, "Ġ×ł×ª×§×¢": 9240, "Ġ×Ķ×ŀ×Ķ×¤×Ľ×Ķ": 9241, "Ġ×ķ×©×ľ×ķ×©": 9242, "Ġres": 9243, "Ġrevolution": 9244, "×§×¦×ĳ": 9245, "×§×ĺ×¢": 9246, "Ġ×ŀ×ĺ×Ĳ×": 9247, "Ġ×ª×ŀ×©×Ļ×Ľ×ķ": 9248, "Ġ×ŀ×©×ķ×ľ×": 9249, "Ġ×ŀ×©×ķ×¨×¨": 9250, "Ġ×ª×¤×ł×Ķ": 9251, "Ġ×ł×¤×ľ×Ĳ": 9252, "ĠØ¹Ø±Ø¨ÙĬ": 9253, "Ġ×ĳ×¨×ķ×¨×Ķ": 9254, "Ø§ÙĦÙħ": 9255, "×ĳ×Ļ×Ļ×": 9256, "Ġ×Ķ×Ĳ×ķ×Ľ×ľ": 9257, "¤×¨×¢": 9258, "Ĳ×¨×ĵ×§×ķ×¨": 9259, "Ġ×¡×ĺ×Ĳ×¨": 9260, "Ġ×©×¨×©×¨×ª": 9261, "ĠGirl": 9262, "Ġ×ł×©×ŀ×¢×Ļ×Ŀ": 9263, "Ġ×Ĳ×¤×¡×Ļ×Ŀ": 9264, "Ġ×ŀ×Ļ×Ļ×¤×ľ": 9265, "Ġ×ŀ×ª×§×ª×§": 9266, "Ĳ×ł×ĺ×Ļ": 9267, "Ġ×Ĳ×ŀ×Ļ×ª×Ļ×ª": 9268, "Ġ×©×¢×Ľ×©×Ļ×ķ": 9269, "Ġ×ĳ×ĺ×ķ×¤": 9270, "Ġ×ĳ×Ľ×Ļ×Ľ×¨": 9271, "Ġ100": 9272, "Ġ×ľ×ĺ×¢×ķ×Ŀ": 9273, "Ġ×Ķ×§×Ļ×¨×ķ×ª": 9274, "ł×¨×ķ": 9275, "Ġ×Ķ×ķ×ľ×Ľ×ķ×ª": 9276, "Ġ×ŀ×ķ×Ľ×©×¨": 9277, "Ġ×ĵ×¨×¢×§": 9278, "Ġ×©×¤×©×ķ×ĺ": 9279, "ĠÙĩÙĪ": 9280, "Ġ×¢×¨×ĳ×Ļ": 9281, "Ġ×ľ×Ķ×©×ª×ľ×ĺ": 9282, "Ġ×ĸ×Ļ×¢×Ķ": 9283, "Ġ×ŀ×§×ķ×¨": 9284, "Ð°Ðº": 9285, "×Ľ×ķ×¡": 9286, "×Ľ×ķ×Ľ×ĳ": 9287, "Ġ×ľ×Ķ×Ĺ×ľ×Ļ×£": 9288, "ĠØ¯Ø±Ø¨Ùĥ": 9289, "Ġ×Ķ×ĵ×Ļ×¨×Ķ": 9290, "ĠÙħØ¹Ùĥ": 9291, "Ġ×Ķ×ĺ×Ļ×¨×ķ×£": 9292, "Ġ×ŀ×Ķ×¡×¨×ĺ": 9293, "Ġ×Ķ×ĳ×ĺ×Ĺ×ª": 9294, "Ġ×Ļ×ķ×¨×ĵ×ª": 9295, "Ġ×ª×ª×§×¨×ĳ": 9296, "Ġ×¨×ķ×ĵ×¤×ķ×ª": 9297, "Ġ×©×¨×Ļ×¤×Ķ": 9298, "ĠNew": 9299, "Ġ×ĺ×¨×Ļ×§": 9300, "Ġthings": 9301, "Ġsteppin": 9302, "Ġ×§×©×ķ×Ĺ": 9303, "Ġ×ĸ×ķ×ŀ×ĳ×Ļ": 9304, "Ġ×ŀ×¨×¢×Ļ×ĵ×Ļ×Ŀ": 9305, "Ġ×Ļ×¡×ª×ķ×¨": 9306, "Ġ×Ĵ×¢×Ĵ×ķ×¢×Ļ×Ŀ": 9307, "Ġ×Ķ×¡×ł×ĵ×§": 9308, "Ġ×ľ×ĳ×ľ×ķ×¢": 9309, "Ġ×¢×¦×ķ×ŀ×ķ×ª": 9310, "oi": 9311, "ole": 9312, "wa": 9313, "¨×Ļ×Ķ": 9314, "ª×Ļ×Ŀ": 9315, "ª×Ļ×ľ": 9316, "ª×Ļ×§×Ķ": 9317, "×§×ľ": 9318, "×¤×ľ×ķ×Ĳ×ķ": 9319, "Ġ&": 9320, "Ġz": 9321, "Ġill": 9322, "Ľ×Ļ×¨×Ķ": 9323, "ŀ×Ļ×Ĳ": 9324, "ŀ×Ļ×Ĳ×ķ": 9325, "×ķ×ĳ×": 9326, "Ĳ×ľ×Ļ×": 9327, "Ĳ×¨×ª": 9328, "ľ×ŀ×": 9329, "Ġ×Ĳ×¤×ķ×": 9330, "Ġ×Ĳ×ĵ×¢": 9331, "Ġ×Ĳ×¨×Ĵ×Ļ×©": 9332, "©×ł×Ķ": 9333, "Ġ×ľ×¨×Ĳ×": 9334, "Ġ×ľ×ľ×Ļ×": 9335, "Ġ×ľ×¤×ķ×": 9336, "Ġ×ľ×Ľ×Ļ×": 9337, "Ġ×ľ×Ĵ×Ļ×": 9338, "Ġ×ľ×ĺ×Ļ": 9339, "Ġ×Ķ×ĳ×Ļ": 9340, "Ľ×ł×ª": 9341, "Ľ×ĺ×ķ×ª": 9342, "¨×§×ľ": 9343, "¢×ĳ×ĵ": 9344, "Ġ×ŀ×ł×Ļ×Ļ×Ĳ×§": 9345, "ł×ĳ×ľ": 9346, "ł×¤×Ķ": 9347, "ł×Ĳ×ľ": 9348, "¤×¨×Ļ×¥": 9349, "Ġ×Ľ×ª×ķ×": 9350, "Ġ×Ľ×ł×Ļ×¡×Ķ": 9351, "Ġ×¢×¦×Ļ×Ŀ": 9352, "Ġ×ľ×Ļ×¨×Ļ×": 9353, "Ġ×ľ×Ļ×¨×Ļ×§×¡": 9354, "ĵ×ľ×ª": 9355, "Ĵ×ł×Ļ": 9356, "Ġ×ķ×Ľ×Ł": 9357, "Ġ×ª×Ĵ×¢": 9358, "Ġ×Ļ×ĵ×Ļ": 9359, "Ġ×Ļ×ĳ×Ļ×ł×ķ": 9360, "ĳ×Ļ×¡×Ķ": 9361, "Ġ×ľ×Ļ×ķ×": 9362, "ľ×Ļ×Ļ×Ķ": 9363, "Ġ×ł×§×ķ×ĵ×Ķ": 9364, "¢×ķ×ľ×Ķ": 9365, "ĺ×ĳ×ķ×": 9366, "ĺ×¨×£": 9367, "Ġ×Ĳ×Ļ×©×Ļ×ª": 9368, "Ġ×¨×ŀ×ª": 9369, "×Ļ×Ļ×¤×Ļ×Ŀ": 9370, "ĳ×ķ×Ķ": 9371, "ĳ×ķ×¨×ª": 9372, "Ġ×¤×§×ķ×": 9373, "Ġ×¤×Ĺ×Ļ×ª": 9374, "Ġ×¤×ł×§×Ļ×Ļ×§": 9375, "Ġ×§×ŀ×": 9376, "Ġ×§×ŀ×Ļ×Ŀ": 9377, "Ġ×§×ľ×Ļ×Ŀ": 9378, "Ġ×§×ĳ×Ļ×ł×ĺ": 9379, "Ġ×Ĺ×ŀ×ķ×ĵ": 9380, "Ġ×Ĳ×ķ×¤×Ł": 9381, "Ġ×Ĳ×ķ×ŀ×Ļ×Ļ×": 9382, "Ġ×Ĳ×ķ×¨×ĸ": 9383, "Ġ×Ĳ×ķ×ĸ×ł×Ļ×Ļ×Ŀ": 9384, "Ġ×Ĳ×ķ×Ĺ×ĸ": 9385, "Ġ×Ĳ×ķ×Ĵ×ķ×¡×ĺ": 9386, "Ġ×©×ľ×ķ×ķ×Ķ": 9387, "Ġ×Ĵ×ĳ×Ļ×Ł": 9388, "Ġ×Ĵ×ł×ķ×ĳ": 9389, "Ġ×¡×§×ķ×": 9390, "Ġ×¡×ĳ×Ļ×¨": 9391, "Ġ×Ļ×ķ×¡×£": 9392, "Ġton": 9393, "Ġtouch": 9394, "Ġ×ľ×Ķ×ł×ķ×ª": 9395, "¨×Ļ×ŀ×ķ×ª": 9396, "Ġ×ĵ×ľ": 9397, "Ġ×ĵ×¤×Ļ×Ŀ": 9398, "×ķ×Ĳ×ķ×¤": 9399, "Ġ×ŀ×ķ×ŀ×ķ": 9400, "ł×ķ×ł×Ļ×Ŀ": 9401, "Ġ×Ķ×ŀ×¨": 9402, "Ġ×Ķ×ŀ×ł×Ļ×Ĳ×§": 9403, "Ġ×ĳ×ķ×ŀ×ĳ×Ķ": 9404, "Ġ×ĳ×Ļ×ĺ×ķ×Ĺ": 9405, "¡×Ļ×Ľ×ķ×": 9406, "ł×Ļ×Ĺ": 9407, "ľ×Ļ×Ĺ×ķ×ª": 9408, "Ġ×©×ķ×¨×ĺ": 9409, "Ġsimp": 9410, "©×Ļ×ŀ×ķ×ª": 9411, "\"\"\"": 9412, "Ġ×ł×ķ×ĳ×ľ×¡": 9413, "Ġ×§×ķ×ĳ×¢": 9414, "©×ķ×ł×Ļ×Ŀ": 9415, "ŀ×Ļ×§×¨×ķ×¤×ķ×Ł": 9416, "ł×Ĵ×ķ×ľ": 9417, "Ġwatch": 9418, "ľ×ķ×ŀ×Ļ×Ŀ": 9419, "Ġ×Ķ×©×¨×Ļ×": 9420, "Ġ×Ķ×©×¤×ª×Ļ×Ļ×Ŀ": 9421, "Ġ×ĳ×Ĳ×¡×Ķ": 9422, "Ġ×Ķ×Ĳ×Ĺ×¨": 9423, "Ġ×ľ×ŀ×Ĺ×¨": 9424, "Ġ×ľ×ŀ×¡×¢": 9425, "Ġdark": 9426, "Ġ×ĳ×ŀ×ĳ×Ķ": 9427, "Ġ×ĳ×ŀ×¨×Ĳ×Ķ": 9428, "Ġ×©×ŀ×¨×Ĵ×Ļ×©": 9429, "Ġ×©×ŀ×¢×ķ": 9430, "×Ĳ×¤": 9431, "×Ĳ×¨": 9432, "×Ĳ×ĺ": 9433, "Ġ×©×Ļ×¦×Ĳ": 9434, "Ġ×Ķ×¤×ľ×Ĳ": 9435, "Ġ×Ķ×¤×¨×¡": 9436, "Ġ×Ķ×¤×Ľ×ª": 9437, "Ġ×ķ×Ĳ×¤×Ļ×ľ×ķ": 9438, "ĵ×ķ×ł×Ķ": 9439, "Ġ×ľ×©×Ĳ×ķ×": 9440, "ren": 9441, "Ġ×¦×Ļ×£": 9442, "Ġ×ŀ×Ĳ×ª×Ļ×Ļ×Ŀ": 9443, "Ġ×ŀ×Ĳ×ľ×Ļ×ķ": 9444, "Ġ×ľ×¤×ª×¢": 9445, "×Ĳ×ķ×¨": 9446, "Ġ×ŀ×ŀ×¨×Ļ×": 9447, "Ĵ×¢×Ļ×Ŀ": 9448, "ŀ×ª×Ļ×Ł": 9449, "Ġ×ķ×ŀ×ª×Ļ": 9450, "Ġ×ķ×ķ×¨×¡×Ļ×Ŀ": 9451, "Ġ×ª×ķ×¤×¡×ª": 9452, "Ġ×§×ķ×¨×Ļ×Ŀ": 9453, "Ġnah": 9454, "Ġ×¡×Ļ×ĺ×Ļ": 9455, "Ġ×¡×Ļ×ł×ĵ×¨×ľ×Ķ": 9456, "Ġ×ľ×ķ×§": 9457, "Ġ×ľ×Ĺ×Ĵ×ķ×Ĵ": 9458, "Ġ×ĳ×¨×Ĺ": 9459, "Ġ×¤×Ĳ×§×Ķ": 9460, "orus": 9461, "Ġ×ŀ×ĳ×ľ×ĳ×ľ": 9462, "Ġ×Ĵ×ķ×¡": 9463, "Ġ×Ĵ×ķ×ĵ×ľ": 9464, "ľ×Ľ×¡": 9465, "¦×ķ×Ĺ": 9466, "Ġ×ŀ×¤×ł×Ķ": 9467, "Ġ×ŀ×¤×ĸ×¨": 9468, "Ġ×Ķ×ĵ×¨×": 9469, "Ġ×Ķ×¢×ł×Ļ×Ļ×ł×Ļ×Ŀ": 9470, "Ġ×¢×¦×ŀ×Ķ": 9471, "Ġ×ĳ×Ĺ×ĸ×Ķ": 9472, "Ġ×¦×ķ×Ĺ×§×Ļ×Ŀ": 9473, "Ġ×ŀ×¨×¤×Ļ": 9474, "Ġ×ŀ×¨×¤×§": 9475, "Ġ×ĺ×Ļ×¤×ķ×ľ": 9476, "Ġ×ľ×¡×Ĳ×": 9477, "Ġ×Ļ×©×ł×ª×Ļ": 9478, "ĠâĢĺ": 9479, "Ġ×©×ĳ×¡×ķ×£": 9480, "Ġ×Ĳ×ľ×¤×Ļ×Ŀ": 9481, "Ġ×Ĳ×ľ×¤×Ļ": 9482, "Ġ×Ĳ×ľ×ł×ĳ×Ļ": 9483, "ĠBitch": 9484, "×ª×Ĵ×Ļ×ĵ×Ļ": 9485, "Ġ×ķ×ł×¢×ľ×Ŀ": 9486, "Ġ×¡×ķ": 9487, "Ġ×¡×Ļ×¨×Ķ": 9488, "Ġ×Ķ×Ķ×ķ×": 9489, "Ġ×Ķ×¦×ľ×Ĺ×ª": 9490, "ĠMa": 9491, "Ġkid": 9492, "Ġ×Ķ×Ĺ×ķ×ŀ×ķ×¡": 9493, "Ġ×ĳ×ł×¦×Ļ": 9494, "¤×ķ×¨×ķ×ª": 9495, "Ġ×ķ×Ļ×ľ×Ķ": 9496, "Ġ×ķ×Ľ×Ĳ×Ł": 9497, "Ġ×ł×¢×ł×¢": 9498, "Ġ×ĳ×ľ×Ĵ×Ł": 9499, "Ġ×ĳ×ľ×ĳ×ľ×Ķ": 9500, "Ġ×ł×ª×¨×Ĳ×Ķ": 9501, "Ġ×ĳ×ĺ×ľ×¤×ķ×Ł": 9502, "ĠÐ³": 9503, "ĠÐ´": 9504, "¡×ª×Ļ×¨": 9505, "¨×Ĵ×©×ķ×ª": 9506, "Ġ×Ĺ×Ļ×¤×©": 9507, "×¡×ĺ×ķ×¤": 9508, "Ġ×¡×ĺ×ĺ×Ļ×§": 9509, "Ġ×¢×Ļ×ķ×ķ×¨×ª": 9510, "ĸ×Ļ×§×Ļ×Ŀ": 9511, "ł×Ļ×¡×ķ": 9512, "Ġ×ł×¡×Ĺ×": 9513, "ĠFight": 9514, "Ġforth": 9515, "Ġ×ŀ×¤×ķ×§×": 9516, "Ġ×ŀ×Ķ×ŀ×§×ķ×Ŀ": 9517, "Ġ×ŀ×ª×¤×©×ĺ": 9518, "Ġ×©×ł×Ķ×Ļ×Ķ": 9519, "Ġ×ŀ×Ľ×ķ×¢×¨": 9520, "Ġfriend": 9521, "ĠThen": 9522, "Ġ×Ķ×ĵ×Ļ×ĳ×ķ×¨×Ļ×Ŀ": 9523, "Ġ×Ķ×§×Ļ×§": 9524, "Ġ×ŀ×ķ×¨×Ļ×ĵ×Ļ×Ŀ": 9525, "Ġ×Ļ×Ļ×¦×Ĳ": 9526, "Ġ×Ļ×Ļ×§×Ĺ×ķ": 9527, "Ġ×©×ł×ķ×ª×ł×Ļ×Ŀ": 9528, "Ġ×ª×§×ķ×¢×Ļ×Ŀ": 9529, "Ĳ×ĸ×Ļ×Ł": 9530, "Ġ×¢×¨×¤×": 9531, "Ġ×§×ľ×ŀ×Ł": 9532, "Ġ×ŀ×¨×ķ×§×Ł": 9533, "Ġ×ª×ľ×Ľ×Ļ": 9534, "Ġ×ĳ×§×ķ×¤×": 9535, "Ĺ×Ļ×§×ķ×Ļ": 9536, "¤×ª×Ĺ×ķ": 9537, "Ġ×ķ×ķ×Ļ×ĳ": 9538, "ł×ĺ×Ļ×ŀ×Ļ": 9539, "×ĸ×Ļ×Ł": 9540, "×ĳ×ķ×Ĳ×Ļ": 9541, "Ġ×ľ×Ķ×ª×§×©×¨": 9542, "Ġ×ĳ×ŀ×¨×¤×¡×ª": 9543, "Ġeverything": 9544, "Ġ×ĳ×Ļ×ķ×ª×¨": 9545, "Ġ×ĳ×¤×ķ×ĸ×Ķ": 9546, "Ġ×ŀ×ª×Ļ×Ļ×Ĺ×¡": 9547, "Ġ×ŀ×ª×ľ×ĳ×ĺ": 9548, "Ġ×ŀ×ŀ×©×Ļ×Ľ×Ķ": 9549, "Ð¸Ð»": 9550, "ĺ×¨×Ļ×§×¡": 9551, "Ġ×©×§×Ļ×ª": 9552, "Ġ×ª×ª×§×¨×ĳ×Ļ": 9553, "Ġ×¡×ĳ×ĳ×Ļ": 9554, "Ġ×Ļ×¨×Ļ×ķ×ª": 9555, "afar": 9556, "Ġ×Ĳ×Ĺ×ķ×ª×Ļ": 9557, "Ġ×Ķ×Ļ×Ĺ×Ļ×ĵ×Ļ": 9558, "ĠØ²ÙĬ": 9559, "ľ×ĵ×¡×§×ķ×ľ": 9560, "ways": 9561, "Ġ×Ļ×Ĵ×Ĳ×ľ": 9562, "Ġ×ĳ×Ĺ×Ļ×ł×Ŀ": 9563, "Ġ×§×¨×Ĳ×ª×Ļ": 9564, "Ġ×¨×¦×Ĺ×ª×Ļ": 9565, "Ġ×ľ×ĵ×Ļ×Ĵ": 9566, "Ġmicrophone": 9567, "Ġ×ĺ×¨×Ļ×¤": 9568, "ĠÙħØ±Ø©": 9569, "Ġ×ŀ×Ĵ×¢×Ļ×ľ": 9570, "Ġ×ª×ł×ķ×¢×Ķ": 9571, "Ġ×§×ķ×¡×Ĳ×ŀ×": 9572, "¡×§×ķ×¤": 9573, "Ġnigga": 9574, "Ġsomething": 9575, "ľ×ķ×ķ×ł×ĺ×Ļ": 9576, "Ġmatter": 9577, "Ġ×¦×¨×¤×ª×Ļ×ª": 9578, "ĠÙĪØ§ØŃØ¯": 9579, "Ġ×©×¢×ĵ×Ļ×Ļ×Ł": 9580, "Ġ×Ĳ×ķ×¤×Ļ×ķ×Ŀ": 9581, "Ġ×Ĳ×Ķ×ķ×ĳ×ª×Ļ": 9582, "Ġhelp": 9583, "air": 9584, "eal": 9585, "my": 9586, "ya": 9587, "yah": 9588, "§×Ļ×Ĳ": 9589, "Ö´": 9590, "×¡×ĺ×": 9591, "×¡×ª×Ľ×ľ": 9592, "×ĵ×¨×ŀ×Ķ": 9593, "Ø¸": 9594, "Ġice": 9595, "Ĳ×ķ×ķ×Ķ": 9596, "Ĵ×Ļ×Ł": 9597, "ŀ×Ļ×Ļ×Ķ": 9598, "×ķ×Ļ×Ļ×": 9599, "Ĳ×§×ĺ": 9600, "ľ×¥": 9601, "ľ×Ľ×ķ×": 9602, "ľ×ĳ×ķ×ľ": 9603, "Ġ×Ĳ×ł×Ĵ": 9604, "Ġ×Ĳ×ĳ×ĵ": 9605, "Ġ×Ĳ×ĳ×ķ": 9606, "Ġ×Ĳ×ĵ×Ĳ×Ĵ": 9607, "Ġ×Ķ×ķ×ķ×Ķ": 9608, "©×ŀ×ª": 9609, "©×Ľ×ª": 9610, "Ġ×ľ×¨×ķ×ĳ": 9611, "Ġ×ľ×ł×Ĵ×ķ×": 9612, "Ġ×ľ×ł×§×ķ×ª": 9613, "Ġ×Ķ×¦×ķ×": 9614, "¨×ŀ×Ļ×Ŀ": 9615, "Ġ×ŀ×§×Ļ×": 9616, "Ġ×ŀ×Ĳ×Ļ×Ł": 9617, "Ġ×ĳ×ł×Ļ×Ļ×ł×Ļ×Ŀ": 9618, "Ġ×ĳ×ľ×Ķ×ĳ×ķ×ª": 9619, "Ġ×©×Ľ×Ļ×": 9620, "Ġ×©×Ĺ×§": 9621, "Ġ×©×ł×Ļ×Ļ×Ŀ": 9622, "Ġ×©×¨×ķ×£": 9623, "ł×ľ×Ļ×Ŀ": 9624, "ł×¨×Ĵ×Ļ×Ķ": 9625, "Ĺ×Ĳ": 9626, "Ĺ×ĺ×Ļ×Ŀ": 9627, "Ġ×Ľ×¤×¨": 9628, "Ġ×Ľ×¤×ķ×ľ": 9629, "Ġ×Ĳ×ķ×ķ×": 9630, "Ġ×¢×¡×": 9631, "Ġ×¢×¨×ķ×": 9632, "Ġ×¢×ª×Ķ": 9633, "Ġ×¢×ŀ×ĵ": 9634, "Ġ×¢×¤×ķ×ª": 9635, "ĵ×§×ª": 9636, "Ġ×ľ×Ĳ×ķ×ķ×Ļ×¨×Ķ": 9637, "Ĵ×ŀ×Ķ": 9638, "Ĵ×ĵ×Ļ": 9639, "Ġ×ŀ×Ļ×Ķ": 9640, "Ġ×ŀ×Ļ×¨×Ļ": 9641, "Ġ×ķ×¦": 9642, "Ġ×ķ×ĺ×Ļ×": 9643, "Ġ×ķ×ĺ×ķ×ĳ": 9644, "Ġ×ķ×ĳ×ľ×Ļ×ľ×ķ×ª": 9645, "Ġ×ª×©×ĳ×ķ×¨": 9646, "Ġ×ª×¤×Ļ×ľ×Ķ": 9647, "¦×ľ×Ļ": 9648, "Ġ×Ļ×ĺ×": 9649, "Ġ×Ļ×¤×¡×Ļ×§": 9650, "Ġ×©×Ļ×§×ķ×Ŀ": 9651, "ĳ×Ļ×ļ": 9652, "ĳ×Ļ×ľ×Ļ×Ŀ": 9653, "ª×Ļ×ķ": 9654, "Ġ×ł×¨×ķ×ª": 9655, "ĸ×ŀ×ł×Ļ×Ŀ": 9656, "Ġ×Ĳ×Ļ×ŀ×¤×¨×Ļ×Ķ": 9657, "Ġ×ª×ķ×¨×Ķ": 9658, "Ġ×¨×¢×ķ×ª": 9659, "Ġ×¨×Ĳ×ķ": 9660, "Ġ×¨×¦×ķ": 9661, "Ġ×¨×ĵ×Ļ×ķ": 9662, "Ġ×¢×ľ×ķ": 9663, "Ġ×¢×ķ×ł×Ļ×Ŀ": 9664, "Ġ×§×§×Ķ": 9665, "Ġ×§×¦×¨×Ļ×Ŀ": 9666, "Ġ×§×ĳ×¨×ķ×ª": 9667, "Ĺ×ķ×Ĳ×ł×Ķ": 9668, "Ġ×Ĳ×ķ×ĳ×": 9669, "Ġ×Ĳ×ķ×ĳ×¨": 9670, "Ġ×¤×Ļ×Ļ×¡": 9671, "Ġ×Ĵ×¨×ķ×¢": 9672, "Ġ×ľ×Ķ×¦×Ļ×": 9673, "Ġ×ľ×Ķ×ŀ×ķ×ł×Ļ×Ŀ": 9674, "Ġ×ľ×Ķ×¨×ķ×ķ×Ļ×Ĺ": 9675, "Ġ×ĵ×ľ×§": 9676, "Ġ×ĵ×ĳ×Ļ×ľ×Ļ": 9677, "×Ļ×ľ×ķ×ĳ": 9678, "Ġ×ĺ×ķ×Ł": 9679, "Ġ×ŀ×ķ×ĵ×¨×": 9680, "....,": 9681, "Ġ×Ķ×ŀ×¨×Ĳ×Ķ": 9682, "Ġ×ľ×Ķ×ķ×¨×Ļ×Ŀ": 9683, "Ġ×ĳ×Ļ×ľ": 9684, "Ġap": 9685, "Ġ×ŀ×ª×ł×ĵ×": 9686, "Ġsi": 9687, "Ġsur": 9688, "Ġsound": 9689, "©×Ļ×¢": 9690, "×ķ×ķ×¡×ĺ": 9691, "ÙĬØ§": 9692, "Ġ×ŀ×Ķ×¤×Ļ×": 9693, "Ġ×ŀ×Ķ×§×¨×ķ": 9694, "Ġ×ŀ×©×§×Ļ×¢": 9695, "Ġ×¦×ŀ×ķ×ĵ": 9696, "ŀ×Ļ×Ĵ×Ŀ": 9697, "Ġ×Ķ×©×¢×Ķ": 9698, "Ġ×ŀ×¡×¤×§": 9699, "Ġ×ŀ×¡×ĳ×Ļ×¨": 9700, "Ġ×ŀ×Ĺ×ľ×Ļ×ĺ": 9701, "Ġ×ŀ×Ĺ×©×ĳ×Ķ": 9702, "Ġ×Ķ×Ĳ×ĵ×ķ×Ŀ": 9703, "Ġ×ľ×ŀ×ĸ×": 9704, "Ġ×ľ×ŀ×ĵ×ª": 9705, "Ġ×ľ×ŀ×Ĺ×ķ×§": 9706, "Ġ×ĺ×¨×£": 9707, "Ġ×ĺ×¨×ŀ×": 9708, "Ġ×ĺ×ĵ×¨×ķ×¡": 9709, "Ġ×ĳ×ŀ×ł×ķ×": 9710, "Ġ×©×ŀ×ª×Ĺ×": 9711, "Ġ×Ķ×¤×¨×Ĺ": 9712, "Ġ×ķ×Ĳ×©×": 9713, "ĵ×ķ×ŀ×Ļ×Ŀ": 9714, "Ġ×ľ×©×§×¨": 9715, "Ġ×ľ×©×¤×ķ×ļ": 9716, "ŀ×Ļ×ĵ×ķ×ª": 9717, "Ġbare": 9718, "¨×Ĵ×Ļ×Ŀ": 9719, "anc": 9720, "ĵ×Ļ×ł×Ļ×Ŀ": 9721, "Ġlines": 9722, "Ġ×Ķ×ª×¤×": 9723, "Ġ×Ķ×ª×Ĵ×": 9724, "Ġ×©×Ķ×Ł": 9725, "Ġ×©×Ķ×Ĺ×": 9726, "Ġ×ľ×ĳ×¢×ķ×ĺ": 9727, "Ġ×ŀ×¢×Ľ×©×Ļ×ķ": 9728, "¢×Ļ×§×¨": 9729, "Ġ×Ķ×Ĺ×¤×Ļ×¨×Ķ": 9730, "Ġ×Ķ×Ĺ×©×ĳ×ķ×Ł": 9731, "Ġ×Ĺ×Ļ×§×ķ×Ļ": 9732, "Ġ×ĵ×ķ×¤×Ł": 9733, "Ġ×ĵ×ķ×ŀ×Ŀ": 9734, "Ġ×Ľ×©×Ľ×ľ": 9735, "Ġ×Ķ×Ļ×Ĵ×Ļ×ķ×Ł": 9736, "Ġ×Ķ×Ļ×¤×Ķ×ķ×¤": 9737, "Ġ×Ķ×Ĵ×¨×ķ×Ł": 9738, "Ġgwan": 9739, "Ġ×©×Ĳ×ĺ": 9740, "Ġ×ª×ķ×ŀ×¨": 9741, "Ġ×ĳ×¨×Ĵ×ľ×Ļ×Ļ×Ŀ": 9742, "ĠØ§ØŃ": 9743, "ĠØ§Ø®": 9744, "Ġper": 9745, "Ġ×ĳ×©×ĳ×Ļ×ľ×ķ": 9746, "Ġ×ľ×Ķ×ª×ŀ×": 9747, "ÙħÙĨ": 9748, "Ġ×¤×Ĳ×Ŀ": 9749, "Ġ×¤×Ĳ×¨×§": 9750, "Ġ×ľ×Ļ×¦×Ł": 9751, "Ġ×ĳ×¡×Ĵ×ł×ķ×Ł": 9752, "Ġ×ŀ×§×¦×ķ×¢": 9753, "Ġhon": 9754, "Ġ×Ĵ×ķ×¤×ķ×ª": 9755, "Ġ×Ĵ×ķ×ŀ×Ļ×Ĵ×Ŀ": 9756, "Ġ×ķ×ľ×Ľ×Ł": 9757, "Ġ×ŀ×Ľ×ķ×¨×Ķ": 9758, "Ġ×ĳ×§×ĳ×¨": 9759, "×©×§×ľ": 9760, "Ġ×ŀ×¦×Ĳ×ł×ķ": 9761, "Ġ×§×Ļ×ĳ×ľ×ķ": 9762, "ĠØ§ÙĦØ®": 9763, "¢×ª×Ļ×Ļ×Ŀ": 9764, "Ġ×ĵ×Ļ×ł×Ķ": 9765, "Ġ×ĵ×Ļ×Ľ×Ĳ×ķ×Ł": 9766, "Ġ×¢×¦×Ŀ": 9767, "Ġ×ĳ×Ĺ×¦×¨": 9768, "Ġ×ĳ×Ĺ×ĵ×©×ķ×ª": 9769, "Ġ×©×ł×ª×": 9770, "ĸ×Ļ×Ľ×¨×ķ×Ł": 9771, "Ġ×Ļ×©×ĳ×ł×Ļ×Ŀ": 9772, "Ġ×Ļ×©×ľ×ŀ×ķ": 9773, "Ġ×©×ĳ×¢×ķ×ľ×Ŀ": 9774, "Ġ×Ĳ×¤×ľ": 9775, "Ġ×ķ×ª×¨×©×Ŀ": 9776, "¡×§×Ļ×Ļ": 9777, "Ġ×ĺ×ķ×¤": 9778, "Ġ×ķ×ł×©×Ļ×Ŀ": 9779, "¦×Ļ×Ĳ×ķ": 9780, "Ġ×Ĳ×¨×ĸ": 9781, "Ġ×Ĳ×Ľ×ľ×ł×ķ": 9782, "Ġkind": 9783, "Ġ×ł×Ĺ×ł×§": 9784, "Ġ×Ķ×Ĺ×ķ×ĳ": 9785, "Ġ×ĳ×ľ×©×ķ×Ł": 9786, "ĠNafar": 9787, "ĠDis": 9788, "Ġret": 9789, "ĠHim": 9790, "Ġ×©×Ľ×ĵ×Ĳ×Ļ": 9791, "Ġ×ŀ×©×ķ×Ĵ×¢×ª": 9792, "Ġbeat": 9793, "Ġ×©×ľ×¤×¢×ŀ×Ļ×Ŀ": 9794, "ĠLow": 9795, "×§×Ļ×Ļ": 9796, "ĠÙĦØ£": 9797, "Ġ×ŀ×ª×Ĺ×ĳ×Ĳ": 9798, "Ĳ×¨×ĺ×Ļ": 9799, "Ġ×¢×Ļ×¤×¨×ķ×Ł": 9800, "Ġ×Ĳ×ľ×ķ×£": 9801, "ĠGo": 9802, "×ķ×ķ×Ĳ×Ĵ": 9803, "unch": 9804, "Ġsold": 9805, "Ľ×ł×¡×ª": 9806, "Ġ×ŀ×Ĺ×ķ×ĳ×¨×Ļ×Ŀ": 9807, "Ġ×ŀ×ª×§×¨×ĳ×ª": 9808, "Ĳ×ł×ĸ": 9809, "Ġ×©×¢×ĳ×¨×ª×Ļ": 9810, "ĳ×ĺ×Ļ×Ķ": 9811, "×¡×ķ×ķ×Ļ×¡×Ķ": 9812, "tern": 9813, "Ġ×ķ×Ĺ×©×ĳ×ª×Ļ": 9814, "Ġ×Ĳ×§×ł×Ķ": 9815, "Ġ×ŀ×§×ķ×ŀ×Ļ": 9816, "Ġ×ĳ×ĸ×Ľ×ķ×": 9817, "Ġ×ĳ×¨×Ļ×¦×Ķ": 9818, "Ġ×ķ×Ĳ×ķ×¨×ĺ×Ĵ×Ķ": 9819, "Ġ×Ĳ×ĳ×ĵ×Ķ": 9820, "Ġ×Ļ×Ļ×ª×Ł": 9821, "Ġ×©×¨×Ļ×¨×Ļ×Ŀ": 9822, "Ġ×Ķ×Ĵ×Ļ×¢×Ķ": 9823, "000": 9824, "Ġ×Ķ×¨×Ļ×Ĳ×ķ×ª": 9825, "Ġ×¨×Ĵ×©": 9826, "ĺ×ľ×Ļ×Ł": 9827, "Ġ×¡×ķ×ķ×Ļ×¡": 9828, "Ġ×ĳ×Ľ×ķ×ª×¨×ķ×ª": 9829, "ĳ×ľ×¢": 9830, "Ġreality": 9831, "Ġ×¢×¦×Ļ×¨×Ķ": 9832, "Ġ×ľ×Ķ×ª×¢×ľ×Ŀ": 9833, "Ġ×ľ×ŀ×ķ×Ĺ": 9834, "ÑģÑĤ": 9835, "Ĳ×¤×ķ×¨×Ķ": 9836, "Ġ×©×ŀ×ª×¢×": 9837, "×¨×ķ×¦×Ķ": 9838, "Ġ×ł×ķ×¤×ľ×ª": 9839, "Ġ×§×¨×ķ×ĳ×Ķ": 9840, "Ġ×¡×Ļ×Ļ×ĵ": 9841, "Ġ×Ĵ×ĵ×ķ×ľ×ķ×ª": 9842, "Ġ×ª×¨×§×ĵ×ķ": 9843, "Ġ×Ķ×¡×ķ×ķ×Ĳ×Ĵ×Ķ": 9844, "Ġ×©×ŀ×ķ×¢×ķ×ª": 9845, "Ġ×ª×¦×Ĳ×Ļ": 9846, "Ġ×Ķ×ĵ×ľ×ª×ķ×ª": 9847, "Ġ×ĳ×ª×Ĺ×ª×ķ×ł×Ļ×Ŀ": 9848, "upt": 9849, "Ġ×Ķ×Ĳ×ŀ×¡×Ļ×ĸ": 9850, "Ġ×¨×Ĺ×ŀ×Ļ×Ŀ": 9851, "Ġ×Ĺ×ŀ×ķ×ĵ×Ķ": 9852, "Ġ×ľ×Ķ×Ĳ×©×Ļ×Ŀ": 9853, "Ġ×Ļ×ĵ×¢×ķ": 9854, "ĳ×¨×Ļ×Ľ×Ķ": 9855, "Ġ×ł×ĳ×¨×Ĺ": 9856, "ĠØºÙĬØ±": 9857, "Ġ×ł×¡×Ļ×ļ": 9858, "Ġ×Ĺ×ľ×ķ×ł×ķ×ª": 9859, "Ġ×¢×Ļ×ķ×ķ×¨×Ļ×Ŀ": 9860, "Ġsinging": 9861, "Ġ×¦×ķ×¨×Ĺ×ķ×ª": 9862, "ĠIsraeli": 9863, "Ġpushing": 9864, "Ġ×¤×ķ×ľ×Ļ×ĺ×Ļ×§×Ĳ×Ļ×Ŀ": 9865, "Ġ×Ķ×¨×ķ×ķ×Ĺ×ª×Ļ": 9866, "Ġwinning": 9867, "Ġ×©×Ļ×ª×ł×Ĵ×Ł": 9868, "Ġinterr": 9869, "Ġ×ŀ×©×¢×ŀ×Ŀ": 9870, "ĠâĢı(": 9871, "Ġ×Ķ×ŀ×¨×Ľ×ĸ×Ļ×ª": 9872, "¡×¤×ķ×ŀ×ĺ": 9873, "Ġ×¡×ł×ĵ×ķ×ķ×Ļ×¥": 9874, "Ġ×§×ķ×ŀ×¤×ľ×ĺ": 9875, "ŀ×ķ×¤×ķ×ĳ": 9876, "Ġbeautiful": 9877, "Ġ×Ĳ×¤×ķ×§×ľ×Ļ×": 9878, "come": 9879, "ever": 9880, "ness": 9881, "ri": 9882, "ying": 9883, "¤×Ļ×Ļ×ļ": 9884, "ÅŁ": 9885, "×§×ķ×Ŀ": 9886, "×Ĵ×Ļ×": 9887, "×ľ×ķ×ª": 9888, "×¤×ķ": 9889, "ÙĴ": 9890, "Ġ{": 9891, "ĠĊ": 9892, "Ġáĭ": 9893, "Ĵ×Ļ×ľ": 9894, "Ľ×Ļ×¨×ķ×ª": 9895, "ŀ×Ļ×¨": 9896, "ŀ×Ļ×§": 9897, "ŀ×ķ×¨×Ļ×Ŀ": 9898, "ł×Ļ×ĵ": 9899, "Ġ×¨×Ķ": 9900, "×ķ×Ķ": 9901, "×Ķ×Ļ×ķ×Ŀ": 9902, "Ĳ×¥": 9903, "ľ×ª×Ķ": 9904, "ŀ×ĳ×Ļ×ł×Ķ": 9905, "ĳ×ĵ×ł×ķ": 9906, "Ġ×Ĳ×ľ×Ĳ×": 9907, "Ġ×Ĳ×¨×Ĳ×Ķ": 9908, "Ġ×Ĳ×¨×ķ×Ł": 9909, "Ġ×Ĳ×¤×ķ×¨": 9910, "Ġ×ľ×¦×ķ×": 9911, "Ġ×Ķ×ŀ×Ķ": 9912, "Ġ×Ķ×ĳ×ľ×Ļ×Ŀ": 9913, "Ľ×Ĳ×ľ": 9914, "Ľ×ľ×ª×Ļ": 9915, "ª×Ľ×Ŀ": 9916, "Ġ×ŀ×ĵ×Ļ×Ŀ": 9917, "Ġ×ŀ×ĸ×Ļ×§": 9918, "Ġ×ŀ×¡×Ļ×ĳ×ª": 9919, "Ġ×©×¡×ķ×": 9920, "Ġ×©×©×Ļ×": 9921, "Ġ×©×©×ķ×ĳ": 9922, "Ġ×©×¢×¨": 9923, "ł×§×¡": 9924, "¤×¤×ª": 9925, "¤×¢×Ļ×Ŀ": 9926, "¤×ĺ×Ł": 9927, "¤×¨×ĵ": 9928, "¤×¦×ķ": 9929, "Ġ×Ľ×Ľ×ľ": 9930, "×ķ×ª×Ķ": 9931, "Ġ×ŀ×Ļ×¨×ķ": 9932, "Ġ×ķ×ľ×Ļ×": 9933, "Ġ×ª×Ĺ×Ļ×": 9934, "Ġ×ª×ª×Ļ×Ļ×": 9935, "Ġ×ł×§": 9936, "Ġ×ł×Ĵ×¢": 9937, "Ġ×ł×Ĳ×Ļ": 9938, "Ġ×Ĳ×Ļ×§×¡": 9939, "Ġ×§×¢×¨×ª": 9940, "Ġ×§×ĵ×ķ×©": 9941, "Ġ×§×ł×ĵ×¨×Ļ×§": 9942, "Ġ×Ĺ×¥": 9943, "Ĺ×ķ×ł×Ļ×Ŀ": 9944, "Ĺ×ķ×§×Ķ": 9945, "Ġ×Ĳ×ķ×ľ×Ļ×": 9946, "Ġ×Ĵ×ľ×Ĵ×": 9947, "Ġ×Ĵ×Ĳ×ł×Ĵ×": 9948, "§×ķ×ĵ×Ļ×Ŀ": 9949, "Ġtre": 9950, "Ġter": 9951, "Ġten": 9952, "Ġ×¨×ķ×¢×ĵ": 9953, "Ġ×ľ×Ķ×Ľ×": 9954, "Ġ×ĵ×¤": 9955, "Ġ×ĵ×Ł": 9956, "Ġ×ĺ×Ļ×Ŀ": 9957, "ł×ķ×¢×Ķ": 9958, "Ġ×Ķ×ŀ×ł×Ļ×Ļ×Ĳ×§": 9959, "Ġ×ĳ×ķ×Ĺ×Ł": 9960, "Ġ×ĳ×ķ×¨×Ĺ×ª": 9961, "Ġ×ĳ×Ļ×§×Ļ×ł×Ļ": 9962, "¡×Ļ×ł×ķ": 9963, "Ġ×¨×§×ķ×ĳ": 9964, "ins": 9965, "Ġ×ŀ×ª×Ĳ×Ļ×": 9966, "ľ×Ļ×¤": 9967, "Ġ×Ĺ×ķ×¡×¨": 9968, "Ġ×Ĺ×ķ×ľ×£": 9969, "ª×ķ×ľ×ķ×ª": 9970, "Ġ×©×ķ×ĳ×¨×ª": 9971, "Ġ×©×ķ×ĵ×ĵ": 9972, "Ġ×©×ķ×¤×ĺ": 9973, "Ġsu": 9974, "×ķ×ķ×Ľ×Ĺ": 9975, "ÙĬØ¨": 9976, "Ġ×ŀ×Ķ×¦×": 9977, "Ġ×ŀ×©×ĳ×¨": 9978, "Ġ×§×ķ×¨×Ĳ×ķ×ª": 9979, "ŀ×Ļ×ŀ×ķ×ª": 9980, "Ġ×ĸ×§×ķ×£": 9981, "Ġ×Ķ×©×¨": 9982, "Ġ×Ķ×©×ľ×ĳ": 9983, "Ġ×Ķ×©×§×ľ×Ļ×Ŀ": 9984, "Ġ×ĳ×Ĳ×ŀ×Ĳ": 9985, "Ġ×ĳ×Ĳ×ĵ×ķ×Ŀ": 9986, "Ġ×Ķ×ķ×ŀ×ķ": 9987, "Ġ×ŀ×¡×ŀ×Ł": 9988, "Ġ×ŀ×¡×¤×¨×ª": 9989, "Ġ×ŀ×¡×Ĵ×¨×ª": 9990, "Ġ×Ķ×Ĳ×ŀ×ķ×ł×Ķ": 9991, "Ġ×ľ×ŀ×ĺ×¨×Ķ": 9992, "Ġ×ľ×ŀ×¡×Ļ×ĳ×ª": 9993, "Ġ×ĳ×ŀ×§×ķ×ŀ×ķ×ª": 9994, "Ġ×©×Ļ×ĵ×": 9995, "Ġ×ľ×©×ł×Ļ": 9996, "Ġ×ľ×©×ŀ×Ķ": 9997, "Ġ×ľ×©×ŀ×©": 9998, "Ġ×ķ×Ķ×ŀ×Ļ×ľ×Ļ×Ŀ": 9999}